{
  "version": "1.0",
  "truncation": null,
  "padding": null,
  "added_tokens": [
    {
      "id": 32000,
      "content": "<|bos|>",
      "single_word": false,
      "lstrip": false,
      "rstrip": false,
      "normalized": false,
      "special": true
    },
    {
      "id": 32001,
      "content": "<|user_start|>",
      "single_word": false,
      "lstrip": false,
      "rstrip": false,
      "normalized": false,
      "special": true
    },
    {
      "id": 32002,
      "content": "<|user_end|>",
      "single_word": false,
      "lstrip": false,
      "rstrip": false,
      "normalized": false,
      "special": true
    },
    {
      "id": 32003,
      "content": "<|assistant_start|>",
      "single_word": false,
      "lstrip": false,
      "rstrip": false,
      "normalized": false,
      "special": true
    },
    {
      "id": 32004,
      "content": "<|assistant_end|>",
      "single_word": false,
      "lstrip": false,
      "rstrip": false,
      "normalized": false,
      "special": true
    },
    {
      "id": 32005,
      "content": "<|python_start|>",
      "single_word": false,
      "lstrip": false,
      "rstrip": false,
      "normalized": false,
      "special": true
    },
    {
      "id": 32006,
      "content": "<|python_end|>",
      "single_word": false,
      "lstrip": false,
      "rstrip": false,
      "normalized": false,
      "special": true
    },
    {
      "id": 32007,
      "content": "<|output_start|>",
      "single_word": false,
      "lstrip": false,
      "rstrip": false,
      "normalized": false,
      "special": true
    },
    {
      "id": 32008,
      "content": "<|output_end|>",
      "single_word": false,
      "lstrip": false,
      "rstrip": false,
      "normalized": false,
      "special": true
    }
  ],
  "normalizer": {
    "type": "NFC"
  },
  "pre_tokenizer": {
    "type": "Sequence",
    "pretokenizers": [
      {
        "type": "Split",
        "pattern": {
          "Regex": "\\p{N}{1,3}| ?[^\\s\\p{L}\\p{M}\\p{N}]{2,}[\\r\\n/]*| +(?!\\S)"
        },
        "behavior": "Isolated",
        "invert": false
      },
      {
        "type": "ByteLevel",
        "add_prefix_space": false,
        "trim_offsets": true,
        "use_regex": false
      }
    ]
  },
  "post_processor": null,
  "decoder": {
    "type": "ByteLevel",
    "add_prefix_space": true,
    "trim_offsets": true,
    "use_regex": true
  },
  "model": {
    "type": "BPE",
    "dropout": null,
    "unk_token": null,
    "continuing_subword_prefix": null,
    "end_of_word_suffix": null,
    "fuse_unk": false,
    "byte_fallback": false,
    "ignore_merges": false,
    "vocab": {
      "!": 0,
      "\"": 1,
      "#": 2,
      "$": 3,
      "%": 4,
      "&": 5,
      "'": 6,
      "(": 7,
      ")": 8,
      "*": 9,
      "+": 10,
      ",": 11,
      "-": 12,
      ".": 13,
      "/": 14,
      "0": 15,
      "1": 16,
      "2": 17,
      "3": 18,
      "4": 19,
      "5": 20,
      "6": 21,
      "7": 22,
      "8": 23,
      "9": 24,
      ":": 25,
      ";": 26,
      "<": 27,
      "=": 28,
      ">": 29,
      "?": 30,
      "@": 31,
      "A": 32,
      "B": 33,
      "C": 34,
      "D": 35,
      "E": 36,
      "F": 37,
      "G": 38,
      "H": 39,
      "I": 40,
      "J": 41,
      "K": 42,
      "L": 43,
      "M": 44,
      "N": 45,
      "O": 46,
      "P": 47,
      "Q": 48,
      "R": 49,
      "S": 50,
      "T": 51,
      "U": 52,
      "V": 53,
      "W": 54,
      "X": 55,
      "Y": 56,
      "Z": 57,
      "[": 58,
      "\\": 59,
      "]": 60,
      "^": 61,
      "_": 62,
      "`": 63,
      "a": 64,
      "b": 65,
      "c": 66,
      "d": 67,
      "e": 68,
      "f": 69,
      "g": 70,
      "h": 71,
      "i": 72,
      "j": 73,
      "k": 74,
      "l": 75,
      "m": 76,
      "n": 77,
      "o": 78,
      "p": 79,
      "q": 80,
      "r": 81,
      "s": 82,
      "t": 83,
      "u": 84,
      "v": 85,
      "w": 86,
      "x": 87,
      "y": 88,
      "z": 89,
      "{": 90,
      "|": 91,
      "}": 92,
      "~": 93,
      "¡": 94,
      "¢": 95,
      "£": 96,
      "¤": 97,
      "¥": 98,
      "¦": 99,
      "§": 100,
      "¨": 101,
      "©": 102,
      "ª": 103,
      "«": 104,
      "¬": 105,
      "®": 106,
      "¯": 107,
      "°": 108,
      "±": 109,
      "²": 110,
      "³": 111,
      "´": 112,
      "µ": 113,
      "¶": 114,
      "·": 115,
      "¸": 116,
      "¹": 117,
      "º": 118,
      "»": 119,
      "¼": 120,
      "½": 121,
      "¾": 122,
      "¿": 123,
      "À": 124,
      "Á": 125,
      "Â": 126,
      "Ã": 127,
      "Ä": 128,
      "Å": 129,
      "Æ": 130,
      "Ç": 131,
      "È": 132,
      "É": 133,
      "Ê": 134,
      "Ë": 135,
      "Ì": 136,
      "Í": 137,
      "Î": 138,
      "Ï": 139,
      "Ð": 140,
      "Ñ": 141,
      "Ò": 142,
      "Ó": 143,
      "Ô": 144,
      "Õ": 145,
      "Ö": 146,
      "×": 147,
      "Ø": 148,
      "Ù": 149,
      "Ú": 150,
      "Û": 151,
      "Ü": 152,
      "Ý": 153,
      "Þ": 154,
      "ß": 155,
      "à": 156,
      "á": 157,
      "â": 158,
      "ã": 159,
      "ä": 160,
      "å": 161,
      "æ": 162,
      "ç": 163,
      "è": 164,
      "é": 165,
      "ê": 166,
      "ë": 167,
      "ì": 168,
      "í": 169,
      "î": 170,
      "ï": 171,
      "ð": 172,
      "ñ": 173,
      "ò": 174,
      "ó": 175,
      "ô": 176,
      "õ": 177,
      "ö": 178,
      "÷": 179,
      "ø": 180,
      "ù": 181,
      "ú": 182,
      "û": 183,
      "ü": 184,
      "ý": 185,
      "þ": 186,
      "ÿ": 187,
      "Ā": 188,
      "ā": 189,
      "Ă": 190,
      "ă": 191,
      "Ą": 192,
      "ą": 193,
      "Ć": 194,
      "ć": 195,
      "Ĉ": 196,
      "ĉ": 197,
      "Ċ": 198,
      "ċ": 199,
      "Č": 200,
      "č": 201,
      "Ď": 202,
      "ď": 203,
      "Đ": 204,
      "đ": 205,
      "Ē": 206,
      "ē": 207,
      "Ĕ": 208,
      "ĕ": 209,
      "Ė": 210,
      "ė": 211,
      "Ę": 212,
      "ę": 213,
      "Ě": 214,
      "ě": 215,
      "Ĝ": 216,
      "ĝ": 217,
      "Ğ": 218,
      "ğ": 219,
      "Ġ": 220,
      "ġ": 221,
      "Ģ": 222,
      "ģ": 223,
      "Ĥ": 224,
      "ĥ": 225,
      "Ħ": 226,
      "ħ": 227,
      "Ĩ": 228,
      "ĩ": 229,
      "Ī": 230,
      "ī": 231,
      "Ĭ": 232,
      "ĭ": 233,
      "Į": 234,
      "į": 235,
      "İ": 236,
      "ı": 237,
      "Ĳ": 238,
      "ĳ": 239,
      "Ĵ": 240,
      "ĵ": 241,
      "Ķ": 242,
      "ķ": 243,
      "ĸ": 244,
      "Ĺ": 245,
      "ĺ": 246,
      "Ļ": 247,
      "ļ": 248,
      "Ľ": 249,
      "ľ": 250,
      "Ŀ": 251,
      "ŀ": 252,
      "Ł": 253,
      "ł": 254,
      "Ń": 255,
      "á»": 256,
      "áº": 257,
      "ng": 258,
      "Ġt": 259,
      "Ġc": 260,
      "ĠÄ": 261,
      "nh": 262,
      "ĠÄĳ": 263,
      "Ãł": 264,
      "Æ°": 265,
      "hÃ": 266,
      "Ġv": 267,
      "Ġl": 268,
      "há»": 269,
      "Ġm": 270,
      "Ġk": 271,
      "Ġb": 272,
      "iá»": 273,
      "Ã¡": 274,
      "Ġnh": 275,
      "Æ°á»": 276,
      "Ġtr": 277,
      "Ġs": 278,
      "Ġn": 279,
      "áº¿": 280,
      "áº¡": 281,
      "Ġh": 282,
      "Ġth": 283,
      "Ġg": 284,
      "áº£": 285,
      "Ã³": 286,
      "Ġd": 287,
      "Ġng": 288,
      "Ãª": 289,
      "Ġch": 290,
      "ĠÄĳá»": 291,
      "áº¥": 292,
      "Ġp": 293,
      "Ã´": 294,
      "iá»ĩ": 295,
      "Ãªn": 296,
      "á»Ļ": 297,
      "Ġcá»": 298,
      "ĠvÃł": 299,
      "Ġvá»": 300,
      "Ã¢": 301,
      "ĠkhÃ": 302,
      "ĠT": 303,
      "ĠlÃł": 304,
      "Æ¡": 305,
      "Ġthá»": 306,
      "áºŃ": 307,
      "Ã¡c": 308,
      "á»ĳ": 309,
      "Ġr": 310,
      "áº§": 311,
      ".Ċ": 312,
      "Ã¬": 313,
      "Æ°á»Ŀ": 314,
      "qu": 315,
      "iáº¿": 316,
      "Ġqu": 317,
      "Ġgi": 318,
      "Ľi": 319,
      "Ġhá»": 320,
      "ĠcÃ³": 321,
      "Ġcá»§": 322,
      "Ġcá»§a": 323,
      "Æ°á»£": 324,
      "´ng": 325,
      "Ġtá»": 326,
      "áº¥t": 327,
      "Ġx": 328,
      "áº¡i": 329,
      "Ġchá»": 330,
      "Ġkh": 331,
      "ĠthÃ": 332,
      "uy": 333,
      "âĢ": 334,
      "ong": 335,
      "ĠN": 336,
      "áº¯": 337,
      "á»Ļt": 338,
      "Ġph": 339,
      "Äĥ": 340,
      "ĠcÃ¡c": 341,
      "ĠkhÃ´ng": 342,
      "ĠC": 343,
      "Ã£": 344,
      "á»¯": 345,
      "Æ°á»£c": 346,
      "ch": 347,
      "Ġmá»Ļt": 348,
      "an": 349,
      "iá»ģ": 350,
      "ĠchÃ": 351,
      "ĠÄĳÆ°á»£c": 352,
      "Æ°á»Ŀi": 353,
      "ĠphÃ": 354,
      "Ã´ng": 355,
      "Ġcho": 356,
      "á»±": 357,
      "Ãły": 358,
      "ay": 359,
      "Ã¬nh": 360,
      "Ġbá»": 361,
      "ĠH": 362,
      "áº·": 363,
      "Ġtrong": 364,
      "Ġmá»": 365,
      "Æ°á»Ľ": 366,
      "áº§n": 367,
      "ĠngÆ°á»Ŀi": 368,
      "©ng": 369,
      "Ġvá»Ľi": 370,
      "iÃªn": 371,
      "áº¡n": 372,
      "ĠnhÆ°": 373,
      "ÃŃ": 374,
      "anh": 375,
      "inh": 376,
      "iá»ģu": 377,
      "iá»ĩn": 378,
      "á»¯ng": 379,
      "Ã¹": 380,
      "Ġnhá»¯ng": 381,
      "Ã¢n": 382,
      "áº£i": 383,
      "Æ°Æ¡": 384,
      "ao": 385,
      "ang": 386,
      "Ã²": 387,
      "ĠV": 388,
      "á»Ł": 389,
      "ai": 390,
      "iá»ĥ": 391,
      "Ãłng": 392,
      "Ġlá»": 393,
      "ĠÄĲ": 394,
      "ĠhÃ": 395,
      "Ã´i": 396,
      "Æ°á»Ŀng": 397,
      "Ãº": 398,
      "Ġdá»": 399,
      "ĠB": 400,
      "Æ°á»Ľc": 401,
      "ĠÄĳÃ£": 402,
      "Ãłnh": 403,
      "Æ°Æ¡ng": 404,
      "Ġthá»ĥ": 405,
      "uá»ĳ": 406,
      "áº¿n": 407,
      "ĠÄĳá»ĥ": 408,
      "Ã¢y": 409,
      "ĠM": 410,
      "áº§u": 411,
      "Ãłn": 412,
      "©c": 413,
      "Ãłi": 414,
      "áº£n": 415,
      "on": 416,
      "ĠÄĳá»Ļ": 417,
      "am": 418,
      "iáº¿t": 419,
      "áº½": 420,
      "Ŀi": 421,
      "Ġho": 422,
      "au": 423,
      "ĠnÃły": 424,
      "uyá»": 425,
      "ĠL": 426,
      "áºŃt": 427,
      "Å©ng": 428,
      "in": 429,
      "ung": 430,
      "ĠkhÃ¡": 431,
      "Ġngh": 432,
      "Ġbáº¡n": 433,
      "áºŃn": 434,
      "á»ĵ": 435,
      "Ġra": 436,
      "áº¥y": 437,
      "áº¿t": 438,
      "Ã¹ng": 439,
      "ĠÄĳÃ³": 440,
      "ĠâĢ": 441,
      "Ã½": 442,
      "ĠcÅ©ng": 443,
      "Ġkhi": 444,
      "ĠÄĳáº¿n": 445,
      "ĠS": 446,
      "Æ¡n": 447,
      "Ġgiá»": 448,
      "Ġcáº£": 449,
      "Äĥng": 450,
      "Ġhá»į": 451,
      "Ġsáº½": 452,
      "ĠlÃłm": 453,
      "ĠmÃł": 454,
      "ĠnÃ³": 455,
      "áº±": 456,
      "Ġtá»«": 457,
      "Ġsá»": 458,
      "Ġláº¡i": 459,
      "ĠP": 460,
      "Ġtrá»": 461,
      "áº©": 462,
      "Ġvá»ģ": 463,
      "iáº¿n": 464,
      "Ġá»Ł": 465,
      "ĠK": 466,
      "ĠvÃło": 467,
      "ĠcÃ´ng": 468,
      "âĢĿ": 469,
      "iá»ĩt": 470,
      "ĠTr": 471,
      "Ġsá»ĳ": 472,
      "Ġnhiá»ģu": 473,
      "Ã¡i": 474,
      "Äĥm": 475,
      "Ġpháº£i": 476,
      "ĠphÃ¡": 477,
      "ĠTh": 478,
      "Ġsá»±": 479,
      "áº«": 480,
      "eo": 481,
      "Ãło": 482,
      "ĠthÃ¬": 483,
      "em": 484,
      "iá»ĩc": 485,
      "Ãªu": 486,
      "ĠtÃ´i": 487,
      "Ä©": 488,
      "ĠtrÃªn": 489,
      "áº±ng": 490,
      "Ġdá»¥": 491,
      "Ġchá»ī": 492,
      "±c": 493,
      "Ã©": 494,
      "ĠchÃº": 495,
      "Ã²n": 496,
      "Ġphá»": 497,
      "áºŃp": 498,
      "Ã¡o": 499,
      "Ġbá»ĭ": 500,
      "ĠD": 501,
      "ĠNg": 502,
      "ĠchÃŃ": 503,
      "iá»ĩu": 504,
      "ĠÄĳáº§u": 505,
      "áº·c": 506,
      "Ġviá»ĩc": 507,
      "Ã¡n": 508,
      "á»ķ": 509,
      "Ġthu": 510,
      "áº·t": 511,
      "áº¹": 512,
      "ĠÄĳá»ĭ": 513,
      "áº¯c": 514,
      "ĠâĢľ": 515,
      "Ġhiá»ĩn": 516,
      "ĠnhÃł": 517,
      "ĠÄĳi": 518,
      "Ġ(": 519,
      "áº»": 520,
      "Äĥn": 521,
      "¥c": 522,
      "Ã¢m": 523,
      "ĠthÃłnh": 524,
      "áº£o": 525,
      "ĠmÃ¬nh": 526,
      "áº¯t": 527,
      "ĠA": 528,
      "¢n": 529,
      "ĠG": 530,
      "Ġtáº¡i": 531,
      "Ġnháº¥t": 532,
      "ĠnÆ°á»Ľc": 533,
      "áº¡o": 534,
      "ĠhÃłng": 535,
      "á»Ļc": 536,
      "Ġdá»¥ng": 537,
      "Æ°á»£ng": 538,
      "en": 539,
      "ĠÄĳá»Ļng": 540,
      "áº«n": 541,
      "ĠcÃ²n": 542,
      "Ġtá»ĳ": 543,
      "er": 544,
      "ĠhÆ¡n": 545,
      "ĠnÃ³i": 546,
      "áº¥p": 547,
      "ĠÄĳá»ĵ": 548,
      "Ġy": 549,
      "Ġtiáº¿": 550,
      "Ġtháº¿": 551,
      "ĠtÃŃ": 552,
      "Æ°a": 553,
      "uyÃªn": 554,
      "ĠnÃªn": 555,
      "Ġcon": 556,
      "Ġta": 557,
      "Ġráº¥t": 558,
      "ĥn": 559,
      "Ã¢u": 560,
      "ģn": 561,
      "áº¿u": 562,
      "Æ¡i": 563,
      "ĠnÄĥm": 564,
      "Ġlo": 565,
      "Ġquy": 566,
      "ĠchÃŃnh": 567,
      "Ġhá»įc": 568,
      "ĠQ": 569,
      "Ġdo": 570,
      "ĠnhÃ¢n": 571,
      "Ã¡nh": 572,
      "Ġto": 573,
      "ĠÄĳá»ģ": 574,
      "Ġká»": 575,
      "áº¥n": 576,
      "uyá»ĩ": 577,
      "Ġquan": 578,
      "Ã´n": 579,
      "ĠngÃły": 580,
      "á»Ļi": 581,
      "ĠnhÆ°ng": 582,
      "iá»ĥu": 583,
      "ĠcÃ¡ch": 584,
      "iá»ĥm": 585,
      "Ńa": 586,
      "£p": 587,
      "áº¡t": 588,
      "Ġsau": 589,
      "ĭch": 590,
      "Ġthá»Ŀi": 591,
      "ĠchÃºng": 592,
      "ĳi": 593,
      "á»į": 594,
      "Ã¡ng": 595,
      "Ġbiáº¿t": 596,
      "Ġhá»£p": 597,
      "ĳng": 598,
      "ĠlÃªn": 599,
      "ĠNh": 600,
      "ĠÄĳiá»ģu": 601,
      "Ġgia": 602,
      "ÄĲ": 603,
      "ĠÄĳá»ĭnh": 604,
      "Ġtheo": 605,
      "áº¡nh": 606,
      "iá»ģn": 607,
      "Ġmá»Ľi": 608,
      "Ġkho": 609,
      "áº£ng": 610,
      "áº©m": 611,
      "20": 612,
      "ĠcÆ¡": 613,
      "ĠcÃ¹ng": 614,
      "Æ°á»Ł": 615,
      "áº¯n": 616,
      "Ġkhá»": 617,
      "Ġanh": 618,
      "Ġhá»Ļ": 619,
      "á»ĵi": 620,
      "ĠkhÃ¡c": 621,
      "ia": 622,
      "ĠnÃło": 623,
      "Ġthá»±c": 624,
      "Ġsinh": 625,
      "áºŃy": 626,
      "ĠgiÃ¡": 627,
      "á»±c": 628,
      "Æ°á»Łng": 629,
      "Ġtháº¥y": 630,
      "Ġnhá»": 631,
      "Ãºc": 632,
      "Ġsáº£n": 633,
      "á»ķi": 634,
      "Ġlu": 635,
      "hi": 636,
      "ĠÄĳang": 637,
      "¬nh": 638,
      "Ġcao": 639,
      "ĠhÃ¬nh": 640,
      "ĠvÃ¬": 641,
      "ar": 642,
      "iá»ĥn": 643,
      "ĠÃ´ng": 644,
      "ĠtrÆ°á»Ŀng": 645,
      "ĠÄĳá»ĵng": 646,
      "Ġqua": 647,
      "ĠÄĳÃ¢y": 648,
      "ĠmÃ¡": 649,
      "Ġcáº§n": 650,
      "ĠNam": 651,
      "Ġnghiá»ĩ": 652,
      "Ġhay": 653,
      "³ng": 654,
      "įng": 655,
      "ĠgÃ¬": 656,
      "ĠViá»ĩt": 657,
      "Ġlá»Ľ": 658,
      "uyá»ĩn": 659,
      "Ġtá»±": 660,
      "ĠthÃ´ng": 661,
      "ĩnh": 662,
      "ħn": 663,
      "iÃªu": 664,
      "ĠtrÆ°á»Ľc": 665,
      "uáº¥t": 666,
      "ĠthÃ¡": 667,
      "Ã²ng": 668,
      "Ġsá»Ń": 669,
      "uá»ĳn": 670,
      "Ġdá»±": 671,
      "Ġmáº·t": 672,
      "ĠnháºŃn": 673,
      "Ġná»¯": 674,
      "ĠphÃ¡t": 675,
      "áº¡ng": 676,
      "uá»ĳc": 677,
      "Ã¡ch": 678,
      "áº¥u": 679,
      "Ã¡t": 680,
      "ĠnÄĥng": 681,
      "Ġtin": 682,
      "ĠlÃ½": 683,
      "Ġtu": 684,
      "ıi": 685,
      "ĠkhÃ¡ch": 686,
      "ĠcÃ´": 687,
      "ĠChÃ": 688,
      "Ġnghá»": 689,
      "..": 690,
      "im": 691,
      "ĠviÃªn": 692,
      "Ġá»": 693,
      "ĠhÃłnh": 694,
      "Ġem": 695,
      "ĠtrÃ¬nh": 696,
      "Ġhai": 697,
      "Ġbáº±ng": 698,
      "ĠÃ½": 699,
      "ĠtÃ¬nh": 700,
      "Ãºp": 701,
      "00": 702,
      "uá»Ļc": 703,
      "«a": 704,
      "iÃª": 705,
      "ĠÄĳá»ĳi": 706,
      "Ġgian": 707,
      "Ġngo": 708,
      "įn": 709,
      "ĠnhiÃªn": 710,
      "Ġcháº¥t": 711,
      "ĠdÃ¢n": 712,
      "ĠthÆ°á»Ŀng": 713,
      "Ĺi": 714,
      "Ġtá»Ľi": 715,
      "ua": 716,
      "ĠtÃ¢m": 717,
      "ĠcÃ¡i": 718,
      "ĠlÆ°á»£ng": 719,
      "Ġpháº©m": 720,
      "ĠváºŃy": 721,
      "áº£m": 722,
      "Ġcáº£m": 723,
      "áº£nh": 724,
      "Ġvá»¥": 725,
      "âĢ¦": 726,
      "Æ°ng": 727,
      "Å©": 728,
      "Ġbá»Ļ": 729,
      "áº¯ng": 730,
      "ĠtoÃłn": 731,
      "ĠÄĥn": 732,
      "ĠgiÃºp": 733,
      "Æ°á»Ľng": 734,
      "Ġváº«n": 735,
      "Ġtiáº¿p": 736,
      "Ġmuá»ĳn": 737,
      "Ġloáº¡i": 738,
      "Ġbáº£o": 739,
      "or": 740,
      "Ġhá»Ļi": 741,
      "hÃ¡": 742,
      "á»ĳc": 743,
      "Ġtáº¿": 744,
      "Ġcáº¥p": 745,
      "Ġtá»ĳt": 746,
      "es": 747,
      "Ġtáº¡o": 748,
      "Ġvá»ĭ": 749,
      "ĠPh": 750,
      "Ġkinh": 751,
      "ĠquÃ¡": 752,
      "al": 753,
      "ĠtÃŃnh": 754,
      "ĠnghÄ©": 755,
      "Ġlá»Ľn": 756,
      "áº¡ch": 757,
      "Ġkáº¿t": 758,
      "Ġhoáº·c": 759,
      "Ġrá»ĵi": 760,
      "ĠÄĳiá»ĥm": 761,
      "ĠtÆ°": 762,
      ":Ċ": 763,
      "Ġxuáº¥t": 764,
      "Ġtay": 765,
      "Ġsá»ĳng": 766,
      "Ġnay": 767,
      "ĠÄĳÆ°á»Ŀng": 768,
      "á»ĳi": 769,
      "Ġchá»§": 770,
      "ÃŃch": 771,
      "ĠtÃ¡c": 772,
      "Ġráº±ng": 773,
      "²ng": 774,
      "Ġpháº§n": 775,
      "ĠdÃ¹ng": 776,
      "Ġbáº£n": 777,
      "Ġthiáº¿t": 778,
      "áº¡c": 779,
      "Ġbá»ĩnh": 780,
      "Ġquáº£": 781,
      "it": 782,
      "ĠâĢĵ": 783,
      "Ġhiá»ĩu": 784,
      "ĠCh": 785,
      "Ġthá»ĭ": 786,
      "«ng": 787,
      "Ġgiá»Ľi": 788,
      "£i": 789,
      "ĠkhÃ³": 790,
      "Ġcá»©": 791,
      "Ġcáº§u": 792,
      "áº³ng": 793,
      "áº§m": 794,
      "á»Ļng": 795,
      "Ġhá»ĩ": 796,
      "Ġhá»ĵ": 797,
      "Ġnghiá»ĩp": 798,
      "uá»ĳng": 799,
      "Ġná»": 800,
      "ĠmÃ¡y": 801,
      "Ġthá»©c": 802,
      "Ġgiá»¯": 803,
      "Ġ-": 804,
      "Ġtrá»ĭ": 805,
      "ĠÄĳáº¡i": 806,
      "áº©n": 807,
      "ĠyÃªu": 808,
      "Ġngá»": 809,
      "ĠÃ": 810,
      "ĠÄĳá»ģu": 811,
      "Ãµ": 812,
      "Ġcuá»Ļc": 813,
      "Æ°u": 814,
      "ĠphÃ¡p": 815,
      "Ġsao": 816,
      "Ġtá»ķ": 817,
      "áº¹p": 818,
      "ĠÄĳo": 819,
      "201": 820,
      "Ġtrá»Ł": 821,
      "Ġnhau": 822,
      "Tr": 823,
      "ĠR": 824,
      "áºŃu": 825,
      "ĠphÃ²ng": 826,
      "Ã¬m": 827,
      "Ġáº£nh": 828,
      "Ġchá»ĭ": 829,
      "ĠbÃªn": 830,
      "Ġtrá»įng": 831,
      "Ġgiáº£i": 832,
      "ĠHo": 833,
      "Ġxe": 834,
      "Ġchiáº¿": 835,
      "ĠnhÃ¬": 836,
      "ĠthÃŃ": 837,
      "Ġchá»įn": 838,
      "ĠThá»": 839,
      "Ġtho": 840,
      "iá»ħn": 841,
      "et": 842,
      "Ġláº§n": 843,
      "á»Ń": 844,
      "Ġmang": 845,
      "ĠnhÃ¬n": 846,
      "Ġgiá»Ŀ": 847,
      "Ġmáº¯t": 848,
      "ĠÄĲá»": 849,
      "Ġkhu": 850,
      "Ġtiáº¿ng": 851,
      "at": 852,
      "ĠthÃ¢n": 853,
      "áº§y": 854,
      "Ã¡p": 855,
      "Th": 856,
      "áº¯m": 857,
      "ĠÄĳá»ķ": 858,
      "ĠdÆ°á»": 859,
      "ĠchÆ°a": 860,
      "ĠtÃ¬m": 861,
      "Ġlá»±c": 862,
      "Ġnáº¿u": 863,
      "Ġbáº¥t": 864,
      "ªm": 865,
      "uyá»ģn": 866,
      "Ġbao": 867,
      "Ġtiá»ģn": 868,
      "uyá»ĥn": 869,
      "Ġchá»©c": 870,
      "ĠQuá»ĳc": 871,
      "ĠQu": 872,
      "ĠthÆ°Æ¡ng": 873,
      "Ġmá»į": 874,
      "iá»ĩm": 875,
      "Ġbiá»ĩt": 876,
      "Ġan": 877,
      "ĠMá»": 878,
      "ĠÄĳáº¹p": 879,
      "Ġ\"": 880,
      "Ġtrang": 881,
      "Ãºng": 882,
      "hÃ´ng": 883,
      "el": 884,
      "ĠtáºŃp": 885,
      "Ġváº¥n": 886,
      "Łi": 887,
      "ĠlÃºc": 888,
      "ĠtÄĥng": 889,
      "ĠGi": 890,
      "Ġthá»ĳng": 891,
      "ĠX": 892,
      "Ã³c": 893,
      "Ng": 894,
      "ĠngoÃłi": 895,
      "áº¥m": 896,
      "ĠthÃªm": 897,
      "Ġvá»«a": 898,
      "Ġtriá»ĥn": 899,
      "Ġrá»": 900,
      "?Ċ": 901,
      "ĠtÃłi": 902,
      "Ġthá»§": 903,
      "ĠhoÃłn": 904,
      "Ã¨": 905,
      "ĠhÃ³": 906,
      "á»ĵng": 907,
      "Ġná»¯a": 908,
      "áº¡m": 909,
      "ĠliÃªn": 910,
      "Ġkáº¿": 911,
      "ĠtiÃªu": 912,
      "ĠtháºŃt": 913,
      "ĠphÆ°Æ¡ng": 914,
      "Ġmá»įi": 915,
      "Ġdá»ĭch": 916,
      "om": 917,
      "ĠthÃŃch": 918,
      "Ġtráº»": 919,
      "ĠhÃ³a": 920,
      "Ġda": 921,
      "ĠÄĳiá»ĩn": 922,
      "Ġthá»©": 923,
      "as": 924,
      "Ġlá»Ŀi": 925,
      "Ã¡m": 926,
      "ĠsÃ¡ng": 927,
      "Ġquyá»": 928,
      "á»ĵn": 929,
      "Ġchu": 930,
      "ĠTrung": 931,
      "ĠI": 932,
      "ĠthÃ¡ng": 933,
      "ĠluÃ´n": 934,
      "Ġnhá»ı": 935,
      "Ġdoanh": 936,
      "ĠnÆ¡i": 937,
      "Ġquá»ĳc": 938,
      "Ġcháº¿": 939,
      "Ġsá»©c": 940,
      "áº±m": 941,
      "Ġchuyá»ĩn": 942,
      "ĠhÃ´": 943,
      "Ġbáº¯t": 944,
      "ĠbÃ¡o": 945,
      "Ġhoáº¡t": 946,
      "ĠbÃłi": 947,
      "ĠÄĳá»ķi": 948,
      "¯ng": 949,
      "is": 950,
      "ĠÄĳáº¥t": 951,
      "Ġháº¿t": 952,
      "Ġtrung": 953,
      "ic": 954,
      "áº·p": 955,
      "Ġquyá»ģn": 956,
      "âĢľ": 957,
      "Ġdáº«n": 958,
      "Ġmáº¹": 959,
      "Ġáº¥y": 960,
      "ĠvÄĥn": 961,
      "Ġmua": 962,
      "ĠÃ¡n": 963,
      "á»įi": 964,
      "Ġquyáº¿t": 965,
      "ĠÄĳáº·c": 966,
      "ĠtrÃŃ": 967,
      "ĠlÃ£": 968,
      "ĠÄĳÆ¡n": 969,
      "ºc": 970,
      "ĠÄĳÆ°a": 971,
      "ĠlÃ²ng": 972,
      "Ġmáº¡nh": 973,
      "Ġxem": 974,
      "iáº¿u": 975,
      "áº¡y": 976,
      "ĠváºŃt": 977,
      "Ã©t": 978,
      "ĠmÃłu": 979,
      "Ġso": 980,
      "uá»ĵn": 981,
      "Ġliá»ĩu": 982,
      "ĠhÃ£": 983,
      "ĠÄĳá»ĭa": 984,
      "le": 985,
      "áº£y": 986,
      "Ġá»©ng": 987,
      "Ġtuá»ķi": 988,
      "áº¯p": 989,
      "Ġngay": 990,
      "ĠE": 991,
      "ĠÄĳáº¡o": 992,
      "Ġtham": 993,
      "Ġhá»ıi": 994,
      "Ġtá»«ng": 995,
      "ĠbÃ©": 996,
      "ĠgÃ¢y": 997,
      "ĠvÃ´": 998,
      "ĠF": 999,
      "ĠÄĳáº·t": 1000,
      "ĠÄĳÃ¡nh": 1001,
      "uá»ĳi": 1002,
      "Ġthay": 1003,
      "Ġgiao": 1004,
      "ĠU": 1005,
      "Ġkhiáº¿n": 1006,
      "Ġbá»ı": 1007,
      "ĠsÄ©": 1008,
      "ĠbÃ¬nh": 1009,
      "Ġdá»ħ": 1010,
      "Ġty": 1011,
      "īnh": 1012,
      "Ġchuyá»ĥn": 1013,
      "Ġai": 1014,
      "Ġchiáº¿c": 1015,
      "ĠláºŃp": 1016,
      "Ġphá»¥": 1017,
      "iÃªm": 1018,
      "Ġsá»Ł": 1019,
      "10": 1020,
      "Ġbiáº¿n": 1021,
      "Ġvi": 1022,
      "Ġmá»Ĺi": 1023,
      "Ġká»³": 1024,
      "ĠhÆ°á»Ľng": 1025,
      "Ġhiá»ĥu": 1026,
      "ĠbÃ¡n": 1027,
      "ÃŃt": 1028,
      "ro": 1029,
      "Ã³ng": 1030,
      "ĠAnh": 1031,
      "Ġchiáº¿n": 1032,
      "ĠÄĳÃ¬nh": 1033,
      "á»±a": 1034,
      "áº·ng": 1035,
      "Ġphá»¥c": 1036,
      "Ġchi": 1037,
      "ĠÄĳá»Ŀi": 1038,
      "ĠtiÃªn": 1039,
      "ĠbÃł": 1040,
      "ĠchuyÃªn": 1041,
      "©a": 1042,
      "Ġnhanh": 1043,
      "Æ°Æ¡i": 1044,
      "Ġgiáº£m": 1045,
      "ĠtÃŃch": 1046,
      "ĠHÃł": 1047,
      "įc": 1048,
      "ĠchÃ¢n": 1049,
      "ac": 1050,
      "19": 1051,
      "Ġgáº§n": 1052,
      "ĠkhÃŃ": 1053,
      "ĠgiÃ¡o": 1054,
      "Ġtá»Ń": 1055,
      "Ġchá»©ng": 1056,
      "Ġtá»¥c": 1057,
      "ĠÄĳá»§": 1058,
      "ĠtÆ°á»£ng": 1059,
      "ĠtÃªn": 1060,
      "âĢĿĊ": 1061,
      "Ġbá»Łi": 1062,
      "Ġtinh": 1063,
      "Ġtáº¥t": 1064,
      "ĠnguyÃªn": 1065,
      "ĠdÃłi": 1066,
      "Ġtiáº¿t": 1067,
      "Ġcung": 1068,
      "ĠxÃ£": 1069,
      "Ġgiá»¯a": 1070,
      "Ġlá»£i": 1071,
      "Ġgá»įi": 1072,
      "ĠcÃłng": 1073,
      "ĠMá»¹": 1074,
      "ºt": 1075,
      "ĠChá»": 1076,
      "ĠChÃº": 1077,
      "Ġláº¥y": 1078,
      "Ġlá»ĭch": 1079,
      "Ġbá»ĳ": 1080,
      "Ġcá»ĳ": 1081,
      "Ġkiáº¿n": 1082,
      "ĠchÆ¡i": 1083,
      "ĠcÃ¡": 1084,
      "iÃªng": 1085,
      "Ġcáº£nh": 1086,
      "ĠthuáºŃt": 1087,
      "Ġnghá»ĩ": 1088,
      "Ġháº¯n": 1089,
      "ho": 1090,
      "há»¯ng": 1091,
      "ĠphÃŃ": 1092,
      "Ġná»Ļi": 1093,
      "Ġdiá»ħn": 1094,
      "Ġthi": 1095,
      "ĠsÃ¡ch": 1096,
      "!Ċ": 1097,
      "ĠcÃ¢u": 1098,
      "Ġmáº¥t": 1099,
      "Ġtruyá»ģn": 1100,
      "áº«u": 1101,
      "Ġxuá»ĳng": 1102,
      "Ġcá»Ńa": 1103,
      "ĠdÆ°á»Ľi": 1104,
      "uyáº¿n": 1105,
      "ui": 1106,
      "Ġkhoáº£ng": 1107,
      "Ġgáº·p": 1108,
      "ĠphÃ¢n": 1109,
      "Ġdá»±ng": 1110,
      "ĠPhÃ": 1111,
      "Ġthanh": 1112,
      "uyáº¿t": 1113,
      "ĠrÃµ": 1114,
      "Ġnghe": 1115,
      "Ġvá»±c": 1116,
      "Ġcá»ķ": 1117,
      "ĠW": 1118,
      "un": 1119,
      "Ġdu": 1120,
      "Ġw": 1121,
      "Ġná»ķi": 1122,
      "ĠnÃłng": 1123,
      "Ġdiá»ĩn": 1124,
      "Ġcá»©u": 1125,
      "ĠÄĳÃºng": 1126,
      "Ġtiáº¿n": 1127,
      "ing": 1128,
      "ĠbÃłn": 1129,
      "ĠY": 1130,
      "¡ng": 1131,
      "uyá»ĩt": 1132,
      "ol": 1133,
      "ĠnghÄ©a": 1134,
      "uyá»ħn": 1135,
      "á»Ľi": 1136,
      "Ġthuá»Ļc": 1137,
      "Ġsáº¯c": 1138,
      "Ġtrá»£": 1139,
      "âĢĵ": 1140,
      "Ġkháº£": 1141,
      "©p": 1142,
      "ĠdÃ¹": 1143,
      "Ä©nh": 1144,
      "ĠÃŃt": 1145,
      "áºŃm": 1146,
      "us": 1147,
      "ÃŃnh": 1148,
      "Ġvá»ĩ": 1149,
      "Ġtranh": 1150,
      "ĠxÃ¢y": 1151,
      "Ġviáº¿t": 1152,
      "Ġchá»¯": 1153,
      "eb": 1154,
      "ĠCÃ´ng": 1155,
      "Ġnghiá»ĩm": 1156,
      "Ġkiá»ĩn": 1157,
      "Ġphá»ĳ": 1158,
      "ĠsÃ¡t": 1159,
      "¯u": 1160,
      "Ġmá»©c": 1161,
      "Ġchung": 1162,
      "Ã£i": 1163,
      "ĠkÃ©": 1164,
      "ĠÄĳáº§y": 1165,
      "Ġmá»Ł": 1166,
      "Ġgiáº£": 1167,
      "Ġhoa": 1168,
      "Ġtháº§n": 1169,
      "Ġyáº¿u": 1170,
      "ĠtÆ°á»Łng": 1171,
      "iáº¿m": 1172,
      "Ġba": 1173,
      "ĠxÃ¡c": 1174,
      "ĠNáº¿u": 1175,
      "ĠcÃ¢y": 1176,
      "Ã³n": 1177,
      "ad": 1178,
      "Ġmá»¥c": 1179,
      "ur": 1180,
      "ĠphÃŃa": 1181,
      "Ġthuá»ĳc": 1182,
      "Ġphong": 1183,
      "ĠthÃ´": 1184,
      "ĠtÆ°Æ¡ng": 1185,
      "ĠmÃ¹": 1186,
      "ĠÄĳá»Ļi": 1187,
      "ĠthÆ°": 1188,
      "ĠJ": 1189,
      "ĠÄĳÃ¢u": 1190,
      "ĠÃ¡p": 1191,
      "Ġhá»¯u": 1192,
      "ĠTrong": 1193,
      "ĠNguyá»ħn": 1194,
      "ĠnháºŃp": 1195,
      "Ãłu": 1196,
      "ĠcÄĥn": 1197,
      "ĠChÃŃ": 1198,
      "Ġcáº¡nh": 1199,
      "ot": 1200,
      "ĠNhÆ°ng": 1201,
      "Ġmáº¡ng": 1202,
      "Ġquáº£n": 1203,
      "Ġbu": 1204,
      "ĠThÃ¡": 1205,
      "ĠquÃ¢n": 1206,
      "Nh": 1207,
      "ĵng": 1208,
      "Ġchuáº©n": 1209,
      "ĠÄĳá»Ļc": 1210,
      "ĠhÆ°á»Łng": 1211,
      "...": 1212,
      "Ġtráº£": 1213,
      "áº¿p": 1214,
      "Ġtá»ĳi": 1215,
      "ĠchÃ¡": 1216,
      "Ġsang": 1217,
      "ed": 1218,
      "ĠÄĳau": 1219,
      "Ġf": 1220,
      "Ġháº¡n": 1221,
      "ĠlÃ¢u": 1222,
      "ĠO": 1223,
      "ĠhÃ£y": 1224,
      "ĠvÃ¹ng": 1225,
      "id": 1226,
      "Ġbiá»ĥu": 1227,
      "Ãºt": 1228,
      "Ġminh": 1229,
      "ĠTÃ´i": 1230,
      "Ġvui": 1231,
      "Ġlá»±a": 1232,
      "ĠcÆ°á»Ŀi": 1233,
      "Ġtriá»ĩu": 1234,
      "Ġchá»ĭu": 1235,
      "ĠNá»Ļi": 1236,
      "ĠÃ¢m": 1237,
      "ĠTá»": 1238,
      "ĠÃ¡o": 1239,
      "Ġchia": 1240,
      "Ġ,": 1241,
      "Ġgá»": 1242,
      "Ġtá»īnh": 1243,
      "ĠtrÆ°á»Łng": 1244,
      "Æ°á»£t": 1245,
      "iá»ĩp": 1246,
      "Ġban": 1247,
      "ĠÄĳÃ¡ng": 1248,
      "Ġcháº³ng": 1249,
      "),": 1250,
      "Ãłm": 1251,
      "ĠCÃ¡c": 1252,
      "ĠÄĳáº£m": 1253,
      "ĠlÆ°u": 1254,
      "Ġnhiá»ĩm": 1255,
      "Ġchá»ĳng": 1256,
      "Ġtra": 1257,
      "Ġcháº¿t": 1258,
      "Ġtrá»±c": 1259,
      "Ġká»¹": 1260,
      "á»įc": 1261,
      "Ġcá»¥": 1262,
      "il": 1263,
      "Ġkiá»ĥm": 1264,
      "ĠchÃºt": 1265,
      "Ġo": 1266,
      "Ã¢ng": 1267,
      "ĠbÆ°á»Ľc": 1268,
      "Ãªm": 1269,
      "Ġxa": 1270,
      "Ġcháº¯c": 1271,
      "¢u": 1272,
      "Ġnguá»ĵn": 1273,
      "Ãºi": 1274,
      "ĠquÃ½": 1275,
      "Ġká»ĥ": 1276,
      "ĠgÃ¡i": 1277,
      "Ġcá»±c": 1278,
      "Ġbay": 1279,
      "ĠÄĳÃ´i": 1280,
      "Ġváº»": 1281,
      "Ķng": 1282,
      "Ġcuá»ĳi": 1283,
      "ĳn": 1284,
      "ter": 1285,
      "Ġkhá»ıi": 1286,
      "Ġin": 1287,
      "Ġtráº¡ng": 1288,
      "Ġhá»Ĺ": 1289,
      "Ġnhu": 1290,
      "á»³": 1291,
      "Ġkhai": 1292,
      "ĠphÃ¹": 1293,
      "ĠluáºŃt": 1294,
      "Ch": 1295,
      "ĠgÃ³": 1296,
      "Ġca": 1297,
      "ĠTuy": 1298,
      "ĠriÃªng": 1299,
      "Ġgiá»ĳng": 1300,
      "tr": 1301,
      "ĠÄĳa": 1302,
      "ĠcÃ¡o": 1303,
      "ĠÄĳá»©ng": 1304,
      "ĠvÃłi": 1305,
      "ĠhÃ²": 1306,
      "Ġdanh": 1307,
      "oo": 1308,
      "Ġuá»ĳng": 1309,
      "Ã³m": 1310,
      "Ġkhoa": 1311,
      "Ġtá»©c": 1312,
      "Ġtiá»ĩn": 1313,
      "Trong": 1314,
      "áº©y": 1315,
      "Ġdung": 1316,
      ")Ċ": 1317,
      "Ġrá»Ļng": 1318,
      "ĠKhÃ´ng": 1319,
      "ĠAn": 1320,
      "Ġco": 1321,
      "ag": 1322,
      "Äĳ": 1323,
      "ĠBá»Ļ": 1324,
      "ĠMinh": 1325,
      "Ġphá»§": 1326,
      "ĠkÃ½": 1327,
      "ĠÄĲá»©c": 1328,
      "ĠmÃ´i": 1329,
      "ĠMá»Ļt": 1330,
      "Ġxin": 1331,
      "Ġdi": 1332,
      "ĠÄĳáº¡t": 1333,
      "Ġnhá»Ľ": 1334,
      "Ġbiá»ĥn": 1335,
      "ĠgiÃ¡c": 1336,
      "ĠbÃ³ng": 1337,
      "12": 1338,
      "á»¯a": 1339,
      "ĠCÃ³": 1340,
      "oÃłi": 1341,
      "Ġkhá»ı": 1342,
      "ĠhÃ´m": 1343,
      "Ġxá»Ń": 1344,
      "ĠKh": 1345,
      "Ġmáº«u": 1346,
      "Ġthoáº¡i": 1347,
      "200": 1348,
      "Theo": 1349,
      "000": 1350,
      "ĠbÃ¡c": 1351,
      "Ġnáº±m": 1352,
      "ĠÄĲáº¡i": 1353,
      "ĠKhi": 1354,
      "Ġthiáº¿u": 1355,
      "Ġcháº¡y": 1356,
      "ap": 1357,
      "ĠÄĳÃ¡": 1358,
      "á»ĵm": 1359,
      "ĠÄĳáº¥u": 1360,
      "áº¡p": 1361,
      "Ġdá»¥c": 1362,
      "Ġkhá»ıe": 1363,
      "ĠchÆ°Æ¡ng": 1364,
      "Ã²a": 1365,
      "ĠdÆ°á»¡ng": 1366,
      "ĠÄĳÃłn": 1367,
      "Ġtráº¯ng": 1368,
      "os": 1369,
      "ĠtrÃ²": 1370,
      "ĠÄĳoÃłn": 1371,
      "iá»ħ": 1372,
      "Ġnam": 1373,
      "âĢĿ,": 1374,
      "ĠdÃłnh": 1375,
      "Ġkia": 1376,
      "Ġlá»Ľp": 1377,
      "Ã£n": 1378,
      "Ġngá»§": 1379,
      "ĠváºŃn": 1380,
      "Ġhá»ĵi": 1381,
      "ĠthÃ´i": 1382,
      "Ġviá»ĩn": 1383,
      "ĠÄĳoáº¡n": 1384,
      "Ġtrá»Ŀi": 1385,
      "ĠPhÃ¡": 1386,
      "ĠtÃŃn": 1387,
      "Ġdáº¡ng": 1388,
      "ĠvÃłng": 1389,
      "ĠVÄĥn": 1390,
      "Ġgá»ĵm": 1391,
      "ĠluáºŃn": 1392,
      "ĠNhá»¯ng": 1393,
      "Ġchá»ĵng": 1394,
      "Ġphim": 1395,
      "NG": 1396,
      "ĠtrÃ¡i": 1397,
      "ĠkÃŃch": 1398,
      "Ġnháº¹": 1399,
      "one": 1400,
      "Ã£y": 1401,
      "Ġtuyá»ĩt": 1402,
      "Ġvá»£": 1403,
      "Ġcá»Ļng": 1404,
      "Ġvá»įng": 1405,
      "©t": 1406,
      "ĭp": 1407,
      "ĠngÃłnh": 1408,
      "iá»ģm": 1409,
      "áºµ": 1410,
      "áº©u": 1411,
      "Ġvá»ĳn": 1412,
      "ĠHoa": 1413,
      "ĠÄĲÃ´ng": 1414,
      "Ġtá»ķng": 1415,
      "Ġngá»ĵi": 1416,
      "ĠcáºŃu": 1417,
      "âĢĿ.Ċ": 1418,
      "Ġtháº¥t": 1419,
      "ĠdÃ²ng": 1420,
      "ĠSau": 1421,
      "Ġkiáº¿m": 1422,
      "ĠÃ´": 1423,
      "ĠChÃºa": 1424,
      "á»ĳng": 1425,
      "ĠphÃ©p": 1426,
      "ĠÃŃch": 1427,
      "ĠÃ¡nh": 1428,
      "ĠmÃ³n": 1429,
      "30": 1430,
      "Ġtá»·": 1431,
      "Ġlá»ĩ": 1432,
      "ĠTá»ķ": 1433,
      "ĠÄĳÄĥng": 1434,
      "ĠThiÃªn": 1435,
      "um": 1436,
      "Ġxanh": 1437,
      "ĠThanh": 1438,
      ").": 1439,
      "ĠlÃ£nh": 1440,
      "ÄĲá»": 1441,
      "Ġgiáº£n": 1442,
      "ĠmÃ¡u": 1443,
      "ĠBáº¡n": 1444,
      "ĠsÃ¢u": 1445,
      "Ġchá»Ĺ": 1446,
      "th": 1447,
      "uá»ĳt": 1448,
      "Ġpháº¡m": 1449,
      "ĠhÃ²a": 1450,
      "Ġngoáº¡i": 1451,
      "ĠsÆ°": 1452,
      "Má»Ļt": 1453,
      "Ġláº½": 1454,
      "Ġthiá»ĩn": 1455,
      "Ġmáº·c": 1456,
      "ĠvÃ²ng": 1457,
      "15": 1458,
      "ĠtrÃ¡nh": 1459,
      "ĠBÃ¬nh": 1460,
      "ĠÄĳÃ³ng": 1461,
      "Ġláº¡nh": 1462,
      "¥ng": 1463,
      "Æ°á»Ľi": 1464,
      "ĠNháºŃt": 1465,
      "ĠkhÄĥn": 1466,
      "ĠLá»": 1467,
      "ĠNgÆ°á»Ŀi": 1468,
      "Ġmáº¥y": 1469,
      "ĠhÆ¡i": 1470,
      "ĠÄĳem": 1471,
      "Ġnghá»ĭ": 1472,
      "Ġpháº£n": 1473,
      "ĠÄĳá»įc": 1474,
      "ĠnhÃ©": 1475,
      "Ġsá»£": 1476,
      "ĠChÃŃnh": 1477,
      "ĠháºŃu": 1478,
      "ine": 1479,
      "ĠÄĳÃ¡p": 1480,
      "ion": 1481,
      "Ġháº¡": 1482,
      "Ġsáº»": 1483,
      "Ġná»ģn": 1484,
      "ĠdÃłng": 1485,
      "ĠnghiÃªn": 1486,
      "ĠkÃ©o": 1487,
      "ĠÄĳÃ´ng": 1488,
      "ĠmÃ´n": 1489,
      "Ġ.": 1490,
      "ĠnÃ¢ng": 1491,
      "ģm": 1492,
      "ĠhÃ¡": 1493,
      "ĠVÃ¬": 1494,
      "Ġquanh": 1495,
      "Ġchá»©": 1496,
      "ĠtoÃ¡n": 1497,
      "Ġtiá»ĥu": 1498,
      "ĠÆ°u": 1499,
      "ĠhÃºt": 1500,
      "lo": 1501,
      "Ġbá»ķ": 1502,
      "ĠHoÃłng": 1503,
      "âĢĿ.": 1504,
      "uÃ¢n": 1505,
      "Ġmong": 1506,
      "âĢ¦Ċ": 1507,
      "ĵn": 1508,
      "Ġtuáº§n": 1509,
      "ıng": 1510,
      "ame": 1511,
      "Ġxáº£y": 1512,
      "ĠTP": 1513,
      "ĠthÆ¡": 1514,
      "11": 1515,
      "CÃ¡c": 1516,
      "Ġquay": 1517,
      "ĠtráºŃn": 1518,
      "ĠnhÃ³m": 1519,
      "Ġvai": 1520,
      "Ġlao": 1521,
      ".âĢĿĊ": 1522,
      "re": 1523,
      "ĠthÃº": 1524,
      "á»Ļn": 1525,
      "á»Ńi": 1526,
      "Ġchá»¯a": 1527,
      "ĠphÃºt": 1528,
      "Ġnguy": 1529,
      "Ġliá»ģn": 1530,
      "Ġtrai": 1531,
      "ĠÄĳáº£o": 1532,
      "ĠxÃ©t": 1533,
      "uÃ´i": 1534,
      "ĠmÃ¹a": 1535,
      "Ġsuy": 1536,
      "ĠrÄĥng": 1537,
      "Ph": 1538,
      "Ġhoáº¡ch": 1539,
      "ĠthiÃªn": 1540,
      "Ġweb": 1541,
      "Ľm": 1542,
      "ĠÄĲÃ¢y": 1543,
      "Ġquáº§n": 1544,
      "ĠVÃł": 1545,
      "Ġlá»ħ": 1546,
      "ĠmÃ´": 1547,
      "§y": 1548,
      "ĠsÆ¡": 1549,
      "Ġnháº¡c": 1550,
      "ĠÄĳá»ĳ": 1551,
      "ĠtÃ¹": 1552,
      "ĠThÃ": 1553,
      "ĠcÆ°": 1554,
      "Ġsáº¡ch": 1555,
      "ĠtrÃ¡ch": 1556,
      "ĠthÃ¡i": 1557,
      "Ġnhiá»ĩt": 1558,
      "ıa": 1559,
      "ĠngÆ°Æ¡i": 1560,
      "ĠBáº¯c": 1561,
      "Ġcáº£i": 1562,
      "Ġháº¡i": 1563,
      "á»ĩ": 1564,
      "ĠÄĳÃŃch": 1565,
      "ĠÄĳÃªm": 1566,
      "Ġnháº±m": 1567,
      "ĠDo": 1568,
      "ChÃ": 1569,
      "ĠchÃ³ng": 1570,
      "Ġchiá»ģu": 1571,
      "ĠkhÃ´": 1572,
      "Ġghi": 1573,
      "Ġduy": 1574,
      "ĠTÃ¢y": 1575,
      "ĠsÃ¢n": 1576,
      "áº·n": 1577,
      "á»ĭ": 1578,
      "Ġdáº§u": 1579,
      "Ã¨n": 1580,
      "Ġgá»Ńi": 1581,
      "ĠÄĳá»ı": 1582,
      "ĠDÆ°Æ¡ng": 1583,
      "Ã¡y": 1584,
      "ent": 1585,
      "Thá»": 1586,
      "Ġmá»ģm": 1587,
      "iv": 1588,
      "ĠcÃ¢n": 1589,
      "TÃ´i": 1590,
      "ĠmÃ¡i": 1591,
      "ĠHá»Ļi": 1592,
      "ĠkhÃ¡m": 1593,
      "ĠtáºŃn": 1594,
      "Ġcháº¥p": 1595,
      "Ġkháº©u": 1596,
      "and": 1597,
      "ĠnÃ³ng": 1598,
      "ĠNhÃł": 1599,
      "ĠÃģ": 1600,
      "ĠÄĲiá»ģu": 1601,
      "ĠVá»Ľi": 1602,
      "Å©i": 1603,
      "ĠtÆ°á»Ľng": 1604,
      "Ġbuá»ķi": 1605,
      "Ġkhoáº£n": 1606,
      "Ġquen": 1607,
      "ĠchÄĥm": 1608,
      "Ġdáº¥u": 1609,
      "Ġsá»Ľm": 1610,
      "ĠxuyÃªn": 1611,
      "ĠxÃºc": 1612,
      "ĠtÃ³c": 1613,
      "ig": 1614,
      "iá»ĩng": 1615,
      "ĠkÃŃnh": 1616,
      "Ġá»ķ": 1617,
      "Náº¿u": 1618,
      "Ġcháº¯n": 1619,
      "Ġkhá»ķ": 1620,
      "Ġháº¥p": 1621,
      "ĠmáºŃt": 1622,
      "ĠthuáºŃn": 1623,
      "Ã£o": 1624,
      "Ġa": 1625,
      "Ġtháº¥p": 1626,
      "ĠPháºŃt": 1627,
      "ec": 1628,
      "Ġ:": 1629,
      "á»įn": 1630,
      ").Ċ": 1631,
      "§ng": 1632,
      "ĠgÃ³p": 1633,
      "ĠThÃ¡i": 1634,
      "áº§ng": 1635,
      "50": 1636,
      "ip": 1637,
      "Ġsai": 1638,
      "Ġmiá»ĩng": 1639,
      "Ġhiá»ĥm": 1640,
      "ĠNhÃ": 1641,
      "Ġlinh": 1642,
      "iá»ħm": 1643,
      "Ġmáº¯c": 1644,
      "Ġtai": 1645,
      "Ġmá»¹": 1646,
      "ĠlÃ¡": 1647,
      "Ġkiá»ĥu": 1648,
      "Ġnáº·ng": 1649,
      "iáº¿p": 1650,
      "ĠmÃłn": 1651,
      "Ġthai": 1652,
      "Ġthá»Ń": 1653,
      "ĠPhÃ¡p": 1654,
      "Ġthe": 1655,
      "ir": 1656,
      "Ġhuy": 1657,
      "Ġcha": 1658,
      "KhÃ´ng": 1659,
      "ĠÃĶng": 1660,
      "ĠChÃºng": 1661,
      "ĠIn": 1662,
      "áº¢": 1663,
      "Ġnhá»Ŀ": 1664,
      "ĠcáºŃp": 1665,
      "Nhá»¯ng": 1666,
      "ĠTráº§n": 1667,
      "ĠKá»³": 1668,
      "Ġgiáº¥y": 1669,
      "Ġkáº»": 1670,
      "ĠThÃłnh": 1671,
      "Ġtháº³ng": 1672,
      "ĠngÃ´i": 1673,
      "Ġtá»Ļi": 1674,
      "ĠÄĳÃło": 1675,
      "Ġtráº£i": 1676,
      "ak": 1677,
      "Ġniá»ĩm": 1678,
      "Ġxong": 1679,
      "ĠÄĳen": 1680,
      "ĠCá»": 1681,
      "com": 1682,
      "Ġnghá»ī": 1683,
      "ĠHÃłn": 1684,
      "ĠHáº£i": 1685,
      "iáº¿ng": 1686,
      "ĠlÄ©nh": 1687,
      "ĠngÃ¢n": 1688,
      "Ġtáº£i": 1689,
      "Ġngá»Ŀ": 1690,
      "Ġláº¯m": 1691,
      "Ġlá»Ļ": 1692,
      "Ġsá»Ńa": 1693,
      "ie": 1694,
      "ĠviÃªm": 1695,
      "te": 1696,
      "ĠTá»ķng": 1697,
      "100": 1698,
      "ĠÄĳáº©y": 1699,
      "Ġdáº¡y": 1700,
      "ĠcÆ°á»Ŀng": 1701,
      "Ã³i": 1702,
      "Ġnghá»ģ": 1703,
      "Ġxá»": 1704,
      "Ġkháº¯c": 1705,
      "Ã²i": 1706,
      "Ġxo": 1707,
      "Ġkháº£o": 1708,
      "Ġtuyáº¿n": 1709,
      "áºµn": 1710,
      "Ġbá»©c": 1711,
      "Ġchá»Ŀ": 1712,
      "ĠnghÃ": 1713,
      "ĠHá»ĵ": 1714,
      "Ġdáº§n": 1715,
      "Ġlá»Ĺi": 1716,
      "Ġláº¡c": 1717,
      "ite": 1718,
      "ul": 1719,
      "Ġphá»ķ": 1720,
      "ĠcÃ¡nh": 1721,
      "ĠThu": 1722,
      "Ġcoi": 1723,
      "ĠÄĳÃ´": 1724,
      "ĠLong": 1725,
      "Ġtá»Ļc": 1726,
      "Sau": 1727,
      "Ġchá»©a": 1728,
      "Ġtá»ĭch": 1729,
      "ex": 1730,
      "Chá»": 1731,
      "Ġtháº©m": 1732,
      "Khi": 1733,
      "ĠÃĤ": 1734,
      "Ġluyá»ĩn": 1735,
      "Ġmáº¡i": 1736,
      "Ġká»·": 1737,
      "Ġtáº§ng": 1738,
      "ph": 1739,
      "ĠvÆ°á»£t": 1740,
      "Ġngá»¯": 1741,
      "ĠbÃ¡nh": 1742,
      "ĠTháº¿": 1743,
      "Ġphá»ĳi": 1744,
      "Ġmay": 1745,
      "ĠhÃ´n": 1746,
      "ĠmÃ£": 1747,
      "Ġthá»ĭt": 1748,
      "CÃ³": 1749,
      "Ġchá»īnh": 1750,
      "ut": 1751,
      "Ġtháº¯ng": 1752,
      "...Ċ": 1753,
      "ĠTo": 1754,
      "Ġcam": 1755,
      "Ġláº¡": 1756,
      "ĠtÆ°Æ¡i": 1757,
      "ĠngÄĥn": 1758,
      "ĠphÃºc": 1759,
      "CM": 1760,
      "ĠhÃ¡t": 1761,
      "ĠdÃ¡ng": 1762,
      "ĠSÆ¡n": 1763,
      "Ġnghi": 1764,
      "Ġtim": 1765,
      "18": 1766,
      "ĠthÃºc": 1767,
      "¥p": 1768,
      "Ġcáº§m": 1769,
      "Ġháº¡nh": 1770,
      "Ġná»ĳi": 1771,
      "Ġsuáº¥t": 1772,
      "\"Ċ": 1773,
      "ĠthÄĥm": 1774,
      "up": 1775,
      "ĠhÃ£ng": 1776,
      "ĠchÃłng": 1777,
      "Ġsáºµn": 1778,
      "Vá»Ľi": 1779,
      "ĠtrÃ¬": 1780,
      "Ġnáº¡n": 1781,
      "Ġmá»ĳi": 1782,
      "ĠThá»ĭ": 1783,
      "¢m": 1784,
      "Ġáº¥n": 1785,
      "Ġcá»Ń": 1786,
      "ĠbáºŃt": 1787,
      "Ġsuá»ĳt": 1788,
      "Ġdá»ĭ": 1789,
      "ĠlÃ£o": 1790,
      "ĠyÃªn": 1791,
      "ĠhÆ°Æ¡ng": 1792,
      "Ġgiai": 1793,
      "Ġsá»¯a": 1794,
      "Ã¹i": 1795,
      "ĠPhi": 1796,
      "ĠBáº£n": 1797,
      "Ãµi": 1798,
      "ĠrÃłng": 1799,
      "ĠÄĳáº¥y": 1800,
      "ĠÄĲá»ĵng": 1801,
      "ĠNgoÃłi": 1802,
      "ĠdÃ¢y": 1803,
      "ĠChá»§": 1804,
      "ĠtÃłu": 1805,
      "Ġkhá»Łi": 1806,
      "ĠLu": 1807,
      "Ã´m": 1808,
      "Ġtháº£o": 1809,
      "áº¹n": 1810,
      "ĠsÃ³c": 1811,
      "Ġtáº¥n": 1812,
      "Ġtuy": 1813,
      "ĠniÃªn": 1814,
      "ĠTá»«": 1815,
      "ĠnuÃ´i": 1816,
      "ĠmÅ©i": 1817,
      "ĠTheo": 1818,
      "ĠÆ¡n": 1819,
      "Ġgh": 1820,
      "ĠTH": 1821,
      "ĠÄĳá»«ng": 1822,
      "ĠLan": 1823,
      "ĠcÅ©": 1824,
      "âĢĻ": 1825,
      "ail": 1826,
      "Ġmu": 1827,
      "Ġnhiá»ħm": 1828,
      "ĠVá»": 1829,
      "Ġráº»": 1830,
      "áº³": 1831,
      "Ġtáº§m": 1832,
      "ĠnghiÃªm": 1833,
      "Ġi": 1834,
      "á»ĳt": 1835,
      "Ġtuyá»ĥn": 1836,
      "ĠCÃ´": 1837,
      "ĠUS": 1838,
      ".com": 1839,
      "Ġmiá»ģn": 1840,
      "Ġgá»Ĺ": 1841,
      "art": 1842,
      "Ġthá»§y": 1843,
      "ĠÄĳá»©a": 1844,
      "ĠPhong": 1845,
      "Ġá»ķn": 1846,
      "NH": 1847,
      "ĠnÃ´ng": 1848,
      "Ġmiá»ħn": 1849,
      "ĠhÃłi": 1850,
      "Ġláº¯ng": 1851,
      "ĠVÅ©": 1852,
      "ĩt": 1853,
      "ĠquÃ¡n": 1854,
      "Ġuy": 1855,
      "ĠpháºŃn": 1856,
      "Ġlai": 1857,
      "ĠkhÃ³a": 1858,
      "ĠLÃª": 1859,
      "ĠTrÆ°á»Ŀng": 1860,
      "Ġtá»ĳc": 1861,
      "ess": 1862,
      "ĠNgá»įc": 1863,
      "ĠHá»": 1864,
      "ĠtÃ´n": 1865,
      "ĠgiÃ¡m": 1866,
      "Ġbáº§u": 1867,
      "Ġcáº¥u": 1868,
      "Ġsáº¯p": 1869,
      "ĠbÃŃ": 1870,
      "Ã¨m": 1871,
      "ĠnháºŃt": 1872,
      "Ã³t": 1873,
      "Ġdá»¯": 1874,
      "ab": 1875,
      "ĠbÃły": 1876,
      "Ġcáº¯t": 1877,
      "Ġbá»įn": 1878,
      "iet": 1879,
      "ĠsiÃªu": 1880,
      "24": 1881,
      "Ġngon": 1882,
      "Ġgame": 1883,
      "ĠÄĲá»ĥ": 1884,
      "Ġtháº§y": 1885,
      "Ġbáº¿p": 1886,
      "Báº¡n": 1887,
      "Ġgá»ĳc": 1888,
      "16": 1889,
      "ĠchÃ¡u": 1890,
      "st": 1891,
      "á»·": 1892,
      "ĠthÆ°á»Łng": 1893,
      "Ġhuyá»ĩn": 1894,
      "ĠTu": 1895,
      "Ľt": 1896,
      "Ġngáº¯n": 1897,
      "ĠtháºŃm": 1898,
      "ĠthuÃª": 1899,
      "Ġáº¥m": 1900,
      "ĠLiÃªn": 1901,
      "ĠÄĳá»Ļt": 1902,
      "ĠphiÃªn": 1903,
      "Ġnáº¯m": 1904,
      "Æ°á»£u": 1905,
      "Gi": 1906,
      "ND": 1907,
      "ĠKhÃ¡": 1908,
      "Ġxáº¥u": 1909,
      "av": 1910,
      "Æ°á»¡ng": 1911,
      "ĠnÃ©t": 1912,
      "ĠBan": 1913,
      "ĠkÃ©m": 1914,
      "ĠchÃ¢u": 1915,
      "Ġháº§u": 1916,
      "áº³n": 1917,
      "ook": 1918,
      "Ġcuá»ĳn": 1919,
      ".v": 1920,
      "ĠChÃ¢u": 1921,
      "Ġbuá»Ļc": 1922,
      "¹ng": 1923,
      "Ġháº¡t": 1924,
      "ĠsÃ´ng": 1925,
      "Ġthá»«a": 1926,
      "ĠtrÃºc": 1927,
      "Ġxung": 1928,
      "Ġof": 1929,
      "ĠbÃło": 1930,
      "ĠphÃª": 1931,
      "ĠghÃ": 1932,
      "to": 1933,
      "ĠbÃ¢y": 1934,
      "Ġsung": 1935,
      "Ġtá»ı": 1936,
      "Ġmáº¡ch": 1937,
      "ĠCon": 1938,
      "ĠkÃª": 1939,
      "ĠÄĲÃ³": 1940,
      "Ġthuyáº¿t": 1941,
      "Ġhá»ĵng": 1942,
      "ĠmÆ¡": 1943,
      "ĠnÃºi": 1944,
      "ĠmÃª": 1945,
      "ĠChá»ī": 1946,
      "Ġnháº¯c": 1947,
      "Ġniá»ģm": 1948,
      "Ġtáº¯c": 1949,
      "Ġxáº¿p": 1950,
      "á»Łi": 1951,
      "ob": 1952,
      "ÃĶng": 1953,
      "ĠmÃ£i": 1954,
      "ĠBá»": 1955,
      "ĵi": 1956,
      "Ġbuá»ĵn": 1957,
      "¥n": 1958,
      "Ġhá»ģ": 1959,
      "Ġtáº¥m": 1960,
      "ĠNguyÃªn": 1961,
      "ĠtÃ¹y": 1962,
      "ĠÄĳÃ³n": 1963,
      "line": 1964,
      "Ġlá»Ńa": 1965,
      "ĠÄĳÃ¨n": 1966,
      "ĠrÆ°á»£u": 1967,
      "ĠLÃ¢m": 1968,
      "ĠÄĳá»ĳc": 1969,
      "ard": 1970,
      "ĠKim": 1971,
      "Ġtrao": 1972,
      "Ã©p": 1973,
      "ĠthoÃ¡t": 1974,
      "Ġhuyáº¿t": 1975,
      "ĠHÃ£y": 1976,
      ".âĢĿ": 1977,
      "site": 1978,
      "ĠquÃªn": 1979,
      "ĠÄĳÃ¡m": 1980,
      "ĠcÃł": 1981,
      "ĠNga": 1982,
      "Ġthiá»ĩu": 1983,
      "est": 1984,
      "Ġcháº·t": 1985,
      "ĠÄĲáº£ng": 1986,
      "ĠlÆ°ng": 1987,
      "ĠlÃłnh": 1988,
      "Ġháº³n": 1989,
      "ew": 1990,
      "ĠhoÃłng": 1991,
      "ĠtÃ¡i": 1992,
      "ĠgiÃ³": 1993,
      "ĠLinh": 1994,
      "Ġchá»¥p": 1995,
      "ĠHá»į": 1996,
      "Æ¯": 1997,
      "ark": 1998,
      "Ġdá»±a": 1999,
      "ĠLo": 2000,
      "14": 2001,
      "ĠphÃ³ng": 2002,
      "Ġthá»¥": 2003,
      "ĠPhÆ°Æ¡ng": 2004,
      "ĠEm": 2005,
      "ÄĲá»ĥ": 2006,
      "Ãģ": 2007,
      "Ġquáº£ng": 2008,
      "ĠGiÃ¡o": 2009,
      "ĠÆ°á»Ľc": 2010,
      "Ġhá»įa": 2011,
      "ĠvÅ©": 2012,
      "ĠlÃłng": 2013,
      "ĠlÃłn": 2014,
      "ĠÄĳá»£i": 2015,
      "á»¹": 2016,
      "¬n": 2017,
      "ĠnhiÃªu": 2018,
      "ĠngÅ©": 2019,
      "ĠdÆ°Æ¡ng": 2020,
      "ĠtuyÃªn": 2021,
      "09": 2022,
      "Ġchuyáº¿n": 2023,
      "Ġtá»ĵn": 2024,
      "ow": 2025,
      "Ġtáº·ng": 2026,
      "Ġthá»Ł": 2027,
      "od": 2028,
      "ĠrÆ¡i": 2029,
      "Ġthuáº¿": 2030,
      "Tá»": 2031,
      "Ġchiáº¿m": 2032,
      "ĠkÃŃ": 2033,
      "ĠThá»§": 2034,
      "ĠsoÃ¡t": 2035,
      "13": 2036,
      "NgÆ°á»Ŀi": 2037,
      "Ġkim": 2038,
      "ĠtháºŃn": 2039,
      "ĠmÃ¡t": 2040,
      "áº¤": 2041,
      "ĠKinh": 2042,
      "ChÃº": 2043,
      "Ġváº¿t": 2044,
      "Ġvá»Ŀi": 2045,
      "Ġkhá»ĳi": 2046,
      "ĠngÃ´n": 2047,
      "Æ°á»Ŀn": 2048,
      "ĠdÃły": 2049,
      "ĠChi": 2050,
      "įt": 2051,
      "Ġbáº¡c": 2052,
      "Ġkháº³ng": 2053,
      "ĠPhá»": 2054,
      "Ġgáº¯ng": 2055,
      "ÃĢ": 2056,
      "Ġbá»¥ng": 2057,
      "ĠlÆ°Æ¡ng": 2058,
      "Ġcá»©ng": 2059,
      "Ġthao": 2060,
      "Ġthoáº£i": 2061,
      "áº¢nh": 2062,
      "ĠÄĳá»¡": 2063,
      "Ġvá»¯ng": 2064,
      "Ġrá»Ńa": 2065,
      "Ġ:Ċ": 2066,
      "Ġchiáº¿u": 2067,
      "ĠtrÄĥm": 2068,
      "ĠtÆ°á»Ŀng": 2069,
      "Ġná»Ńa": 2070,
      "net": 2071,
      "Ġma": 2072,
      "ĠtrÃ¹ng": 2073,
      "ĠUSD": 2074,
      "ik": 2075,
      "Ġe": 2076,
      "ĠÄĳoÃ¡n": 2077,
      "ĠcÃ¡n": 2078,
      "Ġkháº¯p": 2079,
      "Ġgáº¯n": 2080,
      "Ġná»Ĺi": 2081,
      "Ġnguyá»ĩn": 2082,
      "Ġphi": 2083,
      "ĠmÃ¹i": 2084,
      "ĠHÃ²a": 2085,
      "ĠgiÃłu": 2086,
      "ĠrÃºt": 2087,
      "ĠdáºŃy": 2088,
      "ĠHu": 2089,
      "ĠÄĳÃ¡o": 2090,
      "Ġbiá»ĩn": 2091,
      "Ġláº«n": 2092,
      "ĠNgÃłi": 2093,
      "ĠlÆ°á»£c": 2094,
      "áº¥c": 2095,
      "ĠhoÃ¡": 2096,
      "25": 2097,
      "if": 2098,
      "ĠcháºŃm": 2099,
      "__": 2100,
      "Qu": 2101,
      "ĠNhÆ°": 2102,
      "Ġcan": 2103,
      "Ġmá»Ŀi": 2104,
      "ĠgÃł": 2105,
      "Ġká»ĭp": 2106,
      "Ġru": 2107,
      "ĠÄĳÃ²i": 2108,
      "ĠbiÃªn": 2109,
      "ĠÃĤu": 2110,
      "17": 2111,
      "ĠHá»ĵng": 2112,
      "Ġhá»ĵn": 2113,
      "ĠLÃ½": 2114,
      "Ġgháº¿": 2115,
      "Tuy": 2116,
      "Ġsáº¡n": 2117,
      "ĠngÆ°á»£c": 2118,
      "ĠdÃ¡m": 2119,
      "oc": 2120,
      "ĠquáºŃn": 2121,
      "ĠcáºŃn": 2122,
      "Ġrá»Ŀi": 2123,
      "ĠÄĲÃł": 2124,
      "Ġtá»¥": 2125,
      "Ġgiá»įng": 2126,
      "ĠthÆ°á»£ng": 2127,
      "Ġnáº¯ng": 2128,
      "á»Ĺi": 2129,
      "Ä©a": 2130,
      "ĠCÃ²n": 2131,
      "ĠNÃ³": 2132,
      "ĠNgh": 2133,
      "ly": 2134,
      "ĠÄĳá»©c": 2135,
      "Ġxu": 2136,
      "Ġkiá»ĩm": 2137,
      "Ġngáº¡i": 2138,
      "á»įt": 2139,
      "Ġtrá»ĵng": 2140,
      "oi": 2141,
      "ĠÄĳá»ĩ": 2142,
      "Ġliá»ĩt": 2143,
      "HCM": 2144,
      "ra": 2145,
      "Ġrá»«ng": 2146,
      "Ġtruy": 2147,
      "ĠXuÃ¢n": 2148,
      "Ġnháº¥n": 2149,
      "Ġhy": 2150,
      "ĠxÆ°Æ¡ng": 2151,
      "£t": 2152,
      "ĠbÃ¨": 2153,
      "Ľp": 2154,
      "ĠkhuÃ´n": 2155,
      "Ġcháº£y": 2156,
      "ĠBa": 2157,
      "ĠsÃ³ng": 2158,
      "uá»ķi": 2159,
      "Ġmáº½": 2160,
      "¨o": 2161,
      "ĠtÃºi": 2162,
      "Ã³a": 2163,
      "ĠmÃły": 2164,
      "ers": 2165,
      "ub": 2166,
      "Ġmá»¥n": 2167,
      "NgoÃłi": 2168,
      "Ġsong": 2169,
      "ist": 2170,
      "ĠVÃ¢n": 2171,
      "Ġtrá»«": 2172,
      "ĠBáº£o": 2173,
      "ĠtÃ²a": 2174,
      "ĠGiá»": 2175,
      "Ã¹a": 2176,
      "ĠtrÃ´ng": 2177,
      "Ġrau": 2178,
      "Ġbáº£ng": 2179,
      "ill": 2180,
      "ĠkÃ¬": 2181,
      "Ġtáº¯m": 2182,
      "ack": 2183,
      "ĠÄĳáº£ng": 2184,
      "Ġháº£o": 2185,
      "ĠÄĳÆ°Æ¡ng": 2186,
      "Ġbá»ģn": 2187,
      "ĠNhÃ¢n": 2188,
      "ĠThÃ¡nh": 2189,
      "ĠGiang": 2190,
      "Ġand": 2191,
      "ĠkÃªu": 2192,
      "ĠlÃ´ng": 2193,
      "ou": 2194,
      "ĠGia": 2195,
      "ĠTÆ°": 2196,
      "ĠgiÃł": 2197,
      "Vá»": 2198,
      "ĠxÆ°a": 2199,
      "ĠHai": 2200,
      "Ĺng": 2201,
      "Ġ.Ċ": 2202,
      "ĠmÆ°a": 2203,
      "Ġung": 2204,
      "ĠkÃ¨m": 2205,
      "Ġly": 2206,
      "ĠcÆ°á»Ľi": 2207,
      "amin": 2208,
      "Ġgiáº£ng": 2209,
      "Ġtá»ī": 2210,
      "amp": 2211,
      "ĠPhÃº": 2212,
      "Anh": 2213,
      "Ġrá»ĳi": 2214,
      "ĠsÃłng": 2215,
      "ĠCá»Ļng": 2216,
      "ĠZ": 2217,
      "ĠTháº§n": 2218,
      "40": 2219,
      "ce": 2220,
      "NhÆ°ng": 2221,
      "Ġbá»Ļt": 2222,
      "ĠkhÃ¡ng": 2223,
      "áºŃc": 2224,
      "Ġdá»«ng": 2225,
      "Ġtá»§": 2226,
      "Ġhá»įp": 2227,
      "?âĢĿĊ": 2228,
      "Ġlá»ĩnh": 2229,
      "ĠthÆ°á»Ľc": 2230,
      "Ġngá»±c": 2231,
      "ĠÄĳáº³ng": 2232,
      "Ġthá»Ŀ": 2233,
      "á»ĳn": 2234,
      "Ġloáº¡n": 2235,
      "Ã¡u": 2236,
      "ht": 2237,
      "Ġbá»¯a": 2238,
      "ĠchÃ³": 2239,
      "Ġtáº¡p": 2240,
      "Ġláº·ng": 2241,
      "Ġtá»Ŀ": 2242,
      "ĠgÃ³i": 2243,
      "ĠnhÃłng": 2244,
      "ĠVáºŃy": 2245,
      "ĠlÃ¡i": 2246,
      "Ġáº©m": 2247,
      "ĠQuÃ¢n": 2248,
      "ĠViá»ĩc": 2249,
      "Ġwebsite": 2250,
      "á»Ŀi": 2251,
      "ĠcÄĥng": 2252,
      "ĠBÃł": 2253,
      "ore": 2254,
      "ĠgÃ³c": 2255,
      "ĠngÃłn": 2256,
      "ĠKho": 2257,
      "ĠTáº¡i": 2258,
      "Ġngá»«ng": 2259,
      "ĠQuang": 2260,
      "Ġháº£i": 2261,
      "ĠquÃª": 2262,
      "ain": 2263,
      "ĠcÆ¡n": 2264,
      "60": 2265,
      "ĠvÃ©": 2266,
      "ort": 2267,
      "ĠcÆ¡m": 2268,
      "ĠgÆ°Æ¡ng": 2269,
      "Ġnáº¥u": 2270,
      "ĠDu": 2271,
      "ĠkhÃºc": 2272,
      "Ġngang": 2273,
      ".vn": 2274,
      "Ġgiáº¿t": 2275,
      "Ġxinh": 2276,
      "ĠTá»Ń": 2277,
      "ChÃºng": 2278,
      "ĠthÃ¹": 2279,
      "ĠbáºŃc": 2280,
      "ĠtrÆ°ng": 2281,
      "ĠVN": 2282,
      "ĠdÃµi": 2283,
      "ĠVÆ°Æ¡ng": 2284,
      "Ġtrá»©ng": 2285,
      "Ġbá»ĳn": 2286,
      "ĠÃ´m": 2287,
      "Ġlá»ĳi": 2288,
      "Ġvay": 2289,
      "Ġtháº»": 2290,
      "ĠTÃ¢n": 2291,
      "Ġá»ĳng": 2292,
      "ĠNghá»": 2293,
      "ĠtÃ´": 2294,
      "ĠhÃ¨": 2295,
      "ĠTiÃªn": 2296,
      "ĠquÃł": 2297,
      "Ġsá»©": 2298,
      "Ġháº¡ng": 2299,
      "ov": 2300,
      "ĭnh": 2301,
      "Ġmá»«ng": 2302,
      "ĠMáº¹": 2303,
      "ĠtÄ©nh": 2304,
      "Ġtáº£": 2305,
      "ass": 2306,
      "Ġkhuyáº¿n": 2307,
      "ÄĲÃ¢y": 2308,
      "Ġgan": 2309,
      "Ġtrá»¥": 2310,
      "ĠhÃło": 2311,
      "ĠTiá»ĥu": 2312,
      "ĠViet": 2313,
      "Ġche": 2314,
      "ĠbÄĥng": 2315,
      "pp": 2316,
      "NgÃły": 2317,
      "ĠnghÃ¨o": 2318,
      "ĠDá»": 2319,
      "Ġá»ŀ": 2320,
      "ĠLuáºŃt": 2321,
      "Ġná»£": 2322,
      "Ġthá»ıa": 2323,
      "Ġkhá»§ng": 2324,
      "Ġbinh": 2325,
      "Ġtá»ķn": 2326,
      "Ġngá»įt": 2327,
      "Ġla": 2328,
      "ĠtrÃł": 2329,
      "|Ċ": 2330,
      "ĠloÃłi": 2331,
      "ĠSá»±": 2332,
      "ile": 2333,
      "Ġkem": 2334,
      "Ġláº¯p": 2335,
      "ĠSá»Ł": 2336,
      "ĠâĢ¦": 2337,
      "Ã¨o": 2338,
      "ev": 2339,
      "Ġsá»ķ": 2340,
      "iáº¿c": 2341,
      "TrÆ°á»Ľc": 2342,
      "ĠchÃ¹": 2343,
      "ĠsÆ¡n": 2344,
      "ĠchÃ¡y": 2345,
      "ity": 2346,
      "ĠHiá»ĩn": 2347,
      "ĠPhÃ³": 2348,
      "Ġpha": 2349,
      "Ġkhuáº©n": 2350,
      "Táº¡i": 2351,
      "ĠSt": 2352,
      "ĠgiÆ°á»Ŀng": 2353,
      "oÃłn": 2354,
      "199": 2355,
      "Ġthá»ķ": 2356,
      "ud": 2357,
      ",Ċ": 2358,
      "ĠsÃłn": 2359,
      "Ġmai": 2360,
      "Ġdá»ĭp": 2361,
      "Ġlá»įc": 2362,
      "Ġbáº¡i": 2363,
      "ĠthÃ¡c": 2364,
      "ĠBÃªn": 2365,
      "ĠkhÃ³c": 2366,
      "Ġu": 2367,
      "ĠPhÃ²ng": 2368,
      "Ġbá»ģ": 2369,
      "įa": 2370,
      "ord": 2371,
      "Ġcá»¥c": 2372,
      "ĠBá»Łi": 2373,
      "lip": 2374,
      "Ġloáº¡t": 2375,
      "Ġxá»©": 2376,
      "ĠQuáº£ng": 2377,
      "Ġquang": 2378,
      "ton": 2379,
      "ĠThÃ´ng": 2380,
      "Ġmá»ĩt": 2381,
      "ĠCao": 2382,
      "Hiá»ĩn": 2383,
      "\",": 2384,
      "Ġtan": 2385,
      "ĠlÆ°á»£t": 2386,
      "ĭn": 2387,
      "Ġninh": 2388,
      "ĠMai": 2389,
      "Ġtráº§m": 2390,
      "CÃ¡ch": 2391,
      "ĠCho": 2392,
      "ĠCH": 2393,
      "ĠPháº¡m": 2394,
      "eg": 2395,
      "Ġgá»įn": 2396,
      "Ġhá»©ng": 2397,
      "Ġlan": 2398,
      "--": 2399,
      "Ġcu": 2400,
      "ĠphÃ¡i": 2401,
      "Ġdinh": 2402,
      "Ġtá»ĩ": 2403,
      "ĠgiáºŃn": 2404,
      "//": 2405,
      "Ġhá»Ļp": 2406,
      "io": 2407,
      "tp": 2408,
      "ĠhÃłm": 2409,
      "ĠthÆ¡m": 2410,
      "Ġmá»Ļ": 2411,
      "ĠAl": 2412,
      "ey": 2413,
      "Ġon": 2414,
      "Ġcáº·p": 2415,
      "ĠvÃŃ": 2416,
      "Ġáº©n": 2417,
      "itamin": 2418,
      "ell": 2419,
      "ĠTrang": 2420,
      "ĠbÃ³": 2421,
      "ĠNÄĥm": 2422,
      "22": 2423,
      "ĠÄĳáº¿": 2424,
      "Ġphiáº¿u": 2425,
      "CÃ´ng": 2426,
      "ebook": 2427,
      "ĠkÃŃn": 2428,
      "ĠtrÃ²n": 2429,
      "Tá»«": 2430,
      "ĠÄĲáº·c": 2431,
      "age": 2432,
      "co": 2433,
      "ĠchÃło": 2434,
      "ĠvÆ°á»Ŀn": 2435,
      "ation": 2436,
      "\".Ċ": 2437,
      "Ġtáº¡m": 2438,
      "ĠLa": 2439,
      "ĠSÃłi": 2440,
      "Ġlá»Ĺ": 2441,
      "://": 2442,
      "Iá»": 2443,
      "iá»ħu": 2444,
      "ax": 2445,
      "ind": 2446,
      "Ġvá»Ļi": 2447,
      "ĠnÃ£o": 2448,
      "Ã£ng": 2449,
      "ĠÄĳiá»ĥn": 2450,
      "TT": 2451,
      "su": 2452,
      "ĠÄĲÆ°á»Ŀng": 2453,
      "Ġdáº¡": 2454,
      "ĠÃ©p": 2455,
      "ĠkhÃ¡n": 2456,
      "ick": 2457,
      "Ġthang": 2458,
      "áºµng": 2459,
      "ĠhÆ°": 2460,
      "23": 2461,
      "§i": 2462,
      "Ġdiá»ĩt": 2463,
      "all": 2464,
      "Ġbá»Ŀ": 2465,
      "ĠnÃ©": 2466,
      "Ġpháº¡t": 2467,
      "acebook": 2468,
      "Ãºa": 2469,
      "Ġláº§m": 2470,
      "era": 2471,
      "ĠdÆ°": 2472,
      "ĠCÃ¡ch": 2473,
      "ternet": 2474,
      "ĠtrÃłn": 2475,
      "Ġkhung": 2476,
      "ĠcÃłi": 2477,
      "ĠbÃ©o": 2478,
      "Ġvá»¡": 2479,
      "ate": 2480,
      "Ġgáº¥p": 2481,
      "ĠtháºŃp": 2482,
      "ĠtÃłn": 2483,
      "ĠmÃ£n": 2484,
      "Ġsáº¯t": 2485,
      "¥i": 2486,
      "Ġhu": 2487,
      "ĠThe": 2488,
      "ant": 2489,
      "Ġnha": 2490,
      "ĠTrÆ°á»Ľc": 2491,
      "80": 2492,
      "Ġpháº«u": 2493,
      "ĠHÆ°Æ¡ng": 2494,
      "ri": 2495,
      "ĠÄĳá»īnh": 2496,
      "ĠÃ¡c": 2497,
      "ĠNinh": 2498,
      "á»Ļp": 2499,
      "ry": 2500,
      "±ng": 2501,
      "Ġháº¹n": 2502,
      "oáº¡i": 2503,
      "ee": 2504,
      "ĠÄĳÃłi": 2505,
      "ĠGÃ²n": 2506,
      "ĠphÃº": 2507,
      "ĠÃĲ": 2508,
      "Ġmá»ıi": 2509,
      "Ġcháº¡m": 2510,
      "Ġváº£i": 2511,
      "ĠÄĳáºŃu": 2512,
      "ĠthoÃ¡ng": 2513,
      "Phone": 2514,
      "Ġnhi": 2515,
      "ĠSa": 2516,
      "ĠKhÃ": 2517,
      "ĠUB": 2518,
      "Ġ&": 2519,
      "Æ°á»Ľt": 2520,
      "ĠbÃ£i": 2521,
      "Ġná»ķ": 2522,
      "Ġlá»¥c": 2523,
      "ff": 2524,
      "ĠÄĲá»ĳi": 2525,
      "ĠdÆ°á»£c": 2526,
      "ĠmÆ°á»Ŀi": 2527,
      "Ġchá»«ng": 2528,
      "500": 2529,
      "ĠNha": 2530,
      "**": 2531,
      "ÃĶ": 2532,
      "Ġáº¢nh": 2533,
      "Ġmá»ĩnh": 2534,
      "ĠâĢĺ": 2535,
      "ĠkhuyÃªn": 2536,
      "ĠTáº¥t": 2537,
      "ĠÐ": 2538,
      "Ġdá»©t": 2539,
      "Ġmá»¡": 2540,
      "21": 2541,
      "ĠthÃ¡nh": 2542,
      "Ġáº¤": 2543,
      "Ġtráº§n": 2544,
      "PhÃ": 2545,
      "ĠÄĲÃ¬nh": 2546,
      "áº¹o": 2547,
      "Ġvá»ı": 2548,
      "ĠlÃŃ": 2549,
      "Ġgiáº¥c": 2550,
      "ĠÄĳuá»ķi": 2551,
      "VN": 2552,
      "Ġchua": 2553,
      "ich": 2554,
      "og": 2555,
      "ĠQuÃ½": 2556,
      "ĠgiÃły": 2557,
      "iz": 2558,
      "ĠNgÃły": 2559,
      "nam": 2560,
      "ĠTa": 2561,
      "Ġsu": 2562,
      "ĠNhá»": 2563,
      "á»³nh": 2564,
      "Ġmáº¯n": 2565,
      "?âĢĿ": 2566,
      "ĠtÃ¡n": 2567,
      "ĠGiÃ¡m": 2568,
      "Ġnháº£y": 2569,
      "ĠthÃ³": 2570,
      "AN": 2571,
      "Ġcá»±": 2572,
      "ĠÄĳÃ£i": 2573,
      "Ġá»§ng": 2574,
      "Ġcáº©n": 2575,
      "Ġpháº¥n": 2576,
      "ĠtrÃło": 2577,
      "Ġbáº¯n": 2578,
      "ĠphÃ³": 2579,
      "ĠÄĳiá»ĩu": 2580,
      "ĠMáº·c": 2581,
      "Ġthiá»ĩt": 2582,
      "Ġtáº¯t": 2583,
      "gle": 2584,
      "Ġtung": 2585,
      "ww": 2586,
      "ĠchÃ¬": 2587,
      "BÆ°á»Ľc": 2588,
      "Ġngáº¡c": 2589,
      "ĭa": 2590,
      "ĠMá»Ĺi": 2591,
      "Ġtha": 2592,
      "ĠBáº¡ch": 2593,
      "ĠTuáº¥n": 2594,
      "ĠNH": 2595,
      "Ġhuynh": 2596,
      "ĠhÃ´i": 2597,
      "70": 2598,
      "ĠbÃ²": 2599,
      "Ġtá»ĳn": 2600,
      "ast": 2601,
      "ĠTÃ¢m": 2602,
      "Ġbá»ĳi": 2603,
      "Ġtri": 2604,
      "ĠNhiá»ģu": 2605,
      "á»įng": 2606,
      "oogle": 2607,
      "ĠNáºµng": 2608,
      "ĠÆ°Æ¡ng": 2609,
      "az": 2610,
      "ok": 2611,
      "¥y": 2612,
      "Ġvang": 2613,
      "Ġphá»©c": 2614,
      "Ġná»Ĺ": 2615,
      "ĠphÃ¡n": 2616,
      "ĠViá»ĩn": 2617,
      "Ġsá»ĳt": 2618,
      "ĠrÃ£i": 2619,
      "se": 2620,
      "Ġmá»±c": 2621,
      "ĠgiÃłnh": 2622,
      "ĠMar": 2623,
      "ĠvÆ°Æ¡ng": 2624,
      "ĠkiÃªn": 2625,
      "Ġhiá»ĩp": 2626,
      "ĠUBND": 2627,
      "ĠÄĲáº¿n": 2628,
      "ĠdÆ°á»Ŀng": 2629,
      "Æ°á»Ľp": 2630,
      "Ġvid": 2631,
      "ĠchÃ©": 2632,
      "¡i": 2633,
      "Ġcháº¥m": 2634,
      ".\"Ċ": 2635,
      "Ġváº½": 2636,
      "ĠNgÃ¢n": 2637,
      "ĠngÃ£": 2638,
      "Ġkhiá»ĥn": 2639,
      "ĠCÆ¡": 2640,
      "Ġhá»ķ": 2641,
      "Ġchá»¥c": 2642,
      "Ġchá»£": 2643,
      "CÃ´": 2644,
      "Ġvideo": 2645,
      "Ho": 2646,
      "Ġá»§y": 2647,
      "ĠtÃ¢y": 2648,
      "ĠxÃ¢m": 2649,
      "ĠnÃªu": 2650,
      "ĠÄĲá»Ļ": 2651,
      "á»ŀ": 2652,
      "ĠAr": 2653,
      ".HCM": 2654,
      "ĠLÃºc": 2655,
      "ĠÄĳáºŃp": 2656,
      "ĠtrÆ°Æ¡ng": 2657,
      "ĠHy": 2658,
      "Ġvua": 2659,
      "ÄĲiá»ģu": 2660,
      "ĠTáº¿t": 2661,
      "Ġná»Ł": 2662,
      "ĠgiÃ¢y": 2663,
      "Ġmiáº¿ng": 2664,
      "CH": 2665,
      "Em": 2666,
      "Ġtháº±ng": 2667,
      "28": 2668,
      "ĠÄĳá»ĭch": 2669,
      "lin": 2670,
      "ĠDÃ¹": 2671,
      "Ġtrá»¯": 2672,
      "uc": 2673,
      "Ġtháº£i": 2674,
      "Ġvitamin": 2675,
      "ib": 2676,
      "Ġtruyá»ĩn": 2677,
      "VÃ¬": 2678,
      "Ġsá»¹": 2679,
      "áº«m": 2680,
      "Ġtiá»ģm": 2681,
      "ĠNew": 2682,
      "ian": 2683,
      "ina": 2684,
      "\".": 2685,
      "ĠhÃ¹ng": 2686,
      "Ġcháº·n": 2687,
      "are": 2688,
      "ond": 2689,
      "ĠTÃłi": 2690,
      "ĠHiá»ĩp": 2691,
      "ĠBá»ĩnh": 2692,
      "our": 2693,
      "ĠthÃ´n": 2694,
      "Ġhiá»ĥn": 2695,
      "197": 2696,
      "Ġsho": 2697,
      "ĠkhÃŃch": 2698,
      "ĠHuy": 2699,
      "á»Ļm": 2700,
      "ĠbÆ¡": 2701,
      "ĠTáºŃp": 2702,
      "ĠDÅ©ng": 2703,
      "Ġnon": 2704,
      "ĠHáº¡": 2705,
      "Ġgiá»ıi": 2706,
      "PT": 2707,
      "Ġgá»£i": 2708,
      "ep": 2709,
      "Ġcanh": 2710,
      "NhÃ": 2711,
      "TrÃªn": 2712,
      "90": 2713,
      "Ġtháº£m": 2714,
      "Ġtreo": 2715,
      "ĠÄĳá»±ng": 2716,
      "Ġpro": 2717,
      "ĠThÆ°Æ¡ng": 2718,
      "ĳt": 2719,
      "Ġthiá»ĥu": 2720,
      "ĠduyÃªn": 2721,
      "ĠCÅ©ng": 2722,
      "ĠDÃ¢n": 2723,
      "Viá»ĩc": 2724,
      "Ġngá»«a": 2725,
      "ĠchÃ¹a": 2726,
      ",âĢ¦": 2727,
      "ĠVinh": 2728,
      "und": 2729,
      "Ġim": 2730,
      "ĠSh": 2731,
      "ank": 2732,
      "ĠsÃ´i": 2733,
      "ĠThá»Ŀi": 2734,
      "Ġká»ĭch": 2735,
      "Ġko": 2736,
      "Ġmáº£nh": 2737,
      "Ġbáº¡o": 2738,
      "ver": 2739,
      "Ġdao": 2740,
      "op": 2741,
      "ue": 2742,
      "£n": 2743,
      "ĠGiÃª": 2744,
      "ĠchÃŃn": 2745,
      "ĠthÃ¢m": 2746,
      "Ġhoang": 2747,
      "Ġmi": 2748,
      "á»ķng": 2749,
      "ĠÄĳáºŃm": 2750,
      "Ľn": 2751,
      "Ġcáº¥m": 2752,
      "Ġthua": 2753,
      "Ġbá»¥i": 2754,
      "ĠThá»±c": 2755,
      "Ġtá»±a": 2756,
      "ĠPhan": 2757,
      "Ġtiáº¿c": 2758,
      "ĠngÃ³n": 2759,
      "ĠLÆ°u": 2760,
      "ĠthÃ¡ch": 2761,
      "Ġphu": 2762,
      "âĢĶ": 2763,
      "ĠHÆ°ng": 2764,
      "ĠmÃłng": 2765,
      "Æ°á»¡i": 2766,
      "Ġht": 2767,
      "Ġnháº¯n": 2768,
      "ĠtÃ´ng": 2769,
      "Ġhá»§y": 2770,
      "ĠLÃłm": 2771,
      "ah": 2772,
      "ld": 2773,
      "Ġxoay": 2774,
      "ĠHá»įc": 2775,
      "ĠSá»": 2776,
      "HÃ£y": 2777,
      "ĠthÃ³i": 2778,
      "Ġhá»©a": 2779,
      "¥t": 2780,
      "Ġcáº£n": 2781,
      "Ġcá»Ļt": 2782,
      "ĠÃ¡i": 2783,
      "ĠTR": 2784,
      "ĠÄĳá»ĳt": 2785,
      "ox": 2786,
      "ĠTiÃªu": 2787,
      "ĠHÃ¹ng": 2788,
      "Ġruá»Ļt": 2789,
      "ĠgiÃ£n": 2790,
      "ĠnÃºt": 2791,
      "Ġkhá»Ľp": 2792,
      "ĠÂ": 2793,
      "Ġchim": 2794,
      "Ġtrá»įn": 2795,
      "Ġhttp": 2796,
      "Ġbang": 2797,
      "end": 2798,
      "Ġmuá»ĳi": 2799,
      "ĠCÃ¡i": 2800,
      "ĠBÃ¡c": 2801,
      "ĠYÃªn": 2802,
      "Ġcá»Ŀ": 2803,
      "ĠsÃ¡nh": 2804,
      "Ġtrá»ĳng": 2805,
      "-t": 2806,
      "ĠDN": 2807,
      "Ġhuá»ĳng": 2808,
      "Ġmá»ĵ": 2809,
      "BÃªn": 2810,
      "Ġná»¥": 2811,
      "Ġnhá»±a": 2812,
      "Ġcá»ĳt": 2813,
      "Ġtháº£": 2814,
      "ĠchÃºc": 2815,
      "ĠbÃ´ng": 2816,
      "ĠsÃºng": 2817,
      "áºł": 2818,
      "ĠKhÃ¡nh": 2819,
      "Ġgáº¡o": 2820,
      "Vá»ģ": 2821,
      "II": 2822,
      "26": 2823,
      "TC": 2824,
      "ThÃ": 2825,
      "ĠTiáº¿n": 2826,
      "ĠlÃ£ng": 2827,
      "Ġtáº£ng": 2828,
      "ĠTam": 2829,
      "Ġsay": 2830,
      "ĠngÃłi": 2831,
      "á»ĥ": 2832,
      "ĠThá»§y": 2833,
      "ink": 2834,
      "Ġthuyá»ģn": 2835,
      "Ġmá»ī": 2836,
      "Ġhiáº¿m": 2837,
      "Ġmá»ıng": 2838,
      "Ġáº¤n": 2839,
      "ÄĲá»ĳi": 2840,
      "ĠtÃºc": 2841,
      "Ġtháº§m": 2842,
      "Ġhá»ıng": 2843,
      "Ġcá»ı": 2844,
      "ĠÃł": 2845,
      "ĠÄĲoÃłn": 2846,
      "Ġnáº¥m": 2847,
      "áº«y": 2848,
      "ĠPH": 2849,
      "ĠChu": 2850,
      "Ġmáº¡c": 2851,
      "ĠKhoa": 2852,
      "ĠNháº¥t": 2853,
      "ĠdÃ¢u": 2854,
      "ect": 2855,
      "log": 2856,
      "Ġong": 2857,
      "Ġláº»": 2858,
      "Ġbá»Ľt": 2859,
      "!âĢĿĊ": 2860,
      "Giá»": 2861,
      "ĠvÃµ": 2862,
      "Xem": 2863,
      "300": 2864,
      "ĠTrÃªn": 2865,
      ">>": 2866,
      "ĠtrÃº": 2867,
      "ĠbÃ¡t": 2868,
      "Ġthá»±": 2869,
      "Æ¯á»": 2870,
      "ĠvÃ¡y": 2871,
      "Ġsáº¯m": 2872,
      "Ġbá»ĵi": 2873,
      "ĠtÃ¡o": 2874,
      "Ġtráº¥n": 2875,
      "ĠPhÃ¡t": 2876,
      "ĠÆ°a": 2877,
      "mart": 2878,
      "ĠGoogle": 2879,
      "27": 2880,
      "Ġhoáº£ng": 2881,
      "Ġtháº¯c": 2882,
      "ĠtÃº": 2883,
      "ĠNÃ³i": 2884,
      "Ġná»Ļp": 2885,
      "Ġemail": 2886,
      "Ġdá»ĭu": 2887,
      "Ġ?": 2888,
      "Ġmá»ĭn": 2889,
      "ĠKH": 2890,
      "Ã©o": 2891,
      "ĠmÆ°Æ¡i": 2892,
      "ĠcÃº": 2893,
      "ĠKhu": 2894,
      "NhÆ°": 2895,
      "ĠlÅ©": 2896,
      "ĠlÃ¢m": 2897,
      "ĠÄĳua": 2898,
      "ĠPl": 2899,
      "Ġlang": 2900,
      "gi": 2901,
      "Ġbi": 2902,
      "ĠnhuáºŃn": 2903,
      "VÃł": 2904,
      "ĠgiáºŃt": 2905,
      "ĠlÃ£i": 2906,
      "ĠnhÃ£n": 2907,
      "Sá»±": 2908,
      "¦y": 2909,
      "Ġngu": 2910,
      "ĠlÆ°á»Ľi": 2911,
      "ĠSinh": 2912,
      "-Ċ": 2913,
      "Ġro": 2914,
      "198": 2915,
      "Ġmá»Ŀ": 2916,
      "Ġhá»Ĺn": 2917,
      "ĠSp": 2918,
      "Ġáº£o": 2919,
      "he": 2920,
      "ans": 2921,
      "áº¾": 2922,
      "Kh": 2923,
      "ĠThÆ°á»£ng": 2924,
      "Ġbáº¡ch": 2925,
      "ĠÄĳÄ©a": 2926,
      "ĠQuan": 2927,
      "Con": 2928,
      "ĠdÃŃnh": 2929,
      "Ġchuá»Ļt": 2930,
      "Ġbá»Ĺng": 2931,
      "ĠbÃ¹": 2932,
      "Ġtráº¡i": 2933,
      "ĠcÆ°Æ¡ng": 2934,
      "Ġtáº©y": 2935,
      "ams": 2936,
      "ĠTriá»ģu": 2937,
      "Ġáº¡": 2938,
      "ĠSáº£n": 2939,
      "ĠdÄ©": 2940,
      "Ġcá»ķng": 2941,
      "ne": 2942,
      "ight": 2943,
      "ĠÄĲÃłi": 2944,
      "Bá»": 2945,
      "ÃĤ": 2946,
      "Ġtháº¥m": 2947,
      "Ġchá»ĳi": 2948,
      "Ġduyá»ĩt": 2949,
      "ĠTÃ¬nh": 2950,
      "ĠVÃµ": 2951,
      "ĠÃļ": 2952,
      "ĠÄĳáº¡p": 2953,
      "Ġphá»ıng": 2954,
      "ĠtÃ¡ch": 2955,
      "ĠTrÆ°Æ¡ng": 2956,
      "ĠkÃªnh": 2957,
      "Ġngá»įn": 2958,
      "Ġtrá»Ļn": 2959,
      "ĠÄĳáº¯c": 2960,
      "Ġgiáº·t": 2961,
      "ĠPhÃºc": 2962,
      "NÄĥm": 2963,
      "ĠxÃ³a": 2964,
      "ĠVá»ģ": 2965,
      "ach": 2966,
      "á»¯u": 2967,
      "ĠtÃ¢n": 2968,
      "ĠnghÃ¬n": 2969,
      "Nguá»ĵn": 2970,
      "Ġgá»¡": 2971,
      "ĠngáºŃp": 2972,
      "ĠchÃºa": 2973,
      "Ġphiá»ģn": 2974,
      "ber": 2975,
      "áº¹t": 2976,
      "ge": 2977,
      "ĠDá»±": 2978,
      "ĠAnd": 2979,
      "Ġfor": 2980,
      "ĠHÃłng": 2981,
      "ĠBiá»ĥn": 2982,
      "ĠbÃª": 2983,
      "Ġngáº¯m": 2984,
      "á»Ńa": 2985,
      "ĠHÆ¡n": 2986,
      "ĠDuy": 2987,
      "35": 2988,
      "Ġpin": 2989,
      "Ġthan": 2990,
      "ĠTrá»ĭ": 2991,
      "ĠÄĲÃło": 2992,
      "ĠtáºŃt": 2993,
      "ĠnÆ°á»Ľng": 2994,
      "ĠngÆ°á»¡ng": 2995,
      "phone": 2996,
      "Ġnháº¡t": 2997,
      "ĠVin": 2998,
      "Ã£nh": 2999,
      "Ġtiá»ĩc": 3000,
      "Ġá»¦y": 3001,
      "Ġcáº¥t": 3002,
      "ump": 3003,
      "ĠApp": 3004,
      "AM": 3005,
      "Ġsa": 3006,
      "ĠFacebook": 3007,
      "ĠnÆ°Æ¡ng": 3008,
      "ĠThiáº¿t": 3009,
      "ĠLe": 3010,
      "ĠtrÃŃch": 3011,
      "ĠbÆ¡i": 3012,
      "Ġtrá»ĳn": 3013,
      "ty": 3014,
      "tel": 3015,
      "Ġnháº«n": 3016,
      "ĠlÃ¡t": 3017,
      "ĠCan": 3018,
      "____": 3019,
      "Ġkháº¥u": 3020,
      "ĠÆ¡i": 3021,
      "chá»": 3022,
      "ĠBr": 3023,
      "ĠbÃ¡m": 3024,
      "ÃĬ": 3025,
      "ĠxuÃ¢n": 3026,
      "ĠCha": 3027,
      "ĠchÃ¡n": 3028,
      "ĠÄĲiá»ĩn": 3029,
      "Ġchá»Ł": 3030,
      "ĠDung": 3031,
      "ĠRe": 3032,
      "ĠLÃł": 3033,
      "LV": 3034,
      "29": 3035,
      "Ġ'": 3036,
      "ĠDiá»ĩp": 3037,
      "ĠThá»©": 3038,
      "Ġ?Ċ": 3039,
      "45": 3040,
      "ĠGiÃ¡": 3041,
      "Chá»ī": 3042,
      "ĠgáºŃt": 3043,
      "ThÃ´ng": 3044,
      "oh": 3045,
      "BÃłi": 3046,
      "uk": 3047,
      "CÅ©ng": 3048,
      "ĠNhi": 3049,
      "Ġ+": 3050,
      "Ġxá»©ng": 3051,
      "Ġlá»«a": 3052,
      "ÄĲT": 3053,
      "ĠSá»Ń": 3054,
      "Ġsá»£i": 3055,
      "ĳc": 3056,
      "ĠchÄĥng": 3057,
      "xi": 3058,
      "ĠMa": 3059,
      "ĠmÃ³c": 3060,
      "ĠBl": 3061,
      "ĠbÃ¬": 3062,
      "ear": 3063,
      "ck": 3064,
      "ran": 3065,
      "ĠsÄĥn": 3066,
      "ÄĲÆ°á»£c": 3067,
      "Ġbá»įc": 3068,
      "Ġngá»±a": 3069,
      "Ġtá»ıa": 3070,
      "Bá»Ļ": 3071,
      "Ìģ": 3072,
      "Ġvong": 3073,
      "Ġgá»ĳi": 3074,
      "Ġláº¯c": 3075,
      "ĠVÄ©nh": 3076,
      "ĠÄĲáº§u": 3077,
      "ĠquÃ¡i": 3078,
      "Ġvinh": 3079,
      "Ġj": 3080,
      "Hai": 3081,
      "ĠTrá»įng": 3082,
      "Ġcá»¡": 3083,
      "ĠMan": 3084,
      "ĠBÃłi": 3085,
      "ork": 3086,
      "ĠHá»¯u": 3087,
      "Ġnhá»ĭp": 3088,
      "Ġmá»įc": 3089,
      "ĠtrÃ´i": 3090,
      "Ġvu": 3091,
      "ĠbáºŃn": 3092,
      "ĠLáº¡c": 3093,
      "Nhiá»ģu": 3094,
      "Ġthá»į": 3095,
      "CÃ²n": 3096,
      "-l": 3097,
      "Ġdá»įa": 3098,
      "Ð¾": 3099,
      "ĠmÃŃ": 3100,
      "cm": 3101,
      "ft": 3102,
      "ĠSy": 3103,
      "©o": 3104,
      "ĠMy": 3105,
      "Ġcháº¥n": 3106,
      "Ġal": 3107,
      "ĠcÆ°á»Ľp": 3108,
      "khÃ´ng": 3109,
      "Ńnh": 3110,
      "Ġonline": 3111,
      "ĠNghá»ĭ": 3112,
      "ĠAm": 3113,
      "ĠChá»ĭ": 3114,
      "ĠkÄ©": 3115,
      "ice": 3116,
      "ĠÄĲH": 3117,
      "ĠBÃ¡o": 3118,
      "ien": 3119,
      "ĠhÃ£i": 3120,
      "ĠkhÃ¡t": 3121,
      "ĠphÆ°á»Ŀng": 3122,
      "Ġmen": 3123,
      "Ġkhen": 3124,
      "indow": 3125,
      "ĠÄĲÆ°á»£c": 3126,
      "ĠMáº·t": 3127,
      "ĠThÆ°á»Ŀng": 3128,
      "Ġhá»ĳi": 3129,
      "ĠMal": 3130,
      "ama": 3131,
      "ĠNgoáº¡i": 3132,
      "NhÃł": 3133,
      "ĠXin": 3134,
      "ĠthÃ¡o": 3135,
      "ĠKáº¿t": 3136,
      "Ġcamera": 3137,
      "ĠLoan": 3138,
      "SE": 3139,
      "ĠÄĲá»ĭnh": 3140,
      "ĠgÃ£": 3141,
      "VáºŃy": 3142,
      "ĠcÃ¡t": 3143,
      "ĠtÃ¡": 3144,
      "Ġá»©c": 3145,
      "ĠHCM": 3146,
      "ĠNgÃ´": 3147,
      "ĠNgay": 3148,
      "ĠbÃ¡": 3149,
      "ĠPr": 3150,
      "Lá»": 3151,
      "ĠsÃ¡u": 3152,
      "ĠmÆ°u": 3153,
      "ĠAs": 3154,
      "Ġngá»Ļ": 3155,
      "ĠÄĳeo": 3156,
      "ĠAi": 3157,
      "Ġdá»įc": 3158,
      "ĠKhÃ¡ch": 3159,
      "Ġhuáº¥n": 3160,
      "ĠInternet": 3161,
      "ĠbÃºt": 3162,
      "Ġváº¡n": 3163,
      "ĠÃĿ": 3164,
      "ĠDi": 3165,
      "ĠTrÆ°á»Łng": 3166,
      "ĠÄĳam": 3167,
      "Thá»Ŀi": 3168,
      "Ġháº±ng": 3169,
      ".\"": 3170,
      "IN": 3171,
      "Do": 3172,
      "ĠÄĳÃ³i": 3173,
      "ĠCáº£nh": 3174,
      "ĠChÆ°Æ¡ng": 3175,
      "Ġrá»§i": 3176,
      "TV": 3177,
      "Æ°á»£n": 3178,
      "Ġváº¹n": 3179,
      "Ġde": 3180,
      "Ġnháº¡y": 3181,
      "ĠrÅ©": 3182,
      "ĠÄĳÃłm": 3183,
      "ÄĲáº¿n": 3184,
      "ĠngÆ¡i": 3185,
      "ive": 3186,
      "Iá»Ĩ": 3187,
      "Ġ!": 3188,
      "Ġhiáº¿n": 3189,
      "ays": 3190,
      "ĠthÄĥng": 3191,
      "ĠNG": 3192,
      "Æ°Æ¡n": 3193,
      "ĠTÃ´": 3194,
      "ĠthÃ©p": 3195,
      "ky": 3196,
      "§a": 3197,
      "ĠchÄĥn": 3198,
      "ĠSong": 3199,
      "Ġmáº¡n": 3200,
      "Ġquá»¹": 3201,
      "Ġháº§m": 3202,
      "ĠNÆ°á»Ľc": 3203,
      "LÃł": 3204,
      "TS": 3205,
      "Ġbáº©n": 3206,
      ";Ċ": 3207,
      "Ġha": 3208,
      "ĠÄĳá»ģn": 3209,
      "Ġthuáº§n": 3210,
      "ĠPro": 3211,
      "Ġlau": 3212,
      "ug": 3213,
      "NÃ³i": 3214,
      "ĠSá»ĳ": 3215,
      "36": 3216,
      "´i": 3217,
      "ĠTá»±": 3218,
      "ith": 3219,
      "ĠTháºŃt": 3220,
      "ĠPháº§n": 3221,
      "ĠÄĳiá»ĩp": 3222,
      "ĠlÃ´i": 3223,
      "Tháº¿": 3224,
      "Ġbia": 3225,
      "Ġkhá»©": 3226,
      "ĠbuÃ´n": 3227,
      "88": 3228,
      "196": 3229,
      "ĠÄĲa": 3230,
      "uch": 3231,
      "Ġviá»ħn": 3232,
      "Ġcong": 3233,
      "ĠÄĳá»£t": 3234,
      "01": 3235,
      "ĠQuáºŃn": 3236,
      "indows": 3237,
      "ĠbÃ£o": 3238,
      "ĠHáº¯n": 3239,
      "ĠSing": 3240,
      "Thá»©": 3241,
      "ĠCáº§n": 3242,
      "ĠChiáº¿n": 3243,
      "ĠMÃ£": 3244,
      "Ġga": 3245,
      "ĠmÃ¬": 3246,
      "ide": 3247,
      "Ġgiáº¥u": 3248,
      "ĠCam": 3249,
      "arket": 3250,
      "Ġháº¹p": 3251,
      "ens": 3252,
      "ĠsÆ°á»Ľng": 3253,
      "Ġ[": 3254,
      "ĠÄĳiÃªn": 3255,
      "Ġnháº¯m": 3256,
      "ĠSÆ°": 3257,
      "Æł": 3258,
      "ĠlÃ²": 3259,
      "ĠTinh": 3260,
      "ĠUn": 3261,
      "ĠÃ¢n": 3262,
      "ĠÃ¡m": 3263,
      "ĠTÃ´n": 3264,
      "top": 3265,
      "ĠBÃŃ": 3266,
      "wn": 3267,
      "ĠÄĲáº¡o": 3268,
      "ĠngÃ¢m": 3269,
      "Ġcom": 3270,
      "ĠdÃ¡n": 3271,
      "amsung": 3272,
      "Ġbe": 3273,
      "ĠlÃŃnh": 3274,
      "ĠháºŃn": 3275,
      "ĠCS": 3276,
      "ĠcÃºng": 3277,
      "ĠTin": 3278,
      "ĠrÃ¡c": 3279,
      "Ġ/": 3280,
      "ĠtrÆ°a": 3281,
      "ĠNÃªn": 3282,
      "ada": 3283,
      "ĠCáº£": 3284,
      "Ġphun": 3285,
      "Ġdá»«a": 3286,
      "ĠTrump": 3287,
      "Ġmáº»": 3288,
      "99": 3289,
      "Ð°": 3290,
      "ĠNghi": 3291,
      "Ġac": 3292,
      "ines": 3293,
      "ĠApple": 3294,
      "ĠCÃ¹ng": 3295,
      "ĠHLV": 3296,
      "á»¥": 3297,
      "ĠMÃ¬nh": 3298,
      "ĠÄĳe": 3299,
      "Ġquyáº¿n": 3300,
      "BÃł": 3301,
      "Ġtao": 3302,
      "Ġmáº¿n": 3303,
      "Ġkháº½": 3304,
      "Ġchanh": 3305,
      "Ġtrá»¥c": 3306,
      "áº±n": 3307,
      "ĠÃļc": 3308,
      "ĠGiÃªsu": 3309,
      "ix": 3310,
      "ĠVÃ´": 3311,
      "ĠsÃ³t": 3312,
      "ĠCá»ķ": 3313,
      "Ġis": 3314,
      "Ġrá»¡": 3315,
      "Ġmuá»Ļn": 3316,
      "ies": 3317,
      "ĠDá»ĭch": 3318,
      "ĠKhá»": 3319,
      "ĠHÃ³a": 3320,
      "ĠÄĳáº¯t": 3321,
      "Ġná»ĵi": 3322,
      "man": 3323,
      "Ġcáº¯m": 3324,
      "pl": 3325,
      "ĠLÆ°Æ¡ng": 3326,
      "ĠMá»įi": 3327,
      "apore": 3328,
      "á»ĳp": 3329,
      "ĠchÃª": 3330,
      "Ġtia": 3331,
      "ĠkhoÃ¡ng": 3332,
      "aw": 3333,
      "ĠlÃ¹ng": 3334,
      "!âĢĿ": 3335,
      "Ġná»ĵng": 3336,
      "ĠCá»¥c": 3337,
      "....": 3338,
      "ĠHuáº¿": 3339,
      "ĠÄĳai": 3340,
      "Ġlong": 3341,
      "Ġmáº¡o": 3342,
      "ĠgiÃ¡p": 3343,
      "KhÃ¡": 3344,
      "ThÃ¡": 3345,
      "org": 3346,
      "Ġloa": 3347,
      "ĠlÃ´": 3348,
      "ĠkhÃ©o": 3349,
      "Ġtuá»ĩ": 3350,
      "ĠÄĲá»ĭa": 3351,
      "ĠkhÃ¡i": 3352,
      "ĠghÃ©p": 3353,
      "ĠbÃº": 3354,
      "]Ċ": 3355,
      "Ġhá»ıa": 3356,
      "ĠChÃ¡": 3357,
      "ĠdÃ¢m": 3358,
      "Ġcá»±u": 3359,
      "-m": 3360,
      "Ġtá»Ľ": 3361,
      "ĠAd": 3362,
      "ĠQuy": 3363,
      "ĠCháº³ng": 3364,
      "cÃ³": 3365,
      "âĢĶâĢĶ": 3366,
      "Ġráº¯n": 3367,
      "ĠlÆ°á»¡i": 3368,
      "Ã¹m": 3369,
      "Máº·c": 3370,
      "ĠbuÃ´ng": 3371,
      "ĠÄĳÃł": 3372,
      "ald": 3373,
      "Ġbáº¥m": 3374,
      "ĠHÃłnh": 3375,
      "Ġnho": 3376,
      "ĠcáºŃy": 3377,
      "Ġtháº¯t": 3378,
      "ĠÄĳá»Ľn": 3379,
      "ĠxÆ¡": 3380,
      "Ġlá»ĩch": 3381,
      "Ġst": 3382,
      "Há»": 3383,
      "ĠcÃ£i": 3384,
      "Ġrun": 3385,
      "ĠHá»ĵi": 3386,
      "ĠGiáº£i": 3387,
      "ĠbÆ¡m": 3388,
      "Ġngá»įc": 3389,
      "Ġlá»ĵ": 3390,
      "ChÃŃnh": 3391,
      "ĠBáº±ng": 3392,
      "Ġtriá»ģu": 3393,
      "ĠCity": 3394,
      "Æ°á»Łi": 3395,
      "Ġtrá»Ļi": 3396,
      "ĠSao": 3397,
      "ĠtuÃ¢n": 3398,
      "so": 3399,
      "Ġva": 3400,
      "Ġtriá»ĩt": 3401,
      "Cho": 3402,
      "Ġhi": 3403,
      "Ġnáº¿p": 3404,
      "ĠTháº§y": 3405,
      "á»ĳm": 3406,
      "ĠnÃ¡m": 3407,
      "isa": 3408,
      "Ġsanh": 3409,
      "ĠcÃºi": 3410,
      "Ġcá»ĳc": 3411,
      "âĢ¦âĢ¦": 3412,
      "ÃĶNG": 3413,
      "martphone": 3414,
      "Ġbá»ĥ": 3415,
      "ash": 3416,
      "Ġchá»£t": 3417,
      "Ġ|": 3418,
      "ĠLá»¥c": 3419,
      "ĠÄĳáº¡n": 3420,
      "ĠÄĳá»ĵn": 3421,
      "ress": 3422,
      "ĠvÃ¢n": 3423,
      "Ġthá»£": 3424,
      "ĠÄĳÃ¹a": 3425,
      "Ġbáº£y": 3426,
      "ÃŃu": 3427,
      "ĠWindows": 3428,
      "EO": 3429,
      "ĠMÃł": 3430,
      "ĠAir": 3431,
      "ĠmÃ¢y": 3432,
      "icro": 3433,
      "ĠÃĶ": 3434,
      "roid": 3435,
      "CN": 3436,
      "xy": 3437,
      "ĠPhilip": 3438,
      "Ġtrá»Ļm": 3439,
      "Ġthiá»ĩp": 3440,
      "son": 3441,
      "oy": 3442,
      "ĠHÃ¬nh": 3443,
      "ĠSingapore": 3444,
      "ĠnhÃ¡nh": 3445,
      "ĠvÄ©": 3446,
      "Thá»±c": 3447,
      "ĠtrÃºng": 3448,
      "ĠToÃłn": 3449,
      "Ġrá»±c": 3450,
      "Ta": 3451,
      "ĠBar": 3452,
      "ĠTrá»Ŀi": 3453,
      "LÃłm": 3454,
      "ĠNÃłng": 3455,
      "ĠNghá»ĩ": 3456,
      "Ðµ": 3457,
      "Ġmau": 3458,
      "Ġkháº©n": 3459,
      "Ġkhá»ķng": 3460,
      "per": 3461,
      "ÄĲáº¡i": 3462,
      "HÃ¬nh": 3463,
      "Ġchá»§ng": 3464,
      "ĠphÃŃm": 3465,
      "ĠchiÃªu": 3466,
      "Ġmá»Ļng": 3467,
      "ĠKiá»ģu": 3468,
      "Ġquá»·": 3469,
      "Ġlá»ıng": 3470,
      "ĠtrÃłng": 3471,
      "ĠGiao": 3472,
      "con": 3473,
      "ĠHuyá»ģn": 3474,
      "rus": 3475,
      "08": 3476,
      "Ġgiam": 3477,
      "NguyÃªn": 3478,
      "rom": 3479,
      "ĠÃ³c": 3480,
      "LÃºc": 3481,
      "ĠquÃ¡t": 3482,
      "OS": 3483,
      "ĠLÄĥng": 3484,
      "ĠxÄĥng": 3485,
      "tion": 3486,
      "ĠRá»ĵi": 3487,
      "ood": 3488,
      "ost": 3489,
      "Ġliá»ģu": 3490,
      "ĠOb": 3491,
      "ĠTriá»ĩu": 3492,
      "Ġtháº¥u": 3493,
      "ĠCa": 3494,
      "04": 3495,
      "ĠkhoÃ¡n": 3496,
      "ĠBá»ĵ": 3497,
      "ĠPark": 3498,
      "ĠTháº£o": 3499,
      "ĠLai": 3500,
      "Ġleo": 3501,
      "ĠPar": 3502,
      "ĠXem": 3503,
      "ĠhoÃł": 3504,
      "ĠÄĳáº¯p": 3505,
      "ĠSamsung": 3506,
      "ĠÄĲá»«ng": 3507,
      "ĠGr": 3508,
      "¨m": 3509,
      "ĠtÃ´m": 3510,
      "ve": 3511,
      "ĠMÃ¡y": 3512,
      "ĠQua": 3513,
      "Ġrá»ĳt": 3514,
      "ĠthÃ¹ng": 3515,
      "ĠhÃ¢m": 3516,
      "Tá»ķng": 3517,
      "Ġná»ģ": 3518,
      "Ġkm": 3519,
      "ĠchÃ¨": 3520,
      "Ġno": 3521,
      "Ġká»ĩ": 3522,
      "ĠHD": 3523,
      "ĠSo": 3524,
      "ĠMá»Ļc": 3525,
      "áº¬": 3526,
      "ĠtÃŃm": 3527,
      "ĠVá»ĭ": 3528,
      "ini": 3529,
      "Ġchuá»Ĺi": 3530,
      "Ġhung": 3531,
      "ĠPháº£i": 3532,
      "ĠcÆ°á»Ľc": 3533,
      "ĠTÃłu": 3534,
      "Ġhot": 3535,
      "go": 3536,
      "Ġson": 3537,
      "ĠNghÄ©a": 3538,
      "Ġcl": 3539,
      "Ġfile": 3540,
      "Ġsp": 3541,
      "DÃ¹": 3542,
      "Ġchuá»Ļng": 3543,
      "ĠdÃłn": 3544,
      "ĠNá»¯": 3545,
      "Ġsoáº¡n": 3546,
      "mm": 3547,
      "tein": 3548,
      "Ġbáº¯c": 3549,
      "arketing": 3550,
      "-s": 3551,
      "ĠtÃłng": 3552,
      "ĠCar": 3553,
      "ĠThÃº": 3554,
      "ĠÄĳÃłnh": 3555,
      "Ġxáº£": 3556,
      "Ġhá»įng": 3557,
      "Ġmá»īm": 3558,
      "ĠTuyáº¿t": 3559,
      "ĠCol": 3560,
      "ĠBiÃªn": 3561,
      "ĠÄĳoáº¡t": 3562,
      "ĠnÃ¡t": 3563,
      "Ġbáº¯p": 3564,
      "Ġtá»©": 3565,
      "ĠViÃªn": 3566,
      "ĠkhÃ³i": 3567,
      "ĠVietnam": 3568,
      "Ġgáº¡ch": 3569,
      "33": 3570,
      "ĠHáº±ng": 3571,
      "ĠkhÃ´n": 3572,
      "Ġtháº§u": 3573,
      "ĠBáº¥t": 3574,
      "ashi": 3575,
      "ĠvÃº": 3576,
      "55": 3577,
      "ke": 3578,
      "ĠCáº§u": 3579,
      "ace": 3580,
      "ĠâĢĿ": 3581,
      "ĠtrÃ¡ng": 3582,
      "ĠghÃ©t": 3583,
      "ĠxÃ³m": 3584,
      "ria": 3585,
      "Ġcháº£": 3586,
      "ĠÄĳÃ¢m": 3587,
      "Ġthoáº£ng": 3588,
      "ĠlÃ¢y": 3589,
      "ĠdÃ£": 3590,
      "Ġxáº¡": 3591,
      "kg": 3592,
      "ĠlÃ³t": 3593,
      "Ġngáº§m": 3594,
      "ĠHá»ĩ": 3595,
      "Ġtiá»ħn": 3596,
      "ĠTPHCM": 3597,
      "ment": 3598,
      "á»©c": 3599,
      "ĠLam": 3600,
      "ĠVÃŃ": 3601,
      "Ġváº¯ng": 3602,
      "Ġsmartphone": 3603,
      "ĠthÆ°a": 3604,
      "ĠdÃ²": 3605,
      "Ġcháº½": 3606,
      "194": 3607,
      "ĠchÃ¬m": 3608,
      "Ġcay": 3609,
      "ĠÆ°á»Ľt": 3610,
      "UY": 3611,
      "Ġhuyá»ģn": 3612,
      "ĠdÃ¢ng": 3613,
      "Ġrung": 3614,
      "ĠbÃ´i": 3615,
      "Ġchai": 3616,
      "ĠTrÃŃ": 3617,
      "ĠUy": 3618,
      "||": 3619,
      "ÄĲÃ³": 3620,
      "Ġlui": 3621,
      "ĠmÃ´ng": 3622,
      "name": 3623,
      "km": 3624,
      "195": 3625,
      "ĠMá»¥c": 3626,
      "Ġháº£": 3627,
      "ĠThá»¥y": 3628,
      "Ġkhuyáº¿t": 3629,
      "ĠnÃ©n": 3630,
      "ester": 3631,
      "Ġ!Ċ": 3632,
      "ĠThÆ°": 3633,
      "ĠhÃŃ": 3634,
      "ĠCl": 3635,
      "ĠNguyá»ĩt": 3636,
      "ĠThá»ĳng": 3637,
      "ĠPhilipp": 3638,
      "ĠThÃŃ": 3639,
      "Ġnáº¡": 3640,
      "ĠTáº¥n": 3641,
      "ĠTiáº¿ng": 3642,
      "Ġtáº¿t": 3643,
      "ĠGal": 3644,
      "ure": 3645,
      "ĠghÃ©": 3646,
      "ĠQuáº£n": 3647,
      "ĠchÃ¢m": 3648,
      "Ġváº£": 3649,
      "Ġngoan": 3650,
      "ĠkhoÃ¡c": 3651,
      "¯a": 3652,
      "Ġcáº¯n": 3653,
      "Ġthiá»ģn": 3654,
      "ÄĤ": 3655,
      "ĠCáºŃu": 3656,
      "ĠkhoÃ¡i": 3657,
      "150": 3658,
      "xit": 3659,
      "Dá»": 3660,
      "ĠmÃ³ng": 3661,
      "ĠGD": 3662,
      "ĠlÃºa": 3663,
      "ĠBÃ¹i": 3664,
      "ĠxÃ¡ch": 3665,
      "Ġkhe": 3666,
      "----": 3667,
      "ial": 3668,
      "Ngay": 3669,
      "ĠPhÆ°á»£ng": 3670,
      "ĠÄĳÃ¡y": 3671,
      "ĠLy": 3672,
      "áº»o": 3673,
      "Ġtuyáº¿t": 3674,
      "ha": 3675,
      "Ġfan": 3676,
      "ĠÄĳáº»": 3677,
      "ust": 3678,
      "PhÃ¡": 3679,
      "Ġsáº¹o": 3680,
      "orm": 3681,
      "Táº¥t": 3682,
      "31": 3683,
      "á»Ńu": 3684,
      "Ġthá»ķi": 3685,
      "400": 3686,
      "ĠhÃł": 3687,
      "ara": 3688,
      "ĠthÃ¡p": 3689,
      "ĠHuá»³nh": 3690,
      "Ġnáº¡p": 3691,
      "ĠThiáº¿u": 3692,
      "ĠCÃ¡t": 3693,
      "ĠchÃ©n": 3694,
      "Ġtam": 3695,
      "ĠAndroid": 3696,
      "Ã¹y": 3697,
      "Ġsoi": 3698,
      "use": 3699,
      "Ġá»ĳc": 3700,
      "ĠgÃ¡nh": 3701,
      "ĠCÃ¢u": 3702,
      "Ġnáº§y": 3703,
      "orld": 3704,
      "ĠCÆ°á»Ŀng": 3705,
      "ĠTháº¯ng": 3706,
      "aysia": 3707,
      "ĠÃĤm": 3708,
      "ĠÄĲinh": 3709,
      "alo": 3710,
      "Ġlá»Ļn": 3711,
      "GiÃ¡": 3712,
      "ĠhÃłn": 3713,
      ",âĢĿ": 3714,
      "Ġláº¥p": 3715,
      "ĠchÃ©p": 3716,
      "ĠnhÄĥn": 3717,
      "ĠLá»Ļc": 3718,
      "Ġdá»įn": 3719,
      "02": 3720,
      "á»¥c": 3721,
      "ĠTÄĥng": 3722,
      "ĠkhÃ´i": 3723,
      "iss": 3724,
      "ample": 3725,
      "CS": 3726,
      "ĠVi": 3727,
      "ĠGiá»Ľi": 3728,
      "SEAN": 3729,
      "ĠÄĳá»ĩm": 3730,
      "Ġblog": 3731,
      "ĠLá»ħ": 3732,
      "Ġdá»ĳi": 3733,
      "ÃŃn": 3734,
      "áº·m": 3735,
      "ĠThuáºŃn": 3736,
      "ĠthÃ¨m": 3737,
      "ĠDÆ°á»£c": 3738,
      "ere": 3739,
      "ÄĲáº·c": 3740,
      "ath": 3741,
      "ino": 3742,
      "Ġgiá»įt": 3743,
      "iver": 3744,
      "Ġxoa": 3745,
      "out": 3746,
      "ĠVÃło": 3747,
      "Ġman": 3748,
      "ull": 3749,
      "app": 3750,
      "Ġtháº¡ch": 3751,
      "ĠÄĳá»Ĺ": 3752,
      "ĠcÃ¡m": 3753,
      "ĠCuá»Ļc": 3754,
      "ĠthÃª": 3755,
      "VÃło": 3756,
      "ED": 3757,
      "Ġcuá»ĵng": 3758,
      "thá»": 3759,
      "example": 3760,
      "AT": 3761,
      "ĠcÃ¡p": 3762,
      "old": 3763,
      "ĠÄĳuÃ´i": 3764,
      "fe": 3765,
      "ĠTiáº¿p": 3766,
      "Ġhiá»ģn": 3767,
      "Ġphá»ķi": 3768,
      "ll": 3769,
      "Ġtá»įa": 3770,
      "roup": 3771,
      "Ġkhuy": 3772,
      "Xin": 3773,
      "ĠlÄĥn": 3774,
      "ngÆ°á»Ŀi": 3775,
      "HÃ´m": 3776,
      "ĠTNH": 3777,
      "iá»ģng": 3778,
      "ĠtÃ¡m": 3779,
      "ĠKit": 3780,
      "ĠngoÃ¡i": 3781,
      "Ġcáº£ng": 3782,
      "Ġkhoai": 3783,
      "ĠTÃ²a": 3784,
      "CÃ¹ng": 3785,
      "ĠnghiÃªng": 3786,
      "Trung": 3787,
      "Ġlá»ĵng": 3788,
      "32": 3789,
      "ĠmÅ©": 3790,
      "XH": 3791,
      "Ġlam": 3792,
      "ĠÄĲá»Ĺ": 3793,
      "ĠvÆ°Æ¡n": 3794,
      "Ġnháº§m": 3795,
      "ĠmÃ¨o": 3796,
      "ĠÃ´n": 3797,
      "38": 3798,
      "Ġbom": 3799,
      "áº¥ng": 3800,
      "ĠMáº¡nh": 3801,
      "-b": 3802,
      "ĠBH": 3803,
      "axy": 3804,
      "ĠÄĳáº±ng": 3805,
      "ĠcÆ°á»¡ng": 3806,
      "Ġdáº¡o": 3807,
      "Ġshow": 3808,
      "ĠrÃło": 3809,
      "05": 3810,
      "ĠÃªm": 3811,
      "Ġmáº£ng": 3812,
      "ĠnhÆ°á»£ng": 3813,
      "ĠCom": 3814,
      "ĠHar": 3815,
      "load": 3816,
      "@example": 3817,
      "ĠHoÃłi": 3818,
      "ĠHoÃłn": 3819,
      "ĠTNHH": 3820,
      "fa": 3821,
      "ĠASEAN": 3822,
      "ĠtrÄĥng": 3823,
      "ĠTÃ¹ng": 3824,
      "Ġnhá»ī": 3825,
      "ĠWeb": 3826,
      "ĠMalaysia": 3827,
      "ÃĬN": 3828,
      "ĠSyria": 3829,
      "ĠCN": 3830,
      "CÃ¡i": 3831,
      "Ġhang": 3832,
      "ĠsÆ°u": 3833,
      "ĠCá»¥": 3834,
      "ĠquÃ©t": 3835,
      "%,": 3836,
      "CÃ¢u": 3837,
      "de": 3838,
      "ĠTáº§n": 3839,
      "ĠvÃ¢y": 3840,
      "Ġbá»ĳc": 3841,
      "Ġbá»ķng": 3842,
      "ĠGI": 3843,
      "´n": 3844,
      "ĠCuá»ĳi": 3845,
      "tor": 3846,
      "ĠnhÅ©ng": 3847,
      "ĠCá»©": 3848,
      "ĠmÃ²": 3849,
      "Ġtrá»«ng": 3850,
      "Ġthuáº«n": 3851,
      "uro": 3852,
      "ĠxÃ´ng": 3853,
      "me": 3854,
      "ĠHe": 3855,
      "Ġbá»Ļi": 3856,
      "ĠnÃ©m": 3857,
      "Ġchá»ĳt": 3858,
      "ary": 3859,
      "ony": 3860,
      "Ġtang": 3861,
      "ĠhoÃłi": 3862,
      "Ġcá»¥m": 3863,
      "Má»įi": 3864,
      "ĠII": 3865,
      "ĠIs": 3866,
      "ĠngÃło": 3867,
      "LÆ°u": 3868,
      "ĠHay": 3869,
      "ml": 3870,
      "ose": 3871,
      "ĠLÃ£nh": 3872,
      "ĠkhÃ¢u": 3873,
      "ĠYáº¿n": 3874,
      "!!": 3875,
      "ĠTiá»ģn": 3876,
      "Ġváº¥t": 3877,
      "onald": 3878,
      "ĠPhilippines": 3879,
      "Má»Ĺi": 3880,
      "Ġhoan": 3881,
      "ĠÄĳÄĥ": 3882,
      "Ġmá»ĳc": 3883,
      "Káº¿t": 3884,
      "Ġngá»£i": 3885,
      "Ġmá»ķ": 3886,
      "CO": 3887,
      "á»µ": 3888,
      "ĠRáº¥t": 3889,
      "ĠtiÃªm": 3890,
      "oan": 3891,
      "hop": 3892,
      "ĠEx": 3893,
      "enn": 3894,
      "06": 3895,
      "ĠThÃ¢n": 3896,
      "-c": 3897,
      "Ġcua": 3898,
      "ĠLáº¡t": 3899,
      "ĠÄĲÄĥng": 3900,
      "ĠAc": 3901,
      "03": 3902,
      "ĠchÃ¡nh": 3903,
      "Ġláº¡m": 3904,
      "ĠHiá»ģn": 3905,
      "ĠTruyá»ģn": 3906,
      "ĠlÄĥng": 3907,
      "ĠThÆ¡": 3908,
      "áº¿ch": 3909,
      "ĠPhÆ°á»Ľc": 3910,
      "ĠCamp": 3911,
      "Ġkhoe": 3912,
      "Chá»ĭ": 3913,
      "kh": 3914,
      "ĠphÆ¡i": 3915,
      "ÑĤ": 3916,
      "ĠChÃ¢n": 3917,
      "ĠInd": 3918,
      "Ġz": 3919,
      "Ġvá»Ĺ": 3920,
      "yl": 3921,
      "ĠTT": 3922,
      "Ġlá»¡": 3923,
      "ĠSan": 3924,
      "ĠNhÃ¬n": 3925,
      "Ġnhá»ĭ": 3926,
      "ĠÄĲÃ£": 3927,
      "Ġkiáº¿p": 3928,
      "aptop": 3929,
      "ĠvÄ©nh": 3930,
      "ĠlÃ£m": 3931,
      "Ġsex": 3932,
      "ĠnÃ¢u": 3933,
      "Ġ...": 3934,
      "Ġpl": 3935,
      "ĠmÃ©t": 3936,
      "Ġinternet": 3937,
      "ĠTV": 3938,
      "Ġhiáº¿u": 3939,
      "ĠmÃ²n": 3940,
      "ĠDáº¡": 3941,
      "Ġthá»īnh": 3942,
      "Ġcá»ĳng": 3943,
      "ĠÄĲáº¿": 3944,
      "ĠlÆ°á»¡ng": 3945,
      "Ġham": 3946,
      "Ġtá»±u": 3947,
      "Ġngá»©a": 3948,
      "Ġtráº¡m": 3949,
      "ĠDÃ¹ng": 3950,
      "?\"Ċ": 3951,
      "ĠÆ°": 3952,
      "07": 3953,
      "ĠBe": 3954,
      "ĠLá»£i": 3955,
      "LB": 3956,
      "ĠThay": 3957,
      "Ġrá»Ļn": 3958,
      "Ġnáº£y": 3959,
      "ĠbÃ³n": 3960,
      "Ġvan": 3961,
      "ĠSu": 3962,
      "orn": 3963,
      "Ġmuá»Ļi": 3964,
      "ĠÄĲáº¥t": 3965,
      "Ġvirus": 3966,
      "ĠthoÃ¡i": 3967,
      "Ġchinh": 3968,
      "ÄĲá»ĵng": 3969,
      "ĠtrÆ°á»£t": 3970,
      "ene": 3971,
      "ĠHoáº·c": 3972,
      "ĠCung": 3973,
      "ohn": 3974,
      "ĠrÃ¨n": 3975,
      "Ġquyá»ĥn": 3976,
      "Ġkhoáº»": 3977,
      "ĠSe": 3978,
      "ĠvÃ¡ch": 3979,
      "á»«": 3980,
      "Ġdáº¯t": 3981,
      "Ġhá»Ł": 3982,
      "Ġclip": 3983,
      "ade": 3984,
      "ĠnhÆ°á»£c": 3985,
      "ĠxÆ°á»Łng": 3986,
      "áº¦": 3987,
      "Ġviá»ĩt": 3988,
      "ĠCo": 3989,
      "ĠSÄ©": 3990,
      "-d": 3991,
      "Ġtáº§n": 3992,
      "ĠgÅ©i": 3993,
      "ier": 3994,
      "Chá»§": 3995,
      "ĠxÃł": 3996,
      "han": 3997,
      "âĢ¦.": 3998,
      "oll": 3999,
      "ĠTháºŃm": 4000,
      "ĠPhá»¥": 4001,
      "ĠbÃ³p": 4002,
      "ĠcháºŃu": 4003,
      "202": 4004,
      "ĠtrÄ©": 4005,
      "ĠNhá»Ŀ": 4006,
      "ĠcÆ°á»£c": 4007,
      "ĠHáºŃu": 4008,
      "Ġnhá»©c": 4009,
      "Ã©n": 4010,
      "ĠnhÃ£": 4011,
      "TháºŃt": 4012,
      "Ġse": 4013,
      "ĠtÃºy": 4014,
      "Ġmáº§m": 4015,
      "assage": 4016,
      "ĠÄĳáº§m": 4017,
      "ĠQuá»³nh": 4018,
      "ĠHÃ´m": 4019,
      "ern": 4020,
      "/t": 4021,
      "Ġheo": 4022,
      "ĠSer": 4023,
      "ĠÄĳá»ĵi": 4024,
      "Thiáº¿t": 4025,
      "ĠHá»£p": 4026,
      "ĠlÃ¹i": 4027,
      "ĠOn": 4028,
      "ĠCup": 4029,
      "Chi": 4030,
      "Bá»ĩnh": 4031,
      "ĠtrÃ¢n": 4032,
      "ĠngÆ°ng": 4033,
      "ĠGalaxy": 4034,
      "ĠsÆ°ng": 4035,
      "ĠHÄĲ": 4036,
      "ĠTÃº": 4037,
      "ĠÄĲi": 4038,
      "Ġdiá»ĩu": 4039,
      "Ãį": 4040,
      "alia": 4041,
      "âĢ¢": 4042,
      "ĠCanada": 4043,
      "má»Ļt": 4044,
      "Ġsim": 4045,
      "ĠHÃ¡n": 4046,
      "ĠmÆ°á»£n": 4047,
      "chÃ": 4048,
      "Ńi": 4049,
      "ĠKiáº¿n": 4050,
      "ĠnhÃ´m": 4051,
      "ĠTháº©m": 4052,
      "obile": 4053,
      "Ġbáº¿n": 4054,
      "ĠTÆ°á»Ľng": 4055,
      "Háº¯n": 4056,
      "66": 4057,
      "ĠKiá»ĥm": 4058,
      "iew": 4059,
      "ĠÄĲá»Ļi": 4060,
      "ĠMi": 4061,
      "www": 4062,
      "Ġrá»¥ng": 4063,
      "ĠtráºŃt": 4064,
      "ĠTÄ©nh": 4065,
      "NhÃ¬n": 4066,
      "ĠDÆ°á»Ľi": 4067,
      "ĠEd": 4068,
      "ĠXÃ¢y": 4069,
      "Ġkáº½": 4070,
      "Ġlá»ģ": 4071,
      "Ġbá»ĵn": 4072,
      "ĠlÃµi": 4073,
      "cho": 4074,
      "Ġlá»£n": 4075,
      "Ġá»Ľt": 4076,
      "Ġcá»Łi": 4077,
      "ĠTim": 4078,
      "ĠLÃ£o": 4079,
      "att": 4080,
      "ĠvuÃ´ng": 4081,
      "ĠÄĲáº·ng": 4082,
      "uchia": 4083,
      "Ġláº·p": 4084,
      "Ã½t": 4085,
      "Ġtáº¡": 4086,
      "ĠgÃ¬n": 4087,
      "Ġsen": 4088,
      "Ġnhan": 4089,
      "ĠtrÆ¡n": 4090,
      "Ġqui": 4091,
      "oth": 4092,
      "ĠbÃ¹ng": 4093,
      "ĠBÃ¢y": 4094,
      "ĠTrá»ĭnh": 4095,
      "Ġit": 4096,
      "ish": 4097,
      "ĠHáº¡nh": 4098,
      "ĠNÃ´ng": 4099,
      "):": 4100,
      "ĠCháº¥t": 4101,
      "Ġá»ĵn": 4102,
      "Ġoxy": 4103,
      "edia": 4104,
      "ĠphÃ¡o": 4105,
      "ĠChung": 4106,
      "MÃ¡y": 4107,
      "Cuá»Ļc": 4108,
      "ones": 4109,
      "Ġchiáº¿t": 4110,
      "ĠxÄĥm": 4111,
      "ĠLÃło": 4112,
      "Ġliá»ħu": 4113,
      "ĠngÆ°": 4114,
      "aser": 4115,
      "ĠGiáº¥y": 4116,
      "ChÆ°Æ¡ng": 4117,
      "ĠThÃºy": 4118,
      "37": 4119,
      "Ġam": 4120,
      "Ġxay": 4121,
      "ĠláºŃt": 4122,
      "Ġlá»©a": 4123,
      "Ġbá»ıng": 4124,
      "ĠQU": 4125,
      "ĠkhoÄĥn": 4126,
      "Ġcháº±m": 4127,
      "ĠgiÃ¡n": 4128,
      "ike": 4129,
      "ĠThÃ¡ng": 4130,
      "Ġhao": 4131,
      "ÄĲá»ĭa": 4132,
      "ĠYÃªu": 4133,
      "NN": 4134,
      "ico": 4135,
      "ĠdáºŃp": 4136,
      "ĠÄĳan": 4137,
      "ĠlÆ°á»Ľt": 4138,
      "ĠVá»¥": 4139,
      "ĠtÃª": 4140,
      "Ġsan": 4141,
      "ĠChÃºc": 4142,
      "Ġte": 4143,
      "Ġven": 4144,
      "land": 4145,
      "Ġxáº¿": 4146,
      "Tiá»ĥu": 4147,
      "Ġtop": 4148,
      "ĠEl": 4149,
      "ĠCá»ĳ": 4150,
      "Ġngá»Ļt": 4151,
      "ĠbÄĥn": 4152,
      "ĠDoanh": 4153,
      "ĠmÃ¢u": 4154,
      "ĠÄĳá»¥ng": 4155,
      "ĠTÃŃnh": 4156,
      "-C": 4157,
      "ĠLiá»ħu": 4158,
      "Ġráº¯c": 4159,
      "ĠnÃ´n": 4160,
      "ĠÄĳÃºc": 4161,
      "ĠCáº£m": 4162,
      "ĠVI": 4163,
      ".org": 4164,
      "ĠGiá»Ŀ": 4165,
      "ca": 4166,
      "ĠÄĳáº¯n": 4167,
      "ĠThi": 4168,
      "Ð»": 4169,
      "Ġgiang": 4170,
      "ma": 4171,
      "Ġbáº¥y": 4172,
      "Ġup": 4173,
      "Ġtiá»ĩm": 4174,
      "ĠÄĲÃºng": 4175,
      "ĠsÆ°Æ¡ng": 4176,
      "Ġhoáº¡i": 4177,
      "Ġvuá»ĳt": 4178,
      "ĠHiáº¿n": 4179,
      "Ġruá»Ļng": 4180,
      "Ġnghá»ĭch": 4181,
      "Ġti": 4182,
      "Ġyou": 4183,
      "ĠlÃ©o": 4184,
      "ĠTrinh": 4185,
      "ĠObama": 4186,
      "Ġlung": 4187,
      "ĠngÃ¢y": 4188,
      "ĠcÃµi": 4189,
      "Ġmanh": 4190,
      "Ġgai": 4191,
      "ĠxÃ³t": 4192,
      "ĠniÃªm": 4193,
      "ica": 4194,
      "600": 4195,
      "Ġtá»¥ng": 4196,
      "ĠHáº§u": 4197,
      "ĠCá»Ńu": 4198,
      "ĠXÃ£": 4199,
      "Ġnhá»ĭn": 4200,
      "ĠmuÃ´n": 4201,
      "In": 4202,
      "Ġchuyá»ģn": 4203,
      "ĠhÃ²n": 4204,
      "Ġrá»ĵng": 4205,
      "ague": 4206,
      "ĠKáº¿": 4207,
      "BC": 4208,
      "Ġsá»Ŀ": 4209,
      "Ġaxit": 4210,
      "ĠÄĲá»ĵ": 4211,
      "ĠParis": 4212,
      "rid": 4213,
      "Ġlink": 4214,
      "ivers": 4215,
      "Ġná»į": 4216,
      "ss": 4217,
      "ĠTS": 4218,
      "Ġká»ģ": 4219,
      "75": 4220,
      "Ġen": 4221,
      "ĠKitÃ´": 4222,
      "Ġ=": 4223,
      "ĠthÃ¬a": 4224,
      "ali": 4225,
      "ideo": 4226,
      "ĠÄĳá»©t": 4227,
      "HÃł": 4228,
      "ĠÄĲá»Ļng": 4229,
      "ĠJohn": 4230,
      "Ġphe": 4231,
      "lex": 4232,
      "Ġnhá»¥c": 4233,
      "ris": 4234,
      "34": 4235,
      "Ġnhá»Ł": 4236,
      "Ġngá»¥": 4237,
      "%.": 4238,
      "ake": 4239,
      "ĠNhu": 4240,
      "LÃ½": 4241,
      "vÃł": 4242,
      "ram": 4243,
      "ĠrÃ¨m": 4244,
      "Ġkhiáº¿u": 4245,
      "ĠcÃłnh": 4246,
      "ĠgÃµ": 4247,
      "ĠQuyáº¿t": 4248,
      "GB": 4249,
      "á¸": 4250,
      "ĠCP": 4251,
      "³m": 4252,
      "Pháº§n": 4253,
      "ote": 4254,
      "Ġliáº¿c": 4255,
      "Ġser": 4256,
      "po": 4257,
      "Ġdá»Ļi": 4258,
      "Ñģ": 4259,
      "ĠTHPT": 4260,
      "Ġnáº¯p": 4261,
      "ett": 4262,
      "Ġthoa": 4263,
      "¥a": 4264,
      "Ġpháº¿": 4265,
      "ĠBÃ¡": 4266,
      "âĢĻs": 4267,
      "agen": 4268,
      "ĠCampuchia": 4269,
      "ner": 4270,
      "Ġxá»ī": 4271,
      "la": 4272,
      "á»©": 4273,
      "ĠÄĳáº·n": 4274,
      "Ġmáº¯m": 4275,
      "Ġchuá»ĳi": 4276,
      "da": 4277,
      "ĠIS": 4278,
      "nÄĥm": 4279,
      "ĠláºŃu": 4280,
      "Ġlaptop": 4281,
      "IM": 4282,
      "Ġquáº¡t": 4283,
      "ID": 4284,
      "Æ¯u": 4285,
      ".T": 4286,
      "ĠLá»Ŀi": 4287,
      "ĠWorld": 4288,
      "ãģ": 4289,
      "Ġvá»Ł": 4290,
      "Ġcá»§ng": 4291,
      "Ãºy": 4292,
      "ĠBang": 4293,
      "ĠTráº»": 4294,
      "Ġdá»ĳc": 4295,
      "ert": 4296,
      "act": 4297,
      "na": 4298,
      "Ġdá»ĵn": 4299,
      "int": 4300,
      "ĠCháº¯c": 4301,
      "ĠLoáº¡i": 4302,
      "ÃĮ": 4303,
      "LiÃªn": 4304,
      "ĠSc": 4305,
      "ThÃłnh": 4306,
      "Ãĵ": 4307,
      "ĠMáº¡c": 4308,
      "ĠhÃ¡i": 4309,
      "ĠÃło": 4310,
      "ave": 4311,
      "Dá»±": 4312,
      "Ġná»©t": 4313,
      "ĠÄĲÃ´i": 4314,
      "Ġkhoan": 4315,
      "ĠTá»īnh": 4316,
      "Ġkhuáº¥t": 4317,
      "ĠThá»ķ": 4318,
      "ire": 4319,
      "ĠchuÃ´ng": 4320,
      "ĠhÃŃt": 4321,
      "Ġtriáº¿t": 4322,
      "Ġcháº©n": 4323,
      "Nhá»": 4324,
      "Ġnguyá»ĩt": 4325,
      "Ġcai": 4326,
      "phÃ": 4327,
      "ĠLáº§n": 4328,
      "Tin": 4329,
      "Ġmá»Ļc": 4330,
      "ĠKháº£i": 4331,
      "ĠLá»ĩ": 4332,
      "ĠChÃ¡nh": 4333,
      "Ġ)": 4334,
      "ĠchÃ¡o": 4335,
      "ĠÄĳáº¯ng": 4336,
      "Ġgam": 4337,
      "Ġmáº·n": 4338,
      "Ð¸": 4339,
      "ĠsÃºt": 4340,
      "Ġdáº¡i": 4341,
      "Ġlá»įt": 4342,
      "ĠTháº¡ch": 4343,
      "ĠThá»ĥ": 4344,
      "ĠCLB": 4345,
      "ek": 4346,
      "ĠNgÆ°Æ¡i": 4347,
      "TÃ¬nh": 4348,
      "á»±u": 4349,
      "Nam": 4350,
      "Ġcáº¡n": 4351,
      "ata": 4352,
      "Ġmassage": 4353,
      "ĠMac": 4354,
      "Kho": 4355,
      "Ġprotein": 4356,
      "ĠThá»į": 4357,
      "iu": 4358,
      "Ńng": 4359,
      "Ġrá»ī": 4360,
      "áº¿m": 4361,
      "PhÆ°Æ¡ng": 4362,
      "Ġdai": 4363,
      "trong": 4364,
      "TP": 4365,
      "ĠYork": 4366,
      "Ġdá»Ł": 4367,
      "Ġlá»Ļc": 4368,
      "pe": 4369,
      "Ġnang": 4370,
      "Ġthat": 4371,
      "ĠTrÃł": 4372,
      "800": 4373,
      "ĠLao": 4374,
      "Ġyáº¿n": 4375,
      "ota": 4376,
      "ĠdÆ°a": 4377,
      "ÄĲÃºng": 4378,
      "190": 4379,
      "ĠvÃ³c": 4380,
      "-x": 4381,
      "Ġthá»ĭnh": 4382,
      "ium": 4383,
      "Ġváº¡ch": 4384,
      "ĠThÃŃch": 4385,
      "ĠLang": 4386,
      "ĠdÅ©ng": 4387,
      "ĠPC": 4388,
      "ĠxÆ°ng": 4389,
      "ĠMicro": 4390,
      "ĠKiáº¿m": 4391,
      "mp": 4392,
      "ĠThÄĥng": 4393,
      "Viá»ĩt": 4394,
      "Ġná»ĳt": 4395,
      "ĠÃģnh": 4396,
      "Cuá»ĳi": 4397,
      "Lá»Ŀi": 4398,
      "ER": 4399,
      "ĠtÃ²": 4400,
      "ĠÄĳá»ĳng": 4401,
      "ĠxÃ¡": 4402,
      "Ġchá»įc": 4403,
      "Ġbuá»ĵng": 4404,
      "Ġváº·t": 4405,
      "Ġme": 4406,
      "Ġkiá»ĩt": 4407,
      "ĠÄĳáº¡m": 4408,
      "?\"": 4409,
      "TM": 4410,
      "ĠbÃłng": 4411,
      "âĢ¦âĢĿĊ": 4412,
      "39": 4413,
      "ĠTÃ´ng": 4414,
      "ĠIt": 4415,
      "ĠlÆ°á»Ŀng": 4416,
      "Ġluá»ĵng": 4417,
      "áºłI": 4418,
      "sen": 4419,
      "Ġnuá»ĳt": 4420,
      "IC": 4421,
      "MÃ¬nh": 4422,
      "Ġgáº¡t": 4423,
      "ÄĲáº§u": 4424,
      "ĠTHá»": 4425,
      "Thanh": 4426,
      "ĠDe": 4427,
      "ĠShi": 4428,
      "ĠthiÃªng": 4429,
      "Ġshop": 4430,
      "Máº¹": 4431,
      "ĠÄĳun": 4432,
      "Ġláº¥n": 4433,
      "ĠNghiÃªn": 4434,
      "ĠBÆ°á»Ľc": 4435,
      "ivi": 4436,
      "AS": 4437,
      "Ġvisa": 4438,
      "Ġnan": 4439,
      "AR": 4440,
      "ĠFl": 4441,
      "..Ċ": 4442,
      "ĠTÆ°á»Ŀng": 4443,
      "==": 4444,
      "An": 4445,
      "ĠhÃ©t": 4446,
      "65": 4447,
      "CÆ¡": 4448,
      "ĠtÃł": 4449,
      "ĠÄĲan": 4450,
      "Phá»": 4451,
      "ĠÄĲiá»ĥm": 4452,
      "Ġáº¥p": 4453,
      "Ġbá»±c": 4454,
      "ĠNghe": 4455,
      "ĠThÃªm": 4456,
      "Ġchá»ĳn": 4457,
      "ĠHÆ°á»Ľng": 4458,
      "Ġwith": 4459,
      "ĠluÃ¢n": 4460,
      "ps": 4461,
      "press": 4462,
      "ĠPhÃłm": 4463,
      "Ġcáº¯p": 4464,
      "Nguyá»ħn": 4465,
      "ĠdÃ¬": 4466,
      "soft": 4467,
      "ĠTrÃ¡i": 4468,
      "ĠRes": 4469,
      "ĠLáºŃp": 4470,
      "ĠÄĳÃ¹i": 4471,
      "ĠcÃ´n": 4472,
      "ĠngÃµ": 4473,
      "ĠHiá»ĩu": 4474,
      "ĠHiá»ĥu": 4475,
      "Lu": 4476,
      "ĠXe": 4477,
      "ĠvÆ°á»Ľng": 4478,
      "Ġpháº³ng": 4479,
      "ĠmÃ£nh": 4480,
      "64": 4481,
      "Ġstr": 4482,
      "Ġkhá»ĳng": 4483,
      "Ġgáº¯t": 4484,
      "ĠxÃ¡m": 4485,
      "Ġngá»ĳc": 4486,
      "ĠgÃ¡c": 4487,
      "ÃĿ": 4488,
      "ĠkhÃ©p": 4489,
      "Ġsá»¥p": 4490,
      "Ġkhoáº£nh": 4491,
      "ĠxÃŃch": 4492,
      "ĠhÆ°u": 4493,
      "ĠCal": 4494,
      "ĠbÃ¡ch": 4495,
      "ĠÂ«": 4496,
      "Ġmá»ı": 4497,
      "Ġtháº£n": 4498,
      "ĠNá»": 4499,
      "TrÆ°á»Ŀng": 4500,
      "ĠQuáº£": 4501,
      "ĠmÃºa": 4502,
      "ĠTuyÃªn": 4503,
      "Ġsáº¡c": 4504,
      "rist": 4505,
      "ĠBao": 4506,
      "Ġká»ī": 4507,
      "Ná»Ļi": 4508,
      "ĠBÄĥng": 4509,
      "ĠlÃª": 4510,
      "Ġtre": 4511,
      "omes": 4512,
      "BS": 4513,
      "Ġby": 4514,
      "ÄĲá»«ng": 4515,
      "Sáº£n": 4516,
      "Ġdáº·n": 4517,
      "ĠchiÃªn": 4518,
      "Ġhe": 4519,
      "Ġclick": 4520,
      "120": 4521,
      "Ġnhang": 4522,
      "Ġlá»į": 4523,
      "¨ng": 4524,
      "Ġtá»ıi": 4525,
      "ĠÄĲá»ģ": 4526,
      "ase": 4527,
      "Ġsofa": 4528,
      "Hoa": 4529,
      "NÃłng": 4530,
      "ĠÃ¢u": 4531,
      "Ġchá»Ľp": 4532,
      "ĠMon": 4533,
      "ĠgÃ£y": 4534,
      "ustr": 4535,
      "Ãļ": 4536,
      "TH": 4537,
      "ĠTe": 4538,
      "ĠÆ°ng": 4539,
      "TÃ¡c": 4540,
      "ĠlÃŃt": 4541,
      "Dá»ĭch": 4542,
      "US": 4543,
      "ÄĲÃ£": 4544,
      "________": 4545,
      "ĠBÄĲ": 4546,
      "Ġkhiáº¿p": 4547,
      ");": 4548,
      "mar": 4549,
      "ĠÄĲÃ´": 4550,
      "Ġbo": 4551,
      "ĠDr": 4552,
      "Ġinch": 4553,
      "Ġmod": 4554,
      "Ìģnh": 4555,
      "Sá»ĳ": 4556,
      "Ġbáº¿": 4557,
      "ger": 4558,
      "Ġas": 4559,
      "we": 4560,
      "bo": 4561,
      "NhÃ¢n": 4562,
      "let": 4563,
      "ĠÄĲÆ¡n": 4564,
      "ĠnÃ´": 4565,
      "ĠVáº¥n": 4566,
      "Tham": 4567,
      "Ġeo": 4568,
      "ana": 4569,
      "ĠdÃ£y": 4570,
      "Nghe": 4571,
      "ĠlÆ¡": 4572,
      "ES": 4573,
      "ĠlÃ¡nh": 4574,
      "ĠtrÃ¡n": 4575,
      "ĠPV": 4576,
      "IV": 4577,
      ".net": 4578,
      "ĠAng": 4579,
      "ĠkhÆ¡i": 4580,
      "ĠQuyá»ģn": 4581,
      "ĠkiÃªng": 4582,
      "48": 4583,
      "Ġkhinh": 4584,
      "irst": 4585,
      "ĠTÃ¡c": 4586,
      "Ġsuá»ĳi": 4587,
      "Ġcuá»Ļn": 4588,
      "ĠHO": 4589,
      "Qua": 4590,
      "Há»į": 4591,
      "ĠtÃ³m": 4592,
      "Ġnháº·t": 4593,
      "Ġtour": 4594,
      "ĠSai": 4595,
      "ĠÂ»": 4596,
      "ĠTp": 4597,
      "how": 4598,
      "Tiáº¿p": 4599,
      "bum": 4600,
      "Ġchay": 4601,
      "onda": 4602,
      "ae": 4603,
      "090": 4604,
      "ĠMá»Ľi": 4605,
      "ĠCÄĥn": 4606,
      "Ãºm": 4607,
      "Ġphanh": 4608,
      "Ġao": 4609,
      "Ġá»§i": 4610,
      "ĠBÃŃch": 4611,
      "erry": 4612,
      "The": 4613,
      "ngÃły": 4614,
      "Ġcá»į": 4615,
      "ĠBá»ĳ": 4616,
      "ĠtrÃ¹m": 4617,
      "Ġá¸": 4618,
      "Ġngá»±": 4619,
      "Ġad": 4620,
      "HÆ°á»Ľng": 4621,
      "DÆ°á»Ľi": 4622,
      "ĠViÃªm": 4623,
      "ChÃºc": 4624,
      "ĠÄĤ": 4625,
      "ĠÄĳá»įng": 4626,
      "Ġcar": 4627,
      "Ġoan": 4628,
      "ĠÄĳÃ²n": 4629,
      "oto": 4630,
      "kho": 4631,
      "rain": 4632,
      "250": 4633,
      "bank": 4634,
      "á»£": 4635,
      "Ġdá»Ĺ": 4636,
      "Ġkiá»ģm": 4637,
      "ĠThiá»ĩn": 4638,
      "EC": 4639,
      "ĠchiÃªm": 4640,
      "ĠPhá»§": 4641,
      "ĠÄĳao": 4642,
      "Ġxá»ĭ": 4643,
      "ĠOr": 4644,
      "ĠThá»ĭnh": 4645,
      "ĠphÃ¬": 4646,
      "ley": 4647,
      "NgÆ°Æ¡i": 4648,
      "ĠchÃ©m": 4649,
      "ĠÄĳiá»ģn": 4650,
      "Ġráº¡ng": 4651,
      "ome": 4652,
      "cel": 4653,
      "ĠSun": 4654,
      "ĠNháº¡c": 4655,
      "ĠChuyá»ĩn": 4656,
      "ĠAb": 4657,
      "ign": 4658,
      "HÆ¡n": 4659,
      "ĠHáº¡o": 4660,
      "http": 4661,
      "ĠSEO": 4662,
      "Ġhá»¥t": 4663,
      "ĠDanh": 4664,
      "Ġá»ĳm": 4665,
      "ashing": 4666,
      "Ai": 4667,
      "áº©ng": 4668,
      "ĠtÃ¹ng": 4669,
      "PhÃ¡t": 4670,
      "Iáº¾": 4671,
      "ĠvÃ£": 4672,
      "eth": 4673,
      "ĠMay": 4674,
      "ics": 4675,
      "CáºŃu": 4676,
      "ĠNhÆ°á»£c": 4677,
      "ĠTá»ĳng": 4678,
      "ĠTÃ¹y": 4679,
      "ĠrÃ¢u": 4680,
      "Ġtrá»ħ": 4681,
      "ĭt": 4682,
      "ime": 4683,
      "Ġdáº·m": 4684,
      "ĠNai": 4685,
      "Máº·t": 4686,
      "Ġbáº©m": 4687,
      "Ġrá»ĩt": 4688,
      "TN": 4689,
      "ero": 4690,
      "ĠKhang": 4691,
      "ĠTÆ°Æ¡ng": 4692,
      "ĠÄĳÃ¨": 4693,
      "Ġle": 4694,
      "ĠTÃŃn": 4695,
      "ĠSÃ¡ng": 4696,
      "Ġbá»«ng": 4697,
      "SÃ¡ng": 4698,
      "ĠSÃ¡u": 4699,
      "ĠnhÃ¡y": 4700,
      "ÑĢ": 4701,
      "Ġtrinh": 4702,
      "ĠBÃ©": 4703,
      "-Äĳ": 4704,
      "ĠchÃ¬a": 4705,
      "ĠsÃ¢m": 4706,
      "ĠBÃ¡ch": 4707,
      "atch": 4708,
      "Ã¹n": 4709,
      "ĠKhanh": 4710,
      ",âĢ¦Ċ": 4711,
      "gon": 4712,
      "ĠtÆ°á»Ľc": 4713,
      "Ġbong": 4714,
      "ins": 4715,
      "Ġtui": 4716,
      "PhÃ²ng": 4717,
      "ashington": 4718,
      "Ġdá»ĵi": 4719,
      "ĠFr": 4720,
      "Ġchá»ĳc": 4721,
      "GS": 4722,
      "Ġre": 4723,
      "ĠCÃºc": 4724,
      "ĠhÆ°ng": 4725,
      "Ġlogo": 4726,
      "Ġrá»ħ": 4727,
      "aph": 4728,
      "Ġháº¯c": 4729,
      "Ġbá»įt": 4730,
      "ĠÄĲT": 4731,
      "HoÃłng": 4732,
      "ĠTáº¡o": 4733,
      "ĠDiá»ĩu": 4734,
      "ÄĲiá»ĥm": 4735,
      "ĠEn": 4736,
      "ĠchÃªnh": 4737,
      "Ġráº½": 4738,
      ".H": 4739,
      "Ġxen": 4740,
      "Ġbá»ī": 4741,
      "ĠDáº§u": 4742,
      "ĠNhÄ©": 4743,
      "Ba": 4744,
      "44": 4745,
      "Ġsh": 4746,
      "!\"Ċ": 4747,
      "Sá»Ń": 4748,
      "do": 4749,
      "Ġlen": 4750,
      "Ġres": 4751,
      "ya": 4752,
      "Ġlá»Ļt": 4753,
      "ĠMuá»ĳn": 4754,
      "ON": 4755,
      "ÄĲi": 4756,
      "Ġcm": 4757,
      "ube": 4758,
      "ions": 4759,
      "wnload": 4760,
      "ym": 4761,
      "ĠrÃ¡o": 4762,
      "ĠTrÃºc": 4763,
      "Ġkg": 4764,
      "á»Ĺng": 4765,
      "ĠchÃ´n": 4766,
      "PS": 4767,
      "-L": 4768,
      "95": 4769,
      "va": 4770,
      "eu": 4771,
      "ĠChÆ°a": 4772,
      "ĠCáº©m": 4773,
      "ĠAF": 4774,
      "ĠlÃ¢n": 4775,
      "BÃ¡c": 4776,
      "á»«ng": 4777,
      "ĠÄĲiá»ģn": 4778,
      "âĢ¦âĢĿ": 4779,
      "ĠHi": 4780,
      "700": 4781,
      "ĠnhÆ°á»Ŀng": 4782,
      "ĠquÃ£ng": 4783,
      "ale": 4784,
      "lu": 4785,
      "Ġngáº©ng": 4786,
      "ĠNo": 4787,
      "onesia": 4788,
      "ĠNgÅ©": 4789,
      "ÄĲÆ°á»Ŀng": 4790,
      "Ġvá»ĭt": 4791,
      "Ġká»µ": 4792,
      "ĠTá»©": 4793,
      "ĠBer": 4794,
      "ĠTham": 4795,
      "ĠÄĳáº¯m": 4796,
      "Ġve": 4797,
      "Ġxi": 4798,
      "ĠrÃł": 4799,
      "ĠrÃ¡ch": 4800,
      ".|Ċ": 4801,
      "TÃ¬m": 4802,
      "Ġmarketing": 4803,
      "ĠxÃ´i": 4804,
      "ĠKiÃªn": 4805,
      "Ġgá»«ng": 4806,
      "ĠKháº£": 4807,
      ":âĢĿ": 4808,
      "ĠVá»«a": 4809,
      "77": 4810,
      "tÃ´": 4811,
      "ĠMad": 4812,
      "Ġuá»ĳn": 4813,
      "ĠPlus": 4814,
      "ĠTÃªn": 4815,
      "ĠngÃ´": 4816,
      "ann": 4817,
      "ChÃło": 4818,
      "ĠmÄĥng": 4819,
      "68": 4820,
      "ĠMÃ´n": 4821,
      "IS": 4822,
      "ĠxÃło": 4823,
      "ĠTÃ¬m": 4824,
      "iel": 4825,
      "ta": 4826,
      "Ġnháº¥p": 4827,
      "Ġtá»ĵi": 4828,
      "ĠChiáº¿c": 4829,
      "ĠbÃ£": 4830,
      "ĠÄĳinh": 4831,
      "ĠmÆ°á»£t": 4832,
      "ree": 4833,
      "ĠsÆ°á»Ŀn": 4834,
      "ĠWashington": 4835,
      "ĩn": 4836,
      "-S": 4837,
      "Ġkhao": 4838,
      "Ġmáº¯ng": 4839,
      "ĠNÆ¡i": 4840,
      "ĠLáº¡i": 4841,
      "ĠtÃºng": 4842,
      "Ġghen": 4843,
      "Ġex": 4844,
      "Ġor": 4845,
      "ĠDiá»ħn": 4846,
      "%.Ċ": 4847,
      "Ãºn": 4848,
      "-M": 4849,
      "Ġchá»Ľ": 4850,
      "ĠBÃłn": 4851,
      "LÃ¢m": 4852,
      "ĠmÃłi": 4853,
      "ters": 4854,
      "ĠTháº¥t": 4855,
      "Ġkhoang": 4856,
      "ĠÃĤn": 4857,
      "*Ċ": 4858,
      "ba": 4859,
      "Ð½": 4860,
      "Ġcá»Ľ": 4861,
      "Báº£n": 4862,
      "ĠMicrosoft": 4863,
      "ane": 4864,
      "Thá»§": 4865,
      "Ġviá»ģn": 4866,
      "mi": 4867,
      "ĠbÃ³c": 4868,
      "ĠhÄĥng": 4869,
      "Ġbá»Ļc": 4870,
      "Pad": 4871,
      "ĠÄĲáº¡t": 4872,
      "ĠcÃ³c": 4873,
      "ĠBÄĲS": 4874,
      "Há»ĩ": 4875,
      "ĠAP": 4876,
      "Báº¥t": 4877,
      "ĠtrÃ¢u": 4878,
      "ĠMas": 4879,
      "ames": 4880,
      "Ġcafe": 4881,
      "thÃ": 4882,
      "pt": 4883,
      "ĠhoÃłnh": 4884,
      "ĠÄĤn": 4885,
      "Ġtem": 4886,
      "aul": 4887,
      "ĠDa": 4888,
      "Khu": 4889,
      "AC": 4890,
      "Bá»Łi": 4891,
      "NÆ°á»Ľc": 4892,
      "Ngh": 4893,
      "ĠTO": 4894,
      "náº¿u": 4895,
      "Ġkeo": 4896,
      "Ġchá»Ńi": 4897,
      "ance": 4898,
      "ura": 4899,
      "Cáº£m": 4900,
      "Ġthon": 4901,
      "ki": 4902,
      "Ġngáº¯t": 4903,
      "uyen": 4904,
      "ĠVÃĢ": 4905,
      "ĠHiáº¿u": 4906,
      "ĠÄĲáº¥ng": 4907,
      "ola": 4908,
      "eck": 4909,
      "sá»Ńa": 4910,
      "Ġnáº¡i": 4911,
      "Ġdáº»o": 4912,
      "Ġsá»ĳc": 4913,
      "Ráº¥t": 4914,
      "ĠLáº¡p": 4915,
      "ĠRob": 4916,
      "ĠLá»ĭch": 4917,
      "ĠVÃłng": 4918,
      "ĠcháºŃt": 4919,
      "ĠPal": 4920,
      "âĢľTÃ´i": 4921,
      "ĠMo": 4922,
      "Ġtrá»į": 4923,
      "ĠIndonesia": 4924,
      "Ġxao": 4925,
      "ĠChá»įn": 4926,
      "-B": 4927,
      "ĠÄĳáº¡c": 4928,
      "Ġvoi": 4929,
      "á»Ĳ": 4930,
      "ĠKá»¹": 4931,
      "ĠLeague": 4932,
      "les": 4933,
      "Ġngáº¥t": 4934,
      "Cáº£": 4935,
      "Ġgá»Łi": 4936,
      "Ġnghiá»ĩn": 4937,
      "ĠTho": 4938,
      "ĠSte": 4939,
      "Ġcont": 4940,
      "Ġngá»¥c": 4941,
      "Ľc": 4942,
      "ĠViá»ħn": 4943,
      "Ġlá»¥a": 4944,
      "ona": 4945,
      "Ġláº§u": 4946,
      "ĠCÃ¢y": 4947,
      "Ġrá»ĥ": 4948,
      "Ġmuá»Ĺng": 4949,
      "ĠVinhomes": 4950,
      "Chu": 4951,
      "ĠnÃ¡ch": 4952,
      "Thu": 4953,
      "Ġhttps": 4954,
      "Ġnhá»įn": 4955,
      "ence": 4956,
      "ock": 4957,
      "Má»¥c": 4958,
      "Ġdáº¹p": 4959,
      "ĠLuÃ¢n": 4960,
      "ĠxÃ©": 4961,
      "ĠRiÃªng": 4962,
      "lock": 4963,
      "LÄĲ": 4964,
      "Ġváº¯t": 4965,
      "Ġngáº§n": 4966,
      "anc": 4967,
      "Ġtáº£n": 4968,
      "Ġthun": 4969,
      "Æ¯Æł": 4970,
      "ĠÄĳá»¥c": 4971,
      "Ġbá»ĵ": 4972,
      "ĠNhÃ£": 4973,
      "unt": 4974,
      "ĠkhoÃ¡": 4975,
      "Ġthiáº¿p": 4976,
      "ĠViettel": 4977,
      "KhÃ": 4978,
      "KhÃ¡ch": 4979,
      "īa": 4980,
      "erm": 4981,
      "Ġtaxi": 4982,
      "ĠXÃ´": 4983,
      "ĠMáº«u": 4984,
      "Ġcáº±m": 4985,
      "ĠÄĲá»Ļc": 4986,
      "ĠÄĳoan": 4987,
      "ÃĤN": 4988,
      "ĠNa": 4989,
      "ĠEU": 4990,
      "ĠReal": 4991,
      "-n": 4992,
      "193": 4993,
      "ĠÃģo": 4994,
      "ĠPet": 4995,
      "ĠBáº¿n": 4996,
      "INH": 4997,
      "Ġsáº¥y": 4998,
      "Ãµm": 4999,
      "Ġcanxi": 5000,
      "IA": 5001,
      "erc": 5002,
      "ifi": 5003,
      "áº¤T": 5004,
      "ĠÄĳu": 5005,
      "Ġkáº¹t": 5006,
      "ĠMÃ¹a": 5007,
      "ĠIran": 5008,
      "ĠmÃło": 5009,
      "ĠHá»Ĺ": 5010,
      "ĠÄĳÃŃnh": 5011,
      "ĠVáºŃn": 5012,
      "ĠvÃ²": 5013,
      "Ġtráº¯c": 5014,
      "á»ģ": 5015,
      "Má»Ľi": 5016,
      "Ġniá»ĩu": 5017,
      "Ġnot": 5018,
      "Ġgáº§y": 5019,
      "Ġxáº¯n": 5020,
      "ĠVy": 5021,
      "Ġhiáº¿p": 5022,
      "Ġkhiáº¿t": 5023,
      "ĠRo": 5024,
      "ĠHÃłm": 5025,
      "Ġdáº£i": 5026,
      "Ãªnh": 5027,
      "ĠTáº¿": 5028,
      "ThÃ¡ng": 5029,
      "que": 5030,
      "ĠxÃŃ": 5031,
      "port": 5032,
      "ĠkhÃŃa": 5033,
      "ĠMich": 5034,
      "ĠHot": 5035,
      "Vá»«a": 5036,
      "Há»įc": 5037,
      "ĠÄĲiá»ĩp": 5038,
      "agon": 5039,
      "ĠtÄĥm": 5040,
      "ĠdÆ°ng": 5041,
      "istan": 5042,
      ",...": 5043,
      "Ġtá»ĭnh": 5044,
      "49": 5045,
      "ĠCÃł": 5046,
      "reen": 5047,
      "Æ¯ÆłNG": 5048,
      "á»§a": 5049,
      "che": 5050,
      "ĠGame": 5051,
      "Ġsá»ıi": 5052,
      "coin": 5053,
      "Sá»Ł": 5054,
      "ĠkhiÃªm": 5055,
      "Ġluá»Ļc": 5056,
      "ĠAustr": 5057,
      "ĠthÃ¡m": 5058,
      "áº¬T": 5059,
      "-T": 5060,
      "ĠxuÃ´i": 5061,
      "ĠToy": 5062,
      "ĠsÃºc": 5063,
      "ĠNgÃ´n": 5064,
      "kin": 5065,
      "ĠSony": 5066,
      "tre": 5067,
      "Ġpr": 5068,
      ".l": 5069,
      "ĠxÃ´": 5070,
      "Ġkhá»Ń": 5071,
      "¹a": 5072,
      "ĠMá»Ļ": 5073,
      "ĠUk": 5074,
      "ĠlÃ¬": 5075,
      "Ġtru": 5076,
      "Tráº§n": 5077,
      "NÃ³": 5078,
      "ĠtÆ¡": 5079,
      "ĠhÃ´ng": 5080,
      "ĠThá»«a": 5081,
      "ĠgiÆ¡": 5082,
      "ĠvÃ²i": 5083,
      "ĠbÃ¨n": 5084,
      "Chiáº¿c": 5085,
      "ĠHá»ıa": 5086,
      "ney": 5087,
      "ĠMua": 5088,
      "ĠCr": 5089,
      "low": 5090,
      "ka": 5091,
      "ĠÄĳáº¿m": 5092,
      "ĠkiÃªu": 5093,
      "ĠHonda": 5094,
      "ĠGS": 5095,
      "ĠGiÃ¡p": 5096,
      "85": 5097,
      "Ġváº·n": 5098,
      "Trang": 5099,
      "ings": 5100,
      "ĠOnline": 5101,
      "GT": 5102,
      "Vá»ĭ": 5103,
      "ĠBÃ¡t": 5104,
      "ĠlÅ©y": 5105,
      "Ġacid": 5106,
      "47": 5107,
      "nhÆ°": 5108,
      "900": 5109,
      "ĠxÃ¬": 5110,
      "ĠHong": 5111,
      "olf": 5112,
      "Ġkáº¹o": 5113,
      "Ġcháº£i": 5114,
      "ĠKhai": 5115,
      "Ġgay": 5116,
      "ĠHÃĢ": 5117,
      "ĠchÃł": 5118,
      "ĠThÃ¬": 5119,
      "ĠTáº¡": 5120,
      "ĠnÃ£y": 5121,
      "ĠnÃłn": 5122,
      "Ġhá»ĳ": 5123,
      "him": 5124,
      "Giáº£i": 5125,
      "Ġngáº«u": 5126,
      "ĠchÆ°": 5127,
      "Ġnhá»Ŀn": 5128,
      "Ġá»§": 5129,
      "âĢľKhÃ´ng": 5130,
      "ĠTop": 5131,
      "ĠbÃ¡u": 5132,
      "Ġláº·n": 5133,
      "Gia": 5134,
      "Ġtivi": 5135,
      "ĠNháºŃn": 5136,
      "/.Ċ": 5137,
      "ĠÄĳiÃªu": 5138,
      "oáº¡n": 5139,
      "Ġlay": 5140,
      "Hot": 5141,
      "Ġgu": 5142,
      "Ġnhuyá»ħn": 5143,
      "ĠTrÃ¬nh": 5144,
      "ĠCÄĲ": 5145,
      "Ġdá»ĩt": 5146,
      "Ġmáº¡": 5147,
      "ĠTrÃ¬": 5148,
      "Ġfirst": 5149,
      "ĠUSB": 5150,
      "ĠThá»©c": 5151,
      "Kinh": 5152,
      "ĠTQ": 5153,
      "ĠBen": 5154,
      "ĠKá»·": 5155,
      "Ġfacebook": 5156,
      "ĠPhim": 5157,
      "Giá»Ľi": 5158,
      "Há»Ļi": 5159,
      "BÃ¡o": 5160,
      "Ġchip": 5161,
      "Æ¡m": 5162,
      "ĠCÆ°Æ¡ng": 5163,
      "CC": 5164,
      "ĠCÃ¡": 5165,
      "ĠBlack": 5166,
      "/m": 5167,
      "ĠInter": 5168,
      "ĠVáº¡n": 5169,
      "Ġchui": 5170,
      "EL": 5171,
      "TÆ°": 5172,
      "ĠBS": 5173,
      "ĠbÃ©n": 5174,
      "cÃ¡c": 5175,
      "Ġmini": 5176,
      "oly": 5177,
      "46": 5178,
      "ĠbÃ¹n": 5179,
      "Ġcá»Ĺ": 5180,
      "ÃģC": 5181,
      "Ð¾Ð": 5182,
      "giá»": 5183,
      "ĠgiÃ²n": 5184,
      "ĠtoÃł": 5185,
      "ĠPhÃ¢n": 5186,
      "ĠUkrain": 5187,
      "ĠHiÃªn": 5188,
      "ler": 5189,
      "Ġviáº¿ng": 5190,
      "ĠsÃ¹i": 5191,
      "ĠDuá»ĩ": 5192,
      "mer": 5193,
      "ĠlÃ¡ng": 5194,
      "ĠrÃ¡p": 5195,
      "ĠKy": 5196,
      "ĠTháº¥y": 5197,
      "/Ċ": 5198,
      "ĠLá»±c": 5199,
      "Å©a": 5200,
      "ĠghÃª": 5201,
      "ĠkhiÃªu": 5202,
      "ĠoÃ¡n": 5203,
      "ower": 5204,
      "Ñĥ": 5205,
      "Ġquá»³": 5206,
      "ife": 5207,
      "ĠLED": 5208,
      "****": 5209,
      "Ġcá»ĵn": 5210,
      "Báº£o": 5211,
      "Láº§n": 5212,
      "Ġbar": 5213,
      "ena": 5214,
      "Ġ...Ċ": 5215,
      "ĠbÆ°á»Łi": 5216,
      "Ġvá»©t": 5217,
      "arao": 5218,
      "Ġnghiá»ĩt": 5219,
      "ela": 5220,
      "ĠCá»Ńa": 5221,
      "Ġnhung": 5222,
      "Ġkhuya": 5223,
      "ĠMiá»ģn": 5224,
      "Má»¹": 5225,
      "ĠvÃ¡n": 5226,
      "arden": 5227,
      "ti": 5228,
      "ĠMc": 5229,
      "âĢĶâĢĶâĢĶâĢĶ": 5230,
      "Ġmá»ĵi": 5231,
      "Ġrá»§": 5232,
      "Ġcháº·ng": 5233,
      "Ġtá»ĭ": 5234,
      "Ġáº§m": 5235,
      "áº¨": 5236,
      "ĠtÃ¡t": 5237,
      "ĠÄĳá»Ľi": 5238,
      "ĠBiáº¿t": 5239,
      "Ġnguá»Ļi": 5240,
      "ĠBo": 5241,
      "ĠThÃ¹": 5242,
      "ĠAustralia": 5243,
      "Ġkiá»ģu": 5244,
      "Ġxáº£o": 5245,
      "ĠThÃ´i": 5246,
      "ĠFran": 5247,
      "Ġgiáº·c": 5248,
      "ĠVÅ©ng": 5249,
      "ĠGiÃ¡ng": 5250,
      "ĠMaria": 5251,
      "Ġthuá»·": 5252,
      "ited": 5253,
      "ize": 5254,
      "ject": 5255,
      "ĠSang": 5256,
      "Ġbá»ĩ": 5257,
      "Ġcáº¥y": 5258,
      "Ġview": 5259,
      "ĠChÃłng": 5260,
      "ĠWe": 5261,
      "Ġ>": 5262,
      "ĠLiá»ĩu": 5263,
      "ĠKhÃ³": 5264,
      "ĠCA": 5265,
      "Chuyá»ĩn": 5266,
      "ĠÄĲáº£o": 5267,
      "ieu": 5268,
      "ĠÄĳuá»ĳi": 5269,
      "ĠHuá»ĩ": 5270,
      "-v": 5271,
      "lÃłm": 5272,
      "ĠkiÃªm": 5273,
      "ĠdÃło": 5274,
      "ĠBáº£y": 5275,
      "ĠâĢ¦Ċ": 5276,
      "Ġráº¡p": 5277,
      "lymp": 5278,
      "ĠIP": 5279,
      "ĠCáºŃp": 5280,
      "by": 5281,
      "Ġli": 5282,
      "Ġyáº¿t": 5283,
      "ari": 5284,
      "ĠvÃłnh": 5285,
      "ĠRa": 5286,
      "Ġgas": 5287,
      "Tráº£": 5288,
      "ĠtÆ°á»Ľi": 5289,
      "Ġnáº¿n": 5290,
      "ĠNguá»ĵn": 5291,
      "ĠgÃłng": 5292,
      "ĠTN": 5293,
      "Ġdá»Ŀi": 5294,
      "ÄĲiá»ĩn": 5295,
      "ĠlÃ©n": 5296,
      "Ġhuyá»ĩt": 5297,
      "Ġtá»¥i": 5298,
      "ĠVá»ĩ": 5299,
      "lÃł": 5300,
      "ĠchÃ³i": 5301,
      "FA": 5302,
      "Cháº¥t": 5303,
      "180": 5304,
      "BÃ¬nh": 5305,
      "Ġque": 5306,
      "ĠDav": 5307,
      "hoáº·c": 5308,
      "ĠMÆ°á»Ŀi": 5309,
      "Rá»ĵi": 5310,
      "Ġtuá»³": 5311,
      "ĠQuÃ¡n": 5312,
      "ÄĲá»©c": 5313,
      "ational": 5314,
      "ªnh": 5315,
      "ĠMÃłu": 5316,
      "ron": 5317,
      "Ġare": 5318,
      "ĠMin": 5319,
      "Ġquáº§y": 5320,
      "Ġkhá»ĳn": 5321,
      "ĠtÃ¡nh": 5322,
      "ĠXuyÃªn": 5323,
      "ĠFPT": 5324,
      "Ġngá»¡": 5325,
      "Ġxá»ĭt": 5326,
      "ĠgÃ²": 5327,
      "ĠToyota": 5328,
      "ĠAM": 5329,
      "ĠQuÃ¡": 5330,
      "gen": 5331,
      "Ġsáº¿p": 5332,
      "ĠquÃŃ": 5333,
      "ĠBu": 5334,
      "Ġnhai": 5335,
      "ĠnhÃŃu": 5336,
      "Ġrao": 5337,
      "hÃ¡ng": 5338,
      "Ġcau": 5339,
      "ĠTy": 5340,
      "ĠVu": 5341,
      "ĠChar": 5342,
      "astname": 5343,
      ".lastname": 5344,
      "ĠNS": 5345,
      "ĠnhÃłn": 5346,
      "ĠCO": 5347,
      "ĠTráº¡ch": 5348,
      "ĠGold": 5349,
      "ĠLÆ°á»£ng": 5350,
      "AY": 5351,
      "Ġthá»ĳt": 5352,
      "ĠCen": 5353,
      "ĠâĢĶ": 5354,
      "ĠOlymp": 5355,
      "Pháº£i": 5356,
      "Ġlá»Ļi": 5357,
      "ano": 5358,
      "hay": 5359,
      "ThiÃªn": 5360,
      "theo": 5361,
      "ĠGroup": 5362,
      "ĠGu": 5363,
      "ĠJe": 5364,
      "Cháº³ng": 5365,
      "ĠÄĲiá»ĥn": 5366,
      "ĠYou": 5367,
      "Cá»¥": 5368,
      "ĠÄĳÃ£ng": 5369,
      "esterol": 5370,
      "Sao": 5371,
      "[sá»Ńa": 5372,
      "ĠVua": 5373,
      "sc": 5374,
      "Ġquáº¥n": 5375,
      "EN": 5376,
      "Ġfl": 5377,
      "araoke": 5378,
      "TÃŃnh": 5379,
      "ĠSeo": 5380,
      "ĠTuá»ķi": 5381,
      "42": 5382,
      "ĠloÃ©t": 5383,
      "ĠHS": 5384,
      "Ġhoáº¡": 5385,
      "Ġsi": 5386,
      "Tu": 5387,
      "Ġquáº¥y": 5388,
      "Ġsc": 5389,
      "ĠJack": 5390,
      "Ġnhá»ķ": 5391,
      "Ġlanh": 5392,
      "ĠLee": 5393,
      "itcoin": 5394,
      "ĠTá»ĳt": 5395,
      "Ġmáº¹o": 5396,
      "ĠRom": 5397,
      "VÄĥn": 5398,
      "ĠThiá»ģn": 5399,
      "ĠChuyÃªn": 5400,
      "sh": 5401,
      "Ġ*": 5402,
      "ĠNhÃ³m": 5403,
      "sp": 5404,
      "ĠrÃ¡t": 5405,
      "tá»«": 5406,
      "UYá»": 5407,
      "ĠlÆ°á»Ŀi": 5408,
      "ĠTá»ĳi": 5409,
      "Ġthá»ģ": 5410,
      "ĠTC": 5411,
      "ement": 5412,
      "ĠgÃ³t": 5413,
      "ĠngÆ¡": 5414,
      "!\"": 5415,
      "ĠngáºŃm": 5416,
      "ĠtrÃªu": 5417,
      "ĠMÃ´i": 5418,
      "Ġat": 5419,
      "ÃĲ": 5420,
      "ĠnhÃŃ": 5421,
      "ĠGiai": 5422,
      "Ġnhá»Ļn": 5423,
      "ĠÄĲÃłm": 5424,
      "ĠIm": 5425,
      "ĠFor": 5426,
      "ĠmiÃªu": 5427,
      "ÃĮNH": 5428,
      "oga": 5429,
      "ĠBay": 5430,
      "Ġngáº©n": 5431,
      "ĠkhÃ³e": 5432,
      "Ġdownload": 5433,
      "Ġun": 5434,
      "Ġnhiáº¿p": 5435,
      "ĠloÃ£ng": 5436,
      "ital": 5437,
      "Thay": 5438,
      "TÃªn": 5439,
      "Ġgá»Ļi": 5440,
      "Ġoff": 5441,
      "DA": 5442,
      "192": 5443,
      "Ġmy": 5444,
      "TA": 5445,
      "rael": 5446,
      "ĠTháºŃp": 5447,
      "Ġ)Ċ": 5448,
      "ĠÄĳáº£": 5449,
      "ĠBro": 5450,
      "ĠVal": 5451,
      "ĠBá»ĭ": 5452,
      "ĠhoÃ£n": 5453,
      "ĠLÃ´i": 5454,
      "Ġmm": 5455,
      "ĠCHá»": 5456,
      "Ġháº¡ch": 5457,
      "ĠmÃ¢m": 5458,
      "ĠMarketing": 5459,
      "Æ¯á»ľ": 5460,
      "ĠXuáº¥t": 5461,
      "QuÃ½": 5462,
      "ĠGen": 5463,
      "NháºŃn": 5464,
      "Ġrong": 5465,
      "OA": 5466,
      "ĠxÆ°á»Ľc": 5467,
      "Ġloan": 5468,
      "/c": 5469,
      "Ġgáº§m": 5470,
      "ĠÄĳÃª": 5471,
      "Ġnghiá»ģn": 5472,
      "ĠPhÃ¹": 5473,
      "Ġnhuá»Ļm": 5474,
      "ct": 5475,
      "Ġnáº£n": 5476,
      "ush": 5477,
      "Du": 5478,
      "ĠMáº¥y": 5479,
      "ĠSam": 5480,
      "ĠsÃ©t": 5481,
      "Ġdang": 5482,
      "Ġtoan": 5483,
      "ĠHoÃł": 5484,
      "sea": 5485,
      "Ġdes": 5486,
      "ĠDonald": 5487,
      "Quy": 5488,
      "Ġlim": 5489,
      "ĠsÆ°á»Łi": 5490,
      "ory": 5491,
      "ĠPhÃ¹ng": 5492,
      "Ná»¯": 5493,
      "Ġrang": 5494,
      "ĠÃºy": 5495,
      "ĠkÃ¨o": 5496,
      "ĠMau": 5497,
      "ĠSiÃªu": 5498,
      "Ġgá»ĳm": 5499,
      "Ġmáº§u": 5500,
      "ĠMe": 5501,
      "gr": 5502,
      "Ġchol": 5503,
      "67": 5504,
      "ĠToÃ¡n": 5505,
      "HÃłng": 5506,
      "ĠhÆ°á»Ľc": 5507,
      "ext": 5508,
      "Ġá»¨ng": 5509,
      "Ġthoáº£": 5510,
      "ĠnÃ¡o": 5511,
      "ĠEuro": 5512,
      "ĠKiá»ĩt": 5513,
      "ĠkÃ©p": 5514,
      "ĠÃ´tÃ´": 5515,
      "Ġngáº¡o": 5516,
      "Ġpháº¥t": 5517,
      "'s": 5518,
      "wit": 5519,
      "ĠÄĳÃłng": 5520,
      "Æ°á»Ŀm": 5521,
      "-r": 5522,
      "Ġlá»Ļng": 5523,
      "raz": 5524,
      "TiÃªu": 5525,
      "ĠTháº¡nh": 5526,
      "Ġxoáº¯n": 5527,
      "MS": 5528,
      "dr": 5529,
      "Æ°Æ¡m": 5530,
      "ode": 5531,
      "??": 5532,
      "ĠXanh": 5533,
      "Hotline": 5534,
      "ĠdÃ©p": 5535,
      "Ġau": 5536,
      "ĠLG": 5537,
      "ĠSen": 5538,
      "DÃ¹ng": 5539,
      "¦A": 5540,
      "chi": 5541,
      "ornia": 5542,
      "ĠliÃªng": 5543,
      "Ġgen": 5544,
      "Ġgáº¥u": 5545,
      "091": 5546,
      "Viet": 5547,
      "./.Ċ": 5548,
      "LÃ£o": 5549,
      "ĠPan": 5550,
      "Ġfrom": 5551,
      "ĠPhá»¥c": 5552,
      "Ġcháº£o": 5553,
      "Ġthá»ı": 5554,
      "Ġwh": 5555,
      "ĠMV": 5556,
      "ical": 5557,
      "98": 5558,
      "âĢ¦.Ċ": 5559,
      "ĠCub": 5560,
      "ĠYo": 5561,
      "ifornia": 5562,
      "Æ¯á»Ľc": 5563,
      "enc": 5564,
      "NÃªn": 5565,
      "Ġrá»Ĺi": 5566,
      "ĠFord": 5567,
      "nhá»¯ng": 5568,
      "Ġvung": 5569,
      "Ġngá»Ńa": 5570,
      "ĠsÃłnh": 5571,
      "ĠJo": 5572,
      "ĠThÃ¡p": 5573,
      "Ban": 5574,
      "ĠthiÃªu": 5575,
      "ĠNhiÃªn": 5576,
      "Ġmá»§": 5577,
      "ĠChrist": 5578,
      "Ġrá»Ļ": 5579,
      "ori": 5580,
      "LC": 5581,
      "rl": 5582,
      "ĠCháº¿": 5583,
      "ody": 5584,
      "ĠClin": 5585,
      "Ŀn": 5586,
      "ĠCá»¦A": 5587,
      "ĠSaigon": 5588,
      "bon": 5589,
      "ĠgiÃ£": 5590,
      "ĠQuá»¹": 5591,
      "41": 5592,
      "ĠMob": 5593,
      "ĠAt": 5594,
      "ĠtoÃ¡t": 5595,
      "43": 5596,
      "ĠIsrael": 5597,
      "Minh": 5598,
      "ĠPhá»¥ng": 5599,
      "Ġtest": 5600,
      "Ġranh": 5601,
      "ĠHP": 5602,
      "ĠsÃ¡p": 5603,
      "CÄĥn": 5604,
      "Ġtháº£y": 5605,
      "Ġkhá»ĳc": 5606,
      "ĠthÃªu": 5607,
      "ĠgiÃłn": 5608,
      "ĠchoÃ¡ng": 5609,
      "ĠDan": 5610,
      "ĠTá»ĭnh": 5611,
      "ĠLá»Ļ": 5612,
      "/l": 5613,
      "ĠvÃ¡c": 5614,
      "ĠKong": 5615,
      "Ġáº£": 5616,
      "Xe": 5617,
      "ts": 5618,
      "áº¯k": 5619,
      "ĠÄĲÃłn": 5620,
      "ollagen": 5621,
      "Ġfirstname": 5622,
      "ĠNhÆ¡n": 5623,
      "52": 5624,
      "ĠOp": 5625,
      "lines": 5626,
      "uki": 5627,
      "err": 5628,
      "ors": 5629,
      "Nghá»": 5630,
      "Chiá»ģu": 5631,
      "ĠHáº¯c": 5632,
      "ĠEr": 5633,
      "tra": 5634,
      "Ġstress": 5635,
      "ĠKÃŃnh": 5636,
      "-su": 5637,
      "ANG": 5638,
      "Ġxoang": 5639,
      "able": 5640,
      "Ġcomp": 5641,
      "ĠvÆ°á»£ng": 5642,
      "ĠMC": 5643,
      "ĠDÄ©": 5644,
      "ise": 5645,
      "oss": 5646,
      "So": 5647,
      "ĠKÃŃch": 5648,
      "ĠOne": 5649,
      "Ġxua": 5650,
      "BÃ¢y": 5651,
      "ĠMil": 5652,
      "ĠNote": 5653,
      "Ġsá»ī": 5654,
      "Ġrá»Ĺng": 5655,
      "Video": 5656,
      "ĠmáºŃp": 5657,
      "Ġwww": 5658,
      "Há»ĵ": 5659,
      "ĠTay": 5660,
      "vent": 5661,
      "ÄĤn": 5662,
      "/ngÃły": 5663,
      "Tiáº¿ng": 5664,
      "ĠmÃ©p": 5665,
      "ĠnhÃ¡t": 5666,
      "Ġthá»ĳi": 5667,
      "ĠDÃ²ng": 5668,
      "ĠIra": 5669,
      "ĠKháº¯c": 5670,
      "Ġbá»ķn": 5671,
      "ĠCalifornia": 5672,
      "ĠNgÆ°á»£c": 5673,
      "ĠDao": 5674,
      "Ġcholesterol": 5675,
      "Ġkáº¹p": 5676,
      "ons": 5677,
      "Phong": 5678,
      "Web": 5679,
      "ĠgiÃ¡ng": 5680,
      "Ġnhá»įc": 5681,
      "ella": 5682,
      "ĠcÃºm": 5683,
      "ĠÄĳc": 5684,
      "Ġphiáº¿n": 5685,
      "Ġyour": 5686,
      "/h": 5687,
      "Ġ$": 5688,
      "Ġvá»įt": 5689,
      "ĠthÃ²": 5690,
      "ual": 5691,
      "ĠGiÃºp": 5692,
      "Quan": 5693,
      "VÃŃ": 5694,
      "Ġna": 5695,
      "ĠÄĳiá»ģm": 5696,
      "Ġnhá»§": 5697,
      "bao": 5698,
      "Ġus": 5699,
      "ĠlÃ³": 5700,
      "Ġje": 5701,
      "--------": 5702,
      "ery": 5703,
      "Ġalbum": 5704,
      "Ġâ": 5705,
      "ĠÄĳáº¥m": 5706,
      "ĠKÃ´ng": 5707,
      "Iá»ĨN": 5708,
      "Ġgá»¥c": 5709,
      "Ġláº«y": 5710,
      "ĠMá»«ng": 5711,
      "ĠSÃ¡ch": 5712,
      "ãĢ": 5713,
      "ĠlÆ°á»£n": 5714,
      "ĠhÃ£m": 5715,
      "Giá»Ŀ": 5716,
      "ĠViáº¿t": 5717,
      "ĠGeo": 5718,
      "ater": 5719,
      "ĠKhÃª": 5720,
      "ĠMÃ´ng": 5721,
      "ĠStar": 5722,
      "ĠTá»ĳ": 5723,
      "Ġcá»įc": 5724,
      "igh": 5725,
      "Ġá»ĳp": 5726,
      "Ġwas": 5727,
      "EM": 5728,
      "MÃł": 5729,
      "ĠHan": 5730,
      "ĠAlex": 5731,
      "Cáº§n": 5732,
      "ONG": 5733,
      "Ġtá»ĳng": 5734,
      "áº¦N": 5735,
      ",\"": 5736,
      "ĠcÃło": 5737,
      "Ġkaraoke": 5738,
      "Ġhoi": 5739,
      "MT": 5740,
      "ĠSky": 5741,
      "its": 5742,
      "CB": 5743,
      "Ġtháº¯n": 5744,
      "Ġchen": 5745,
      "viet": 5746,
      "Ġbáº¡t": 5747,
      "ĠphÃ´": 5748,
      "ĠchÃ©o": 5749,
      "ĠThÃ¹y": 5750,
      "ĠÄĳáºŃy": 5751,
      "ĠDuyÃªn": 5752,
      "ĠWebsite": 5753,
      "Ġáº¢": 5754,
      "Ġsá»¥n": 5755,
      "ĠcÆ°ng": 5756,
      "Ġgiáº¿ng": 5757,
      "ĠÄĲáº·t": 5758,
      "Ġq": 5759,
      "Ġcard": 5760,
      "ĠnhÅ©": 5761,
      "Ġtáº¡ng": 5762,
      "ÄĲÃ´i": 5763,
      "Äĳá»ĥ": 5764,
      "uong": 5765,
      "za": 5766,
      "ĠngÃ³": 5767,
      "ĠCor": 5768,
      "ĠLiá»ĩt": 5769,
      "ĠIraq": 5770,
      "Ġnhiá»ħu": 5771,
      "ĠSH": 5772,
      "Mua": 5773,
      "ĠSáº½": 5774,
      "Ġráº£nh": 5775,
      "ĠkhoÃ¡t": 5776,
      "ondon": 5777,
      "ĠÄĳÅ©a": 5778,
      "ĠHiá»ĥn": 5779,
      "ĠnÃ³n": 5780,
      "Ġmuá»Ĺi": 5781,
      "gh": 5782,
      "ĠrÃ©t": 5783,
      "ĠhÃ©": 5784,
      "ĠTrÃ¡nh": 5785,
      "omb": 5786,
      "Ġlá»Ł": 5787,
      "Ġrá»Ľt": 5788,
      "min": 5789,
      "ĠBiá»ĩt": 5790,
      "Tháº¥y": 5791,
      "-F": 5792,
      "DÆ°Æ¡ng": 5793,
      "áº¢N": 5794,
      "Ġthis": 5795,
      "MÃ¹a": 5796,
      "ĠgÃ¢n": 5797,
      "ĠSch": 5798,
      "ĠSim": 5799,
      "oster": 5800,
      "ĠPer": 5801,
      "ET": 5802,
      "Khá»": 5803,
      "ÄĲÃ¡nh": 5804,
      "ĠTranh": 5805,
      "osa": 5806,
      ">>>": 5807,
      "Ġspa": 5808,
      "-H": 5809,
      "ĠRAM": 5810,
      "ĠPhá»ĳ": 5811,
      "Ġmá»ĵm": 5812,
      "ward": 5813,
      "ĠDis": 5814,
      "ĠrÃ²": 5815,
      "ĠCáºŃn": 5816,
      "udio": 5817,
      "earl": 5818,
      "cess": 5819,
      "ļI": 5820,
      "ĠHÃ¢n": 5821,
      "PhÃ³": 5822,
      "peria": 5823,
      "ĠthÌģ": 5824,
      "ĠHa": 5825,
      "ĠUkraine": 5826,
      "ont": 5827,
      "ĠNgÃ´i": 5828,
      "ĠGáº§n": 5829,
      "ega": 5830,
      "áº½n": 5831,
      "ĠChá»£": 5832,
      "Ġsáº§u": 5833,
      "ĠrÃªn": 5834,
      "ĠKhá»ķ": 5835,
      "ĠKhoáº£ng": 5836,
      "ĠLáº¥y": 5837,
      "eta": 5838,
      "ĠAirlines": 5839,
      "iano": 5840,
      "EA": 5841,
      "eal": 5842,
      "Ġlá»ĳp": 5843,
      "ĠnhÃ³c": 5844,
      "ĠLiÃªm": 5845,
      "093": 5846,
      "Gáº§n": 5847,
      "ĠCÃ´n": 5848,
      "hip": 5849,
      "QT": 5850,
      "ĠPhÆ°á»Ŀng": 5851,
      "oshi": 5852,
      "ĠSá»©c": 5853,
      "lic": 5854,
      "Ġngáº£": 5855,
      "ChÆ°a": 5856,
      "098": 5857,
      "ĠChamp": 5858,
      "Ġhotline": 5859,
      "Iá»Ģ": 5860,
      "Ġnháº¥c": 5861,
      "aly": 5862,
      "IT": 5863,
      "ĠSup": 5864,
      "ĠShop": 5865,
      "ĠKi": 5866,
      "ĠTráº¯ng": 5867,
      "ĠNhá»ĭ": 5868,
      "my": 5869,
      "Ġngháº¹t": 5870,
      "ĠNgÆ°": 5871,
      "á»Ĺ": 5872,
      "ĠCá»±c": 5873,
      "Má»Ŀi": 5874,
      "Ġhá»ĳt": 5875,
      "ĠVáºŃt": 5876,
      "ĠGarden": 5877,
      "ĠNews": 5878,
      "Ġcollagen": 5879,
      "Æ°á»Ľu": 5880,
      "ĠÄĲá»ĳng": 5881,
      "elsea": 5882,
      "ĠMU": 5883,
      "Ġsá»¥t": 5884,
      "ĠBá»įn": 5885,
      "CÃ¢y": 5886,
      "ĠWhi": 5887,
      "ĠHá»ķ": 5888,
      "ĠAll": 5889,
      "eng": 5890,
      "ĠLondon": 5891,
      "Chá»įn": 5892,
      "room": 5893,
      "pool": 5894,
      "page": 5895,
      "ĠÆ¯u": 5896,
      "ĠMart": 5897,
      "itt": 5898,
      "ThÃ¡i": 5899,
      "âĢľH": 5900,
      "Ġtháº¯p": 5901,
      "ĠKhÆ°Æ¡ng": 5902,
      "Æ¯á»¢": 5903,
      "Ġnáº¥y": 5904,
      "ĠHÃºc": 5905,
      "ĠKang": 5906,
      "ĠCap": 5907,
      "Ġcá»ĳi": 5908,
      "ĠÃģi": 5909,
      "ĠThuá»ĳc": 5910,
      "ĠmiÃªn": 5911,
      "ĠMadrid": 5912,
      "Bank": 5913,
      "ĠDV": 5914,
      ".,": 5915,
      "63": 5916,
      "Ġgieo": 5917,
      "ĠChá»©ng": 5918,
      "ĠchÃ¹m": 5919,
      "kyo": 5920,
      "ĠgiÃ²": 5921,
      "Ġlá»Ŀ": 5922,
      "ĠbÃºn": 5923,
      "OT": 5924,
      "ĠMáºŃu": 5925,
      "ĠnghÃªnh": 5926,
      "ple": 5927,
      "Ġngáº·t": 5928,
      "ĠÄĳá»Ļn": 5929,
      "ĠgÃło": 5930,
      "GiÃ¡o": 5931,
      "Máº«u": 5932,
      "ven": 5933,
      "ĠTom": 5934,
      "ĠSal": 5935,
      "ĠKá»ĥ": 5936,
      "ÄĳÆ°á»£c": 5937,
      "gia": 5938,
      "Ġuáº¥t": 5939,
      "ates": 5940,
      "III": 5941,
      "áº®": 5942,
      "ĠHam": 5943,
      "YT": 5944,
      "ĠchÆ°ng": 5945,
      "Ġkhuynh": 5946,
      "Ġtáº·c": 5947,
      "Ġkhan": 5948,
      "ĠVic": 5949,
      "ĠphÆ°á»Ľc": 5950,
      "ĠBV": 5951,
      "okia": 5952,
      "Ġná»Ļ": 5953,
      "ĠrÃ£": 5954,
      "ĠXi": 5955,
      "ĠLÃ£ng": 5956,
      "ĠHotline": 5957,
      "ĠCuba": 5958,
      "ĠvÃ¢ng": 5959,
      "ition": 5960,
      "Email": 5961,
      "ĠÆ°á»Ľp": 5962,
      "Ġdáº¡n": 5963,
      "ĠrÆ°á»Ľc": 5964,
      "Ġcáº©m": 5965,
      "ĠphiÃªu": 5966,
      "ĠVan": 5967,
      "ĠKhÃŃ": 5968,
      "awa": 5969,
      "58": 5970,
      "ĠSÃ´ng": 5971,
      "ĠNgá»": 5972,
      "AG": 5973,
      "ĠphÃ¡c": 5974,
      "ĠxÃłi": 5975,
      "Ġhá»ĩt": 5976,
      "ida": 5977,
      "iverside": 5978,
      "zy": 5979,
      "Iá»ĨT": 5980,
      "Ġlaser": 5981,
      "ĠOff": 5982,
      "rop": 5983,
      "utin": 5984,
      "á»©ng": 5985,
      "Ġváº«y": 5986,
      "ĠvÃłn": 5987,
      "350": 5988,
      "ux": 5989,
      "ĠDiá»ĩm": 5990,
      "ĠkÃ¬m": 5991,
      "ĠVitamin": 5992,
      "azon": 5993,
      "Háº§u": 5994,
      "Kim": 5995,
      "Cháº¯c": 5996,
      "ream": 5997,
      "Ġvá»¥n": 5998,
      "ĠComp": 5999,
      "Muá»ĳn": 6000,
      "ĠSanh": 6001,
      "ĠÄĲá»ĩ": 6002,
      "72": 6003,
      "Ca": 6004,
      "fÃ©": 6005,
      "ason": 6006,
      "evel": 6007,
      "AP": 6008,
      "eed": 6009,
      "ĠMos": 6010,
      "Ġsá»«ng": 6011,
      "ott": 6012,
      "Ðº": 6013,
      "Ġall": 6014,
      "ĠcÃºc": 6015,
      "ĠnhÃłm": 6016,
      "Ġbáº«y": 6017,
      "ĠchÆ°á»Ľng": 6018,
      "ĠchÃ¨n": 6019,
      "ican": 6020,
      "MC": 6021,
      "ĴNG": 6022,
      "AI": 6023,
      "ham": 6024,
      "Ġnáº¿m": 6025,
      "ĠTokyo": 6026,
      "ĠbuÃ½t": 6027,
      "ĠxÃ¡t": 6028,
      "IÃĬN": 6029,
      "Ġphai": 6030,
      "Ġá¸¿": 6031,
      "ĠlÃ¡ch": 6032,
      "ĠHuyÃªn": 6033,
      "TáºŃp": 6034,
      "Triá»ĩu": 6035,
      "Ġnu": 6036,
      "Ġniá»ģng": 6037,
      "Ġphá»ĵng": 6038,
      "Ġinox": 6039,
      "Ġ#": 6040,
      "SN": 6041,
      "Ġvá»Ľt": 6042,
      "Ġpháº«n": 6043,
      "ĠNÄĥng": 6044,
      "ĠDiá»ħm": 6045,
      "ĠSá»ĳng": 6046,
      "aki": 6047,
      "ĠtrÆ°á»£ng": 6048,
      "Ġgom": 6049,
      "ĠPhÃŃa": 6050,
      "ĠWord": 6051,
      "ĠgáºŃy": 6052,
      "ĠDavid": 6053,
      "ji": 6054,
      "ĠThiá»ĩu": 6055,
      "-p": 6056,
      "-th": 6057,
      "Ġhave": 6058,
      "Ġlog": 6059,
      "Ġtáº¥u": 6060,
      "ĠPlay": 6061,
      "Cáº£nh": 6062,
      "Ġvo": 6063,
      "ĠláºŃn": 6064,
      "ĠpháºŃt": 6065,
      "ĠBÃ¡n": 6066,
      "ĠMáº¡n": 6067,
      "ĠMess": 6068,
      "Ġvá»ĭnh": 6069,
      "aka": 6070,
      "col": 6071,
      "Ì£n": 6072,
      "Ġráº¡n": 6073,
      "áº¶": 6074,
      "Ġvá»īa": 6075,
      "Ġcuá»ĳng": 6076,
      "áº³m": 6077,
      "96": 6078,
      "air": 6079,
      "ĠMag": 6080,
      "Ġá¸¿nh": 6081,
      "ĠCD": 6082,
      "Ġphá»¥ng": 6083,
      "ĠVNÄĲ": 6084,
      "OR": 6085,
      "Ġgel": 6086,
      "ĠBi": 6087,
      "Ġháº¡m": 6088,
      "ĠCty": 6089,
      "ĠDes": 6090,
      "Ġni": 6091,
      "Ġcá»«": 6092,
      "ĠBHXH": 6093,
      "ko": 6094,
      "ĺI": 6095,
      "ĠMobile": 6096,
      "ĠSÆ¡": 6097,
      "ĠQuyÃªn": 6098,
      "outube": 6099,
      "Sinh": 6100,
      "ĠÄĲáº±ng": 6101,
      "ĠRed": 6102,
      "iverpool": 6103,
      "ĠvÃ´i": 6104,
      "ĠMod": 6105,
      "ĠRonald": 6106,
      "ĠTri": 6107,
      "Vá»¥": 6108,
      "be": 6109,
      "Ġtháº¡o": 6110,
      "razil": 6111,
      "Ġráº©y": 6112,
      "ĠhÃ¢n": 6113,
      "ĠBM": 6114,
      "ĠIII": 6115,
      "ĠUyÃªn": 6116,
      "ĠnÃłnh": 6117,
      "360": 6118,
      "wood": 6119,
      "ĠUnited": 6120,
      "-D": 6121,
      "form": 6122,
      "ĠTÃŃch": 6123,
      "Ġtro": 6124,
      "Phá»¥": 6125,
      "ĠtrÆ°á»Ľng": 6126,
      "ĠWill": 6127,
      "ĠÄĲÃ¡ng": 6128,
      "ĠChelsea": 6129,
      "ĠGiáº£m": 6130,
      "outh": 6131,
      "Ãĥ": 6132,
      "Xuáº¥t": 6133,
      "Ġ;": 6134,
      "Chia": 6135,
      "56": 6136,
      "ĠrÃ³t": 6137,
      "rm": 6138,
      "ÃģCH": 6139,
      "51": 6140,
      "ĠgÃ¡y": 6141,
      "ĠMel": 6142,
      "Ġchuá»ĵng": 6143,
      "NT": 6144,
      "ĠChÄĥm": 6145,
      "ĠVá»£": 6146,
      "ĠhÃ¨n": 6147,
      "Ġdr": 6148,
      "ĠchÆ°á»Łng": 6149,
      "rol": 6150,
      "ĠIntel": 6151,
      "cá»§a": 6152,
      "ĠSáº¯c": 6153,
      "ĠSil": 6154,
      "ÄĳÃ£": 6155,
      "alk": 6156,
      "MÃłu": 6157,
      "ĠbÃ¡i": 6158,
      "Ġchá»ķ": 6159,
      "ĠMat": 6160,
      "CD": 6161,
      "Váº¥n": 6162,
      "ĠDel": 6163,
      "ĠhiÃªn": 6164,
      "ĠMong": 6165,
      "188": 6166,
      "bur": 6167,
      "Ġar": 6168,
      "ĠMÃª": 6169,
      "ĠPM": 6170,
      "ĠcÄĥm": 6171,
      "ĠChÃ¹a": 6172,
      "ĠthÃŃnh": 6173,
      "ĠMá»Ŀi": 6174,
      "ĠWar": 6175,
      "ĠÃĶn": 6176,
      "Khoáº£ng": 6177,
      "ĠNi": 6178,
      "Ġdá»¡": 6179,
      "78": 6180,
      "Ġvá»Ŀ": 6181,
      "ĠBá»ķ": 6182,
      "ĠLÃĢ": 6183,
      "Ġcháº§n": 6184,
      "ese": 6185,
      "ael": 6186,
      "ĠBÃ¡nh": 6187,
      ".C": 6188,
      "Ġthuá»Ł": 6189,
      "ĠBlu": 6190,
      "ĠHuyá»ĩn": 6191,
      "ĠbÃ¬a": 6192,
      "ami": 6193,
      "ĠInst": 6194,
      "ĠNghiá»ĩp": 6195,
      "ĠMá»©c": 6196,
      ".N": 6197,
      "ĠsáºŃp": 6198,
      "Ġtá»³": 6199,
      "ĠxÃŃu": 6200,
      "Ġxáº»": 6201,
      "Ġtrá»£n": 6202,
      "ĠxoÃ¡y": 6203,
      "ĠChÃ¡u": 6204,
      "Ġkáº½m": 6205,
      "RO": 6206,
      "Ġlá»ĵn": 6207,
      "ĠMáº¡ng": 6208,
      "ĠcÃºp": 6209,
      "ĠCai": 6210,
      "ĠÄĲÃ¡nh": 6211,
      "ĠLand": 6212,
      ".ht": 6213,
      "work": 6214,
      "Ġbuá»ĳt": 6215,
      "ĠTÃ¡m": 6216,
      "ĠdÃ¨": 6217,
      "anmar": 6218,
      "ĠAf": 6219,
      "ila": 6220,
      "Ġmicro": 6221,
      "inho": 6222,
      "Diá»ĩp": 6223,
      "ford": 6224,
      "ĠlÆ°": 6225,
      "ĠSP": 6226,
      "ĠtrÃ¹": 6227,
      "ĠthÃ©t": 6228,
      "eto": 6229,
      "word": 6230,
      "Ġquá»µ": 6231,
      "der": 6232,
      "way": 6233,
      "ĠHIV": 6234,
      "ĠCáº©n": 6235,
      "ange": 6236,
      "Ġngoáº¡n": 6237,
      "berg": 6238,
      "Ġcalo": 6239,
      "ĠMá»Ł": 6240,
      "Ġhoáº¡n": 6241,
      "els": 6242,
      "ĠÆ¯á»Ľc": 6243,
      "ĠGiá»įng": 6244,
      "/nÄĥm": 6245,
      "py": 6246,
      "ĠÄĲá»įc": 6247,
      "ĠLÃ¢n": 6248,
      "ĠtrÃ³i": 6249,
      "ĠTruyá»ĩn": 6250,
      "ĠChinh": 6251,
      "áº¾T": 6252,
      "ĠBáº¡c": 6253,
      "ĠGl": 6254,
      "ĠHol": 6255,
      "senal": 6256,
      "ĠGeor": 6257,
      "ĠTáº¡ng": 6258,
      "ult": 6259,
      "Báº¡ch": 6260,
      "ĠÄĲÃªm": 6261,
      "ĠTimes": 6262,
      "-h": 6263,
      "KH": 6264,
      "Loáº¡i": 6265,
      "PP": 6266,
      "ĠNiÃªn": 6267,
      "ĠBrazil": 6268,
      "Ġthá»§ng": 6269,
      "Ġday": 6270,
      "Ġbá»ĭt": 6271,
      "AO": 6272,
      "Ġnhá»ĵi": 6273,
      "ĠForm": 6274,
      "aya": 6275,
      "ĠnháºŃu": 6276,
      "ĠRiverside": 6277,
      "chá»ī": 6278,
      "uters": 6279,
      "ĠMÃ´": 6280,
      "UB": 6281,
      "ÃĻ": 6282,
      "ĠMÃ¹i": 6283,
      "ĠTá»ĭch": 6284,
      "cÃ´ng": 6285,
      "ĮC": 6286,
      "ĠsÃ¡o": 6287,
      "Ġsáº£ng": 6288,
      "-k": 6289,
      "Buá»ķi": 6290,
      "Ġkhay": 6291,
      "ny": 6292,
      "Ġsáº£nh": 6293,
      "Ġsal": 6294,
      "Ġráº£i": 6295,
      "ĠMax": 6296,
      "Ġphá»Ł": 6297,
      "Ġná»ĥ": 6298,
      "ÃĢN": 6299,
      "TVT": 6300,
      "ĠlÅ©ng": 6301,
      "ĠnhÃ©t": 6302,
      "-la": 6303,
      "MP": 6304,
      "Chiáº¿n": 6305,
      "ĠbÆ°u": 6306,
      "ĠTuáº§n": 6307,
      "XVN": 6308,
      "ĠlÄĥm": 6309,
      "Ġthem": 6310,
      "ives": 6311,
      "cÃ´": 6312,
      "Quáº£": 6313,
      "Máº¥y": 6314,
      "Ġtháº³m": 6315,
      "Ġchat": 6316,
      "ĠWin": 6317,
      "ĠmÄ©": 6318,
      "ĠMet": 6319,
      "79": 6320,
      "Ġtáº¥p": 6321,
      "ĠSon": 6322,
      "LuáºŃt": 6323,
      "ĠGo": 6324,
      "elle": 6325,
      "ĠNay": 6326,
      "ĠLib": 6327,
      "ĠHoan": 6328,
      "Ġwe": 6329,
      "ĠBerlin": 6330,
      "Website": 6331,
      "ĠPutin": 6332,
      "ĠAg": 6333,
      "khoáº£ng": 6334,
      "ks": 6335,
      "ĠGiáº£": 6336,
      "ĠÄĳáº«m": 6337,
      "ĠChiÃªu": 6338,
      "ĠResort": 6339,
      "ĠWi": 6340,
      "Ġphen": 6341,
      "ĠUá»·": 6342,
      "ĠVá»ĭnh": 6343,
      "AL": 6344,
      "ĠNgá»į": 6345,
      "duc": 6346,
      "ĠHotel": 6347,
      "ĠUá»ĳng": 6348,
      "mg": 6349,
      "ĠMá»Ļng": 6350,
      "ĠTuyá»ĩt": 6351,
      "Ġthá»¥c": 6352,
      "uss": 6353,
      "áº¬N": 6354,
      "ĠTrÃ¢m": 6355,
      "ĠAD": 6356,
      "Ġbáº»": 6357,
      "ĠKÃ½": 6358,
      "áºłN": 6359,
      "yn": 6360,
      "nhÆ°ng": 6361,
      "ĠLiverpool": 6362,
      "ÑĮ": 6363,
      "Ġmáº«n": 6364,
      "Ġmá»ĳt": 6365,
      "Ġgiá»ģng": 6366,
      "CT": 6367,
      "ĠMáº¡ch": 6368,
      "âĢľT": 6369,
      "BÃłn": 6370,
      "SD": 6371,
      "biz": 6372,
      "Ġngháº¹n": 6373,
      "¨C": 6374,
      "ĠTá»ģ": 6375,
      "ĠHÄĲND": 6376,
      "Ġngáº«m": 6377,
      "ĠHuyáº¿t": 6378,
      "ĠHill": 6379,
      "li": 6380,
      "ĠÄĳáº½": 6381,
      "Ġab": 6382,
      "Iá»Ĥ": 6383,
      "ĠdÃª": 6384,
      "ĠphÆ°á»£ng": 6385,
      "ĠCáº¥p": 6386,
      "ĠKÃ¬": 6387,
      "UNG": 6388,
      "ĠÃª": 6389,
      "ĠbÃºp": 6390,
      "Ġgo": 6391,
      "ĠThuáºŃt": 6392,
      "ĠBá»ī": 6393,
      "ĠReuters": 6394,
      "aphone": 6395,
      "Ġbáº§y": 6396,
      "aha": 6397,
      "ĠAss": 6398,
      "KS": 6399,
      "PH": 6400,
      "cr": 6401,
      "ĠCas": 6402,
      "Ġná»©c": 6403,
      "-ch": 6404,
      "TD": 6405,
      "ĠÄĲÃ¡": 6406,
      "ĠÄĲang": 6407,
      "uz": 6408,
      "Ġbá»ĵng": 6409,
      "Ġngháº½n": 6410,
      "Ġtab": 6411,
      "ĠVictor": 6412,
      "110": 6413,
      "Song": 6414,
      "ĠCont": 6415,
      "ĠkhÃŃt": 6416,
      "ĠmÃ¡c": 6417,
      "ania": 6418,
      "ĠMang": 6419,
      "edes": 6420,
      "uld": 6421,
      "oney": 6422,
      "ĠMyanmar": 6423,
      "ĠTrÃłng": 6424,
      "ita": 6425,
      "Ġláº½o": 6426,
      "/s": 6427,
      "Ġapp": 6428,
      "Ġlá»Ńng": 6429,
      "ĠMáºŃt": 6430,
      "ĠClinton": 6431,
      "ÃĢI": 6432,
      "ANH": 6433,
      "ĠcÃ²i": 6434,
      "ĠBÃ£i": 6435,
      "ĠEng": 6436,
      "ĠTrÆ°ng": 6437,
      "Ġá»Ĳ": 6438,
      "Æ¯á»ļ": 6439,
      "ĠphÃłm": 6440,
      "ĠNhung": 6441,
      "ĠKhÃ´i": 6442,
      "ĠÄĳá»Ŀ": 6443,
      "ĠGreen": 6444,
      "ĠNghiÃªu": 6445,
      "Ġback": 6446,
      "ĠKar": 6447,
      "191": 6448,
      "lor": 6449,
      "Ġset": 6450,
      "ĠTÆ°á»Łng": 6451,
      "any": 6452,
      "ĠLH": 6453,
      "ChÃłng": 6454,
      "Hy": 6455,
      "Ġngá»Ŀi": 6456,
      "54": 6457,
      "ĠTuyá»ģn": 6458,
      "ĠMao": 6459,
      "ĠStr": 6460,
      "ThÆ°Æ¡ng": 6461,
      "lad": 6462,
      "nhÃł": 6463,
      "ĠAmazon": 6464,
      "St": 6465,
      "Ġhost": 6466,
      "ĠLaser": 6467,
      "elf": 6468,
      "aza": 6469,
      "Ġpost": 6470,
      "TR": 6471,
      "ĠTIN": 6472,
      "ĠDáº§n": 6473,
      "ÄĲÄĥng": 6474,
      "AND": 6475,
      "TÃłi": 6476,
      "vá»Ľi": 6477,
      "Nhá»Ŀ": 6478,
      "ĠBáº¯t": 6479,
      "ĠPS": 6480,
      "ĠTre": 6481,
      "ĠJong": 6482,
      "Ġná»ī": 6483,
      "ÄĲá»ģ": 6484,
      "Ġruá»ĵi": 6485,
      "HÃłnh": 6486,
      "Ã²e": 6487,
      "-g": 6488,
      "ViÃªm": 6489,
      "bin": 6490,
      "Ġcáº·n": 6491,
      "ĠÄĳÃ¡i": 6492,
      "Æ°á»Ľm": 6493,
      "ĠSn": 6494,
      "ĠChia": 6495,
      "Thá»ĭ": 6496,
      "di": 6497,
      "¡n": 6498,
      "Ġliáº¿m": 6499,
      "ĠÃºt": 6500,
      "Ġkhuáº¥y": 6501,
      "ĠTRá»": 6502,
      "plant": 6503,
      "/thÃ¡ng": 6504,
      "Ãµng": 6505,
      "Ã©c": 6506,
      "ĠLÃ¢u": 6507,
      "ĠJu": 6508,
      "Ġbáº¡": 6509,
      "ĠNokia": 6510,
      "ĠMot": 6511,
      "ĠNgá»¯": 6512,
      "acc": 6513,
      "TX": 6514,
      "ĠKHÃĶNG": 6515,
      "Ġtá»§y": 6516,
      "ĠNgÃ£i": 6517,
      "VÆ°Æ¡ng": 6518,
      "ĠnhÃ¡i": 6519,
      "ĠVÃ¢ng": 6520,
      "ĠBitcoin": 6521,
      "ĠChá»©c": 6522,
      "57": 6523,
      "?âĢĿ.": 6524,
      "ĠnhÃło": 6525,
      "Ġlá»¥t": 6526,
      "Ġtá»¥t": 6527,
      "MÃ´": 6528,
      "ren": 6529,
      "ĠLink": 6530,
      "160": 6531,
      "ĠTai": 6532,
      "ĠKha": 6533,
      "illa": 6534,
      "Ġhá»ĳc": 6535,
      ".V": 6536,
      "Ġcáº¡o": 6537,
      "ĠNhan": 6538,
      "130": 6539,
      "ĠgáºŃp": 6540,
      "Ġdis": 6541,
      "ĠLiÃªu": 6542,
      "ware": 6543,
      "ĠTuÃ¢n": 6544,
      "Ġquáº¿": 6545,
      "reat": 6546,
      "Ġnuá»ĳi": 6547,
      "ĠHÃło": 6548,
      "ĠArsenal": 6549,
      "ĠHang": 6550,
      "ĠCá»§a": 6551,
      "ThÃªm": 6552,
      "NÃły": 6553,
      "ToÃłn": 6554,
      "khi": 6555,
      "ĠhÃ¡n": 6556,
      "own": 6557,
      "Ġuá»·": 6558,
      "khá»": 6559,
      "ĠTÃł": 6560,
      "ĠGTVT": 6561,
      "NháºŃt": 6562,
      "ĠCNTT": 6563,
      "ĠCro": 6564,
      "ĠNhá»Ľ": 6565,
      "âľ": 6566,
      "ĠtrÄĥn": 6567,
      "Ġngáº¥m": 6568,
      "ĠBlog": 6569,
      "Ġled": 6570,
      "ĠTÆ¯": 6571,
      "ĠMark": 6572,
      "Ġná»ĩ": 6573,
      "ĠGrand": 6574,
      "ĠMu": 6575,
      "Ká»ĥ": 6576,
      "Ãģnh": 6577,
      "ĠMÃ³n": 6578,
      "undai": 6579,
      "ĠChampions": 6580,
      "ĠChiá»ģu": 6581,
      "ĠAut": 6582,
      "TO": 6583,
      "įi": 6584,
      "Ġip": 6585,
      "Ġmáº©n": 6586,
      "ĠGiá»ĳng": 6587,
      "IP": 6588,
      "á»ĥn": 6589,
      "ĠNgÆ°u": 6590,
      "ĠGiÃ¡c": 6591,
      "bal": 6592,
      "Ġlike": 6593,
      "ĠID": 6594,
      ".L": 6595,
      "Ġlá»«ng": 6596,
      "84": 6597,
      "Ġchá»Ļ": 6598,
      "Ġmodel": 6599,
      "witter": 6600,
      "ĠÃ¡": 6601,
      "ĠvÄĥng": 6602,
      "Ġgolf": 6603,
      "ĠTráº¥n": 6604,
      "KhÃ³": 6605,
      "ĠlÃ³e": 6606,
      "ĠRonaldo": 6607,
      "âĢľAnh": 6608,
      "ÄĲá»Ļi": 6609,
      "QuÃ¡": 6610,
      "ĠcÌ£n": 6611,
      "ĠthÃł": 6612,
      "ĠSl": 6613,
      "ÄĲá»įc": 6614,
      "ĠÄĳá»ĳm": 6615,
      "096": 6616,
      "ĠTiáº¿t": 6617,
      "Ġgirl": 6618,
      "ĠSw": 6619,
      "ThÃ¢n": 6620,
      "ĠTao": 6621,
      "ĠxÆ°á»Ľng": 6622,
      "ĠÄĲá»Ŀi": 6623,
      "ĠEmail": 6624,
      "ĠJun": 6625,
      "Tá»ķ": 6626,
      "ĠSá»¹": 6627,
      "ĠAngel": 6628,
      "ĠBiá»ĥu": 6629,
      "Cá»©": 6630,
      "YÃªu": 6631,
      "tÃ´i": 6632,
      "ĠAS": 6633,
      "itan": 6634,
      "MA": 6635,
      "Ġluyáº¿n": 6636,
      "ĠmÃºt": 6637,
      "ÄĲÃªm": 6638,
      "ĠÄĲá»ı": 6639,
      "ĠUV": 6640,
      "ÐµÐ": 6641,
      "ĠCá»©u": 6642,
      "TÃ³m": 6643,
      "vÃ¬": 6644,
      "Ġtáº©m": 6645,
      "Ġthá»ģm": 6646,
      "Láº¡i": 6647,
      "aomi": 6648,
      "ĠTriá»ĥn": 6649,
      "ĠMerc": 6650,
      "Ġhorm": 6651,
      "ĠThÆ°a": 6652,
      "Ġel": 6653,
      "Ġbus": 6654,
      "áº»m": 6655,
      "icon": 6656,
      "ado": 6657,
      "/N": 6658,
      "69": 6659,
      "ound": 6660,
      "ĠphÃ´ng": 6661,
      "ĠVn": 6662,
      "ĠVui": 6663,
      "ever": 6664,
      "ĠnhÃºng": 6665,
      "ĠMr": 6666,
      "Ġkhá»ī": 6667,
      "ĠPrem": 6668,
      "ĠchÆ°á»Ľc": 6669,
      "ĠVáº«n": 6670,
      "ĠPe": 6671,
      "ĠmÃªnh": 6672,
      "ixel": 6673,
      "sa": 6674,
      "Ġsá»¯ng": 6675,
      "ĠTá»©c": 6676,
      "phcm": 6677,
      "Ãģo": 6678,
      "Ġcáº©u": 6679,
      "ĠHome": 6680,
      "Cha": 6681,
      "ĠTráº§m": 6682,
      "ĠtuÃ½": 6683,
      "108": 6684,
      "Ká»³": 6685,
      "ĠXperia": 6686,
      "ĠbÃªnh": 6687,
      "Ġlá»ģu": 6688,
      "Ġcode": 6689,
      "khÃ": 6690,
      "Ġráº¡ch": 6691,
      "king": 6692,
      "á»Ŀ": 6693,
      "Ġwill": 6694,
      "cis": 6695,
      "Thiáº¿u": 6696,
      "Ġwhi": 6697,
      "Äĳi": 6698,
      "Ġgiá»¥c": 6699,
      "ĠTá»·": 6700,
      "apa": 6701,
      "ĠChuáº©n": 6702,
      "ĠMichael": 6703,
      "ĠVND": 6704,
      "Thuá»ĳc": 6705,
      "Ġvá»£t": 6706,
      "ci": 6707,
      "ĠTÃ¡t": 6708,
      "eview": 6709,
      "ĠOlympic": 6710,
      "PhÃ¢n": 6711,
      "Hz": 6712,
      "Náº±m": 6713,
      "ĠRÃµ": 6714,
      "etooth": 6715,
      "ĠlÃºng": 6716,
      "ĠNghiÃªm": 6717,
      "ĠrÃ¬": 6718,
      "ĠrÃ²ng": 6719,
      "/b": 6720,
      "ĠcÃ²": 6721,
      "ĠvÃ¡ng": 6722,
      "Ġkháº¯t": 6723,
      "ĠSm": 6724,
      "ĠKiá»ĥu": 6725,
      "ĠDiá»ĩn": 6726,
      "ĠphÃ¡ch": 6727,
      "á»ĭa": 6728,
      "ific": 6729,
      "ĠxÃ´n": 6730,
      "jo": 6731,
      "ĠLÃªn": 6732,
      "âĢ¦,": 6733,
      "andal": 6734,
      "Ġet": 6735,
      "Ġsáº¥u": 6736,
      "ĠCB": 6737,
      "ani": 6738,
      "ĠPaul": 6739,
      "NhÃ³m": 6740,
      "CL": 6741,
      "res": 6742,
      "ĠtrÃ¡": 6743,
      "-in": 6744,
      "Tiáº¿n": 6745,
      "Â»": 6746,
      "ĠNob": 6747,
      "ĠvÃ¹i": 6748,
      "ĠnÃªm": 6749,
      "Ġquyá»ĩn": 6750,
      "tour": 6751,
      "/d": 6752,
      "ĠkÃ©t": 6753,
      "ĠrÃ¹a": 6754,
      "ÃĤY": 6755,
      "59": 6756,
      "ĠPower": 6757,
      "Ġngáº¡ch": 6758,
      "ĠLuÃ´n": 6759,
      "cÃ¡i": 6760,
      "dro": 6761,
      "á»ı": 6762,
      "Tuá»ķi": 6763,
      "ĠCÃłng": 6764,
      "tá»©c": 6765,
      "ĠÑģ": 6766,
      "....Ċ": 6767,
      "lá»": 6768,
      "Ġsiáº¿t": 6769,
      "quy": 6770,
      "ĠcafÃ©": 6771,
      "Ġcá»Ńu": 6772,
      "ĠCáº£ng": 6773,
      "ĠSU": 6774,
      "ĠSÃ¢m": 6775,
      "ations": 6776,
      "Ġgáº·t": 6777,
      "ĠkhÃ¡nh": 6778,
      "-V": 6779,
      "DÃ¢n": 6780,
      "Giao": 6781,
      "DI": 6782,
      "ĠhÃº": 6783,
      "aster": 6784,
      ".S": 6785,
      "Ġpho": 6786,
      "Ġláº¡y": 6787,
      "Ġkhong": 6788,
      "oa": 6789,
      "Ġom": 6790,
      "arm": 6791,
      "book": 6792,
      "cÃ²n": 6793,
      "Ġbiáº¿ng": 6794,
      "ĠCEO": 6795,
      "ĠVP": 6796,
      "ĠPhao": 6797,
      "Ġtháº¯m": 6798,
      "ĠCÆ°": 6799,
      "ĠLÃ¡": 6800,
      "ĠKr": 6801,
      "140": 6802,
      "eon": 6803,
      "Ġtrá»©": 6804,
      "ĠHoáº¡t": 6805,
      "ĠNÃły": 6806,
      "ĠHÃ£ng": 6807,
      "ĠVideo": 6808,
      "ĠBig": 6809,
      "ĠPGS": 6810,
      "PV": 6811,
      "ĠBur": 6812,
      "ĠHá»©a": 6813,
      "TÆ°Æ¡ng": 6814,
      "ÄĲáº·t": 6815,
      "Ġsáº§m": 6816,
      "ĠthÃ¢u": 6817,
      "ĠNet": 6818,
      "ato": 6819,
      "ĠQuáº§n": 6820,
      "ĠFull": 6821,
      "tá»±": 6822,
      "ĠCÃĶNG": 6823,
      "ĠTháº±ng": 6824,
      "ĠsuÃ½t": 6825,
      "Lá»¥c": 6826,
      "ĠvÃ²m": 6827,
      "Ġcá»«u": 6828,
      "nes": 6829,
      "ĠHN": 6830,
      "Tháº§y": 6831,
      "Ġwifi": 6832,
      "Ġren": 6833,
      "ĠHáº£o": 6834,
      "ĠLau": 6835,
      "ĠPhiÃªn": 6836,
      "ator": 6837,
      "ĠBHYT": 6838,
      "-A": 6839,
      "vn": 6840,
      "Ġ..": 6841,
      "earch": 6842,
      "Ġcheck": 6843,
      "ĠCT": 6844,
      "obot": 6845,
      "320": 6846,
      "ĠMÃ¢n": 6847,
      "ĠGDP": 6848,
      "Tá»±": 6849,
      "ĠvÆ¡": 6850,
      "ĠlÃ³c": 6851,
      "ĠchÃŃch": 6852,
      "ChuyÃªn": 6853,
      "Báº±ng": 6854,
      "ily": 6855,
      "exico": 6856,
      ".html": 6857,
      "ii": 6858,
      "¨n": 6859,
      "°C": 6860,
      "ĠWest": 6861,
      "Tá»ĳi": 6862,
      "Ġáº¥u": 6863,
      "ĠKem": 6864,
      "ĠTrÃ¢n": 6865,
      "Bá»ĭ": 6866,
      "Ex": 6867,
      "Ġbai": 6868,
      ".TS": 6869,
      "cl": 6870,
      "Ġbá»«a": 6871,
      "ĠSÃ¢n": 6872,
      "Ġyáº¿m": 6873,
      "ĠTHCS": 6874,
      "ĠMiá»ħn": 6875,
      "ĠXÃ©t": 6876,
      "-ÄĲT": 6877,
      "iam": 6878,
      "Ġmiá»ĩt": 6879,
      "âĢĺ": 6880,
      "áº¤N": 6881,
      "ĠCSVN": 6882,
      "ĠvÃ£ng": 6883,
      "ĠquáºŃt": 6884,
      "ĠtÃ©": 6885,
      "ĠQuÃ¡ch": 6886,
      "ĠhÃ¡o": 6887,
      "Ġgiá»ı": 6888,
      "Ġngá»¥y": 6889,
      "ĠShin": 6890,
      "ĠGIÃģ": 6891,
      "-tr": 6892,
      "Háº¡": 6893,
      "Ġráº§m": 6894,
      "ĠHÃ²n": 6895,
      "ille": 6896,
      "âĸ": 6897,
      "ĠrÃ¡n": 6898,
      "Ġmá»¥": 6899,
      "ova": 6900,
      "Ġmenu": 6901,
      "ĠUnivers": 6902,
      "ThÆ°á»Ŀng": 6903,
      "day": 6904,
      "ĠvÌģ": 6905,
      "ĠngÃ¹ng": 6906,
      "ĠTáºłI": 6907,
      "ĠÄĲÆ°Æ¡ng": 6908,
      "ĠDinh": 6909,
      "Ġeuro": 6910,
      "á»§": 6911,
      "DS": 6912,
      "KÃŃnh": 6913,
      "wer": 6914,
      "Ġmá»³": 6915,
      "ThÆ°a": 6916,
      "ĠcháºŃp": 6917,
      "Ġxá»ķ": 6918,
      "ĠBinh": 6919,
      "ĠSÃ¡t": 6920,
      "ĠXÆ°Æ¡ng": 6921,
      "ĠTM": 6922,
      "ora": 6923,
      "ĠchÃ²": 6924,
      "ĠNho": 6925,
      "ĠPhu": 6926,
      "?âĢĿ.Ċ": 6927,
      "LÃª": 6928,
      "bi": 6929,
      "á»ģn": 6930,
      "ĠJose": 6931,
      "62": 6932,
      "Ġvá»±ng": 6933,
      "Ġxá»ĳp": 6934,
      "ĠMed": 6935,
      "national": 6936,
      "ĠsÃ´": 6937,
      "Ġngáº¡t": 6938,
      "ĠÄĲau": 6939,
      "ĠÄĲáº£m": 6940,
      "omas": 6941,
      "Ġgá»ī": 6942,
      "tral": 6943,
      "ĠKhÃ¡m": 6944,
      "ĠtÃ¡ng": 6945,
      "ĠBÃ³ng": 6946,
      "ĠJames": 6947,
      "ĠÐ¿": 6948,
      "Cam": 6949,
      "VÅ©": 6950,
      "Bao": 6951,
      "ĶI": 6952,
      "ĠKáº»": 6953,
      "ated": 6954,
      "Phim": 6955,
      "Ġváº¥p": 6956,
      "ĠPo": 6957,
      "uis": 6958,
      "ĠchoÃłng": 6959,
      "ĠMáº¯t": 6960,
      "erson": 6961,
      "Ġháº¯t": 6962,
      "ĠAp": 6963,
      "DF": 6964,
      "Ġnao": 6965,
      "Ġgr": 6966,
      "ĠSá»¯a": 6967,
      "ĠSouth": 6968,
      "iro": 6969,
      "ĠÄĲá»ĳc": 6970,
      "iness": 6971,
      "áº¦U": 6972,
      "ster": 6973,
      "Ġtáº¡c": 6974,
      "ĠvÃ£n": 6975,
      "ĠGT": 6976,
      "Ġchá»įi": 6977,
      "ĠCat": 6978,
      "ĠHá»Ļ": 6979,
      "ĠKhá»ķng": 6980,
      "ChÃ¡": 6981,
      "ĠGiá»¯a": 6982,
      "ĠPHÃģ": 6983,
      "53": 6984,
      "BÃŃ": 6985,
      "ĠnhÄ©": 6986,
      "ĠSV": 6987,
      "ĠSuper": 6988,
      "ðŁ": 6989,
      "ĠngÃ¡n": 6990,
      "Ġchuá»Ļc": 6991,
      "Æ°á»Ľn": 6992,
      "áº¢I": 6993,
      "áº¢O": 6994,
      "ĠSuz": 6995,
      "ãĤ": 6996,
      "try": 6997,
      "âĢĻ,": 6998,
      "âĢ¦âĢ¦âĢ¦âĢ¦": 6999,
      "Ġroi": 7000,
      "ĠChuyá»ĥn": 7001,
      "TÄĥng": 7002,
      "Ġlon": 7003,
      "Ġdong": 7004,
      "ĠUN": 7005,
      "Ġcá»§i": 7006,
      "Ġphot": 7007,
      "Ġteen": 7008,
      "HÃłn": 7009,
      "ĠTiáº¿u": 7010,
      "ĠMÃ¡c": 7011,
      "ĠtoÃ¡i": 7012,
      "ĠQuá»·": 7013,
      "ĠTour": 7014,
      "ĠKhá»Łi": 7015,
      "lish": 7016,
      "Ġtráº§y": 7017,
      "ishi": 7018,
      "ĠChá»¯": 7019,
      "Pháº¡m": 7020,
      "ĠmÃ¹ng": 7021,
      "cher": 7022,
      "Ġtá»Ļt": 7023,
      "Ġthen": 7024,
      "Æ¡ng": 7025,
      "Ġhá»§": 7026,
      "ĠMexico": 7027,
      "Ġform": 7028,
      "ĠÄĲoan": 7029,
      "ĠDÆ°": 7030,
      "Ġout": 7031,
      "125": 7032,
      "ĠTuá»ĩ": 7033,
      "ĠVinaphone": 7034,
      "Â·": 7035,
      "Ġnghiáº¿n": 7036,
      "ĠTrÄĥng": 7037,
      "Ġá»©": 7038,
      "ther": 7039,
      "Cao": 7040,
      "Ġnháº¿ch": 7041,
      "ĠHTC": 7042,
      "á»įa": 7043,
      "-R": 7044,
      "ĠtrÃºt": 7045,
      "ĠLá»Ľp": 7046,
      "Há»ĵi": 7047,
      "báº¡n": 7048,
      "ĠÆ¯": 7049,
      "Ġdec": 7050,
      "ĠThuáº¿": 7051,
      "Ġpoly": 7052,
      "Ġmix": 7053,
      "uild": 7054,
      "ĠbÆ°ng": 7055,
      "ĠNHNN": 7056,
      "ĠWhite": 7057,
      "ĠnÃ¨": 7058,
      "ĠVTV": 7059,
      "ĠLin": 7060,
      "ĠHá»ĵn": 7061,
      "ĠBáº£ng": 7062,
      "ifone": 7063,
      "***Ċ": 7064,
      "Ġ^": 7065,
      "Ġtháº¹n": 7066,
      "ĠxoÄĥn": 7067,
      "Ġplay": 7068,
      "á»ī": 7069,
      "ĠchÃ¹i": 7070,
      "lÃ´": 7071,
      "Ġcac": 7072,
      "ĠnÃ³c": 7073,
      "stem": 7074,
      "ĠTáº¡p": 7075,
      "ĠBuá»ķi": 7076,
      "Ġngá»ı": 7077,
      "olog": 7078,
      "ĠchÃ¡t": 7079,
      "á»ĭnh": 7080,
      "ĠngÃłng": 7081,
      "ĠchÃ¨o": 7082,
      "ĠBá»ĳn": 7083,
      "Ġtrá»ı": 7084,
      "aste": 7085,
      "sau": 7086,
      "xin": 7087,
      "ele": 7088,
      "kok": 7089,
      "ĠsÃ³i": 7090,
      "ĠTá»Ľi": 7091,
      "Ġsá»Ńng": 7092,
      "Ġhack": 7093,
      "ĠMÅ©i": 7094,
      "Ngá»įc": 7095,
      "hot": 7096,
      "ĠcÃły": 7097,
      "ĠrÃŃt": 7098,
      "aby": 7099,
      "FC": 7100,
      "Ġsá»§ng": 7101,
      "une": 7102,
      "ava": 7103,
      "ĠRobert": 7104,
      "pearl": 7105,
      "Ġgiáº¥m": 7106,
      "ĠKe": 7107,
      "eral": 7108,
      "ĠJae": 7109,
      "ainer": 7110,
      "ient": 7111,
      "Ãªng": 7112,
      "Ġdá»©a": 7113,
      "yÃªu": 7114,
      "Ġsáº·c": 7115,
      "ĠCáº§m": 7116,
      "ĠVá»įng": 7117,
      "ĠComm": 7118,
      "CÃ¡": 7119,
      "ja": 7120,
      "ĠngÆ°á»£ng": 7121,
      "ĠTY": 7122,
      "ĠCháº¥n": 7123,
      "avel": 7124,
      "Ġnheo": 7125,
      "ĠNiá»ĩm": 7126,
      "ude": 7127,
      "-tÃ¡t": 7128,
      "ĠSport": 7129,
      "ĠUyá»ĥn": 7130,
      ".A": 7131,
      "ais": 7132,
      "CP": 7133,
      "ĠTwitter": 7134,
      "ĠHuÃ¢n": 7135,
      "ĠthÃ¡n": 7136,
      "Trao": 7137,
      "ĠlÃ¬a": 7138,
      "Ġná»ĩm": 7139,
      "ĦN": 7140,
      "ĠrÆ°á»¡i": 7141,
      "ĠTech": 7142,
      "enz": 7143,
      "Ġyoga": 7144,
      "âĢľChÃºng": 7145,
      "otte": 7146,
      "ĠLuáºŃn": 7147,
      "celona": 7148,
      "NÆ¡i": 7149,
      "ĠHáº¡t": 7150,
      "ĠLuyá»ĩn": 7151,
      "ĠTriáº¿t": 7152,
      "Ã©m": 7153,
      "ĠGÃ²": 7154,
      "ĠhÃ³c": 7155,
      "Thi": 7156,
      "ĠcÃ´i": 7157,
      "ĠbÃºa": 7158,
      "Ġreo": 7159,
      "Ġtrá»ķ": 7160,
      "loud": 7161,
      "over": 7162,
      "ThÃŃ": 7163,
      "Ġhas": 7164,
      "ĠráºŃm": 7165,
      "ĠVir": 7166,
      "itar": 7167,
      "ĠIV": 7168,
      "pha": 7169,
      "097": 7170,
      "ĠGB": 7171,
      "Ġphá»ĳt": 7172,
      "Ġbut": 7173,
      "ĠBos": 7174,
      "Tráº»": 7175,
      "ĠRá»ĵng": 7176,
      "ĠToÃł": 7177,
      "Quáº£ng": 7178,
      "ĠÄĳá»ĳn": 7179,
      "ĠUl": 7180,
      "Ġchá»«": 7181,
      "ĠShow": 7182,
      "ĠngoÃ£n": 7183,
      "Má»": 7184,
      "ĠcÆ°á»¡i": 7185,
      "Ġláº©m": 7186,
      "Ġlá»¥y": 7187,
      "ĠBÃ¡i": 7188,
      "ĠQuáº¿": 7189,
      "anda": 7190,
      "hy": 7191,
      "ĠISO": 7192,
      "IL": 7193,
      "Ġháº»m": 7194,
      "ĠÄĳÃ²": 7195,
      "ĠSÃ³c": 7196,
      "ĠCM": 7197,
      "Ñı": 7198,
      "Ġthung": 7199,
      "Ġquai": 7200,
      "ĠCu": 7201,
      "ĠGP": 7202,
      "TÃ´": 7203,
      "ĠMÃłn": 7204,
      "ĠmÃŃa": 7205,
      "ĠNGH": 7206,
      "QG": 7207,
      "ĠlÃµm": 7208,
      "ĠsÃło": 7209,
      "iki": 7210,
      "ĠHyundai": 7211,
      "ĠVÃ¹ng": 7212,
      "âĢľEm": 7213,
      "BÃ¡nh": 7214,
      "ĠBBC": 7215,
      "ĠMor": 7216,
      "Ġgá»įt": 7217,
      "ĠTáº£": 7218,
      "Ð°Ð": 7219,
      "QuÃ¢n": 7220,
      "Ġmobile": 7221,
      "ĠnÃºm": 7222,
      "ĠKhÃ¡c": 7223,
      "ppo": 7224,
      "ĠHÃĢNG": 7225,
      "ĠHC": 7226,
      "ĠRich": 7227,
      "ield": 7228,
      "ĠHolly": 7229,
      "xem": 7230,
      "ĠrÃ£nh": 7231,
      "ĠBus": 7232,
      "hoo": 7233,
      "Biáº¿t": 7234,
      "Cáº§u": 7235,
      "ĠÆ¡": 7236,
      "ĠVÄ©": 7237,
      "ĠLá»¯": 7238,
      "Ġcopy": 7239,
      "FF": 7240,
      "for": 7241,
      "ngh": 7242,
      "Ġná»Ľi": 7243,
      "umb": 7244,
      "ews": 7245,
      "Ġmail": 7246,
      "ĠOs": 7247,
      "Lá»£i": 7248,
      "uat": 7249,
      "Ġngá»Ńi": 7250,
      "ÄĲá»ĵ": 7251,
      "row": 7252,
      "====": 7253,
      "-P": 7254,
      "ten": 7255,
      "view": 7256,
      "ĠbÆ°á»Ľm": 7257,
      "Ġhá»«": 7258,
      "ĠÄĲÃ¨n": 7259,
      "ĠÃįt": 7260,
      "ĠhÃ£nh": 7261,
      "ĠNghÄ©": 7262,
      "Ġmiáº¿u": 7263,
      "Ġbáº§m": 7264,
      "ĠnhÃºn": 7265,
      "Ġcháº¡p": 7266,
      "ĠCá»ĳc": 7267,
      "ĠTráº¡m": 7268,
      "Ġviet": 7269,
      "Lá»ħ": 7270,
      "Ġshowbiz": 7271,
      "ning": 7272,
      "ĠSIM": 7273,
      "________________": 7274,
      ".-": 7275,
      "ĠÄĳiáº¿u": 7276,
      "Ġrá»ķ": 7277,
      "ĠHer": 7278,
      "ĠSG": 7279,
      "ĠSmart": 7280,
      "opy": 7281,
      "ÃįNH": 7282,
      "&ÄĲT": 7283,
      "ĠNÆ°Æ¡ng": 7284,
      "ette": 7285,
      "agram": 7286,
      "Ġtrau": 7287,
      "ĠSá»©": 7288,
      "oid": 7289,
      "Ġund": 7290,
      "ħu": 7291,
      "ĠXÃ¡c": 7292,
      "KT": 7293,
      "ĠAv": 7294,
      "ading": 7295,
      "Ġone": 7296,
      "ĠTak": 7297,
      "ĠMiáº¿n": 7298,
      "ĠWal": 7299,
      "á»ĭch": 7300,
      "ĠÄĳÃ¨o": 7301,
      "eople": 7302,
      "Ñĩ": 7303,
      "ĠIr": 7304,
      "ĠGiá»¯": 7305,
      "ĠÐ²": 7306,
      "Ġtuáº¥n": 7307,
      "âĢ¦)": 7308,
      "ĠXá»Ń": 7309,
      "Ġcáº·c": 7310,
      "ĠtrÃ¨o": 7311,
      "Ġdáº¥n": 7312,
      "Ġsá»įc": 7313,
      "ats": 7314,
      "Ġtá»īa": 7315,
      "-CP": 7316,
      "Æ¯á»ľNG": 7317,
      "Láº¥y": 7318,
      "Táº¡p": 7319,
      "Ġthong": 7320,
      "Ġmá»ĭ": 7321,
      "Ġtá»¥y": 7322,
      ".B": 7323,
      "Tiá»ģn": 7324,
      "ĠCÃ¹": 7325,
      "âĢľTa": 7326,
      "/kg": 7327,
      "450": 7328,
      "ĠPa": 7329,
      "ĠPak": 7330,
      "ider": 7331,
      "++": 7332,
      "LÃ£nh": 7333,
      "ĠHÄĲQT": 7334,
      "OL": 7335,
      "Ġvs": 7336,
      "Ġrobot": 7337,
      "ĠVÆ°á»Ŀn": 7338,
      "ĠÄĲáº¯k": 7339,
      "Cá»Ńa": 7340,
      "TÃ¢m": 7341,
      "sá»±": 7342,
      "Ġquáº©n": 7343,
      "ĠLÃ²ng": 7344,
      "Vá»£": 7345,
      "Ġngá»¥m": 7346,
      "ĠArg": 7347,
      "ĠAFF": 7348,
      "ĠNik": 7349,
      "ĠEle": 7350,
      "ĠGar": 7351,
      "ÃĢY": 7352,
      "Ġcomment": 7353,
      "MB": 7354,
      "Ġbl": 7355,
      "ĠNAM": 7356,
      "ÄĲang": 7357,
      "asc": 7358,
      "ushi": 7359,
      "Iáº¾T": 7360,
      "Ġresort": 7361,
      "-nh": 7362,
      "ĠnhÃ´": 7363,
      "ĠÄĲáº¹p": 7364,
      "ĠBTC": 7365,
      "ĠPhÃŃ": 7366,
      "ĠVNCH": 7367,
      "TÃ¹y": 7368,
      "Ġest": 7369,
      "Ġmot": 7370,
      "Ġnoi": 7371,
      "ader": 7372,
      "Váº«n": 7373,
      "Ġdiá»ħm": 7374,
      "Ġvá»Ľ": 7375,
      "ĠhÃ¬": 7376,
      "atin": 7377,
      "ĠPhá»ķ": 7378,
      "ĠCHO": 7379,
      "ĠFormosa": 7380,
      "ĠbÄĥm": 7381,
      "ĠÃºp": 7382,
      "Ġxá»ĩ": 7383,
      "ĠBill": 7384,
      "RE": 7385,
      "ĠxÃ¡o": 7386,
      "£m": 7387,
      "ľI": 7388,
      "ĠbÃºi": 7389,
      "ĠphÃłn": 7390,
      "ĠYu": 7391,
      "chÃº": 7392,
      "ĠSec": 7393,
      "ĠKing": 7394,
      "rome": 7395,
      "áº¨M": 7396,
      ".M": 7397,
      "/TT": 7398,
      "VÃ¢ng": 7399,
      "yc": 7400,
      "Ġtanh": 7401,
      "Ġtá»µ": 7402,
      "-tÃ´": 7403,
      "ingroup": 7404,
      "fer": 7405,
      "phÃ¡": 7406,
      "ĠJi": 7407,
      "Hoáº·c": 7408,
      "ĠXX": 7409,
      "ĠPhÃª": 7410,
      "Ġtiá»ĩt": 7411,
      "ĠTrá»¯": 7412,
      "ĠBarcelona": 7413,
      "ÅĤ": 7414,
      "play": 7415,
      "ĠtrÆ¡": 7416,
      "ĠXÃ¡": 7417,
      "ourinho": 7418,
      "Tinh": 7419,
      "lam": 7420,
      "Ġtáº©u": 7421,
      "ĠHáº¡n": 7422,
      "Linh": 7423,
      "Ġmo": 7424,
      "atar": 7425,
      "ĠOanh": 7426,
      "entina": 7427,
      "Ġhá»ķng": 7428,
      "ĠMessi": 7429,
      "ĠTÃ¡": 7430,
      "ĠMiss": 7431,
      "ĠChris": 7432,
      "ĠDá»¥c": 7433,
      "ĠSá»Ńu": 7434,
      "ĠNÃ¢ng": 7435,
      "ĠLight": 7436,
      "PG": 7437,
      "ĠÃĲá»©c": 7438,
      "/Q": 7439,
      "ĠsÃ¹ng": 7440,
      "Cháº¿": 7441,
      "ĠÇ": 7442,
      "Ġáº¿ch": 7443,
      "ĠÄĳáº¥ng": 7444,
      "Ġbá»Ľi": 7445,
      "ĠMedia": 7446,
      "ĠAN": 7447,
      "ĠchÃ³t": 7448,
      "ĠAmer": 7449,
      "Ġthá»ĳn": 7450,
      "Ġquáº¥t": 7451,
      "ĠVina": 7452,
      "otton": 7453,
      "Ġlá»ĵi": 7454,
      "ĠMercedes": 7455,
      "ĠsÃºp": 7456,
      "Ġhen": 7457,
      "Æ°á»£m": 7458,
      "Ġsá»ĩt": 7459,
      "ĠSeoul": 7460,
      "ĠXiaomi": 7461,
      "Ġhormone": 7462,
      "220": 7463,
      "Uá»": 7464,
      "ĠvÃ¡": 7465,
      "ĠphÃ´i": 7466,
      "ĠVIá»ĨT": 7467,
      "ĠAud": 7468,
      "Ġduá»Ĺi": 7469,
      "cÅ©ng": 7470,
      "date": 7471,
      "ĠÄĲáºŃu": 7472,
      "Ġváº¡t": 7473,
      "ĠCÃ¡m": 7474,
      "Ġhoc": 7475,
      "orth": 7476,
      "ika": 7477,
      "chool": 7478,
      "ĠAFP": 7479,
      "ghan": 7480,
      "ĠVingroup": 7481,
      "ĠMÃły": 7482,
      "ĠThao": 7483,
      "ĠtuÃ´n": 7484,
      "ĠFrancis": 7485,
      "ĠHel": 7486,
      "Ġrad": 7487,
      "ĠRoy": 7488,
      "Tháº§n": 7489,
      "Ġláº©u": 7490,
      "ĠNat": 7491,
      "ĠSol": 7492,
      "ĠÃģp": 7493,
      "Ġhá»Ļt": 7494,
      "âĢľCÃ³": 7495,
      "ĠcÃ¡u": 7496,
      "Ġngá»§i": 7497,
      "ser": 7498,
      "ĠxoÃ¡": 7499,
      "uck": 7500,
      "!âĢĿ.": 7501,
      "71": 7502,
      "khÃ¡": 7503,
      "Ġsáº¡m": 7504,
      "ĠCháº¥p": 7505,
      "mÃł": 7506,
      "Ġlá»¯": 7507,
      "Ġbáº£": 7508,
      "alog": 7509,
      "ĠXÃł": 7510,
      "ĠObject": 7511,
      "Chuáº©n": 7512,
      "ĬCH": 7513,
      "ĠngÆ°á»Ľc": 7514,
      "ĠrÄĥn": 7515,
      "ĠBol": 7516,
      "ĠThoáº¡i": 7517,
      "ÄĲa": 7518,
      "Ġhuá»·": 7519,
      "chá»§": 7520,
      "chá»ĭ": 7521,
      "Iá»ĨU": 7522,
      "Ah": 7523,
      "ĠCáº£i": 7524,
      "ĠNhiá»ħm": 7525,
      "ĠtrÃ²ng": 7526,
      "ĠTPP": 7527,
      "ĠÐ¸": 7528,
      "Al": 7529,
      "Ġhan": 7530,
      "Ġgl": 7531,
      "Ġfull": 7532,
      "61": 7533,
      "ĠbÃłnh": 7534,
      "ĠTrÃ²": 7535,
      "ĠGames": 7536,
      "ĠEver": 7537,
      "ĠWil": 7538,
      "PhÃ¡p": 7539,
      "Ad": 7540,
      "ĠÇµ": 7541,
      "box": 7542,
      "van": 7543,
      "ĠMB": 7544,
      "ĠLá»±a": 7545,
      "zu": 7546,
      "Ġtphcm": 7547,
      "Ġváº§n": 7548,
      "ĠmÃ©o": 7549,
      "Ġbáº©y": 7550,
      "ĠnÃ£": 7551,
      "Ġnga": 7552,
      "Trá»Ł": 7553,
      "Ġop": 7554,
      "Ġoai": 7555,
      "RiÃªng": 7556,
      "shi": 7557,
      "Ġváº¯c": 7558,
      "ĠVinpearl": 7559,
      "ĠVictoria": 7560,
      "ĠÃ´i": 7561,
      "ĠhÅ©": 7562,
      "ĠTrá»¥": 7563,
      "ira": 7564,
      "TK": 7565,
      "ĠxoÃłi": 7566,
      "ĠTrÃ¡c": 7567,
      "Ġflash": 7568,
      "DC": 7569,
      "ĠLá»Ľn": 7570,
      "Danh": 7571,
      "Hay": 7572,
      "Ñĭ": 7573,
      "ĠnhÃŃch": 7574,
      "Ġtuá»Ļt": 7575,
      "ĠPháº©m": 7576,
      "ĠTá»³": 7577,
      "Háº£i": 7578,
      "ric": 7579,
      "Ġsá»į": 7580,
      "ĠChina": 7581,
      "Ġdáº«u": 7582,
      "Ġkhiáº¿m": 7583,
      "ĠRO": 7584,
      "¤C": 7585,
      "ÄĲÆ¡n": 7586,
      "Tháº©m": 7587,
      "ĠXI": 7588,
      "ĠWon": 7589,
      "Ġ<": 7590,
      "ĠrÃłnh": 7591,
      "ĠquyÃªn": 7592,
      "ĠSá»Ńa": 7593,
      "Ġbiáº¿u": 7594,
      "ĠHen": 7595,
      "ĠLen": 7596,
      "ĠthÃ¬nh": 7597,
      "ĠXu": 7598,
      "ĠThoa": 7599,
      "ĠÄĲáº¥u": 7600,
      "Há»ıi": 7601,
      "ĠBangkok": 7602,
      "ĠMaster": 7603,
      "Báº¯t": 7604,
      "ye": 7605,
      "ĠAsia": 7606,
      "ĠCamera": 7607,
      "BT": 7608,
      "Ġcas": 7609,
      "Ġbalo": 7610,
      "ĠÄĳá»±c": 7611,
      "ĠLÄĲ": 7612,
      "Ġloi": 7613,
      "Ġgá»Ľm": 7614,
      "-Fi": 7615,
      "Ġmá»Ľ": 7616,
      "ghanistan": 7617,
      "Book": 7618,
      "Ġáº¯t": 7619,
      "ĠnÃŃu": 7620,
      "Ġdáº»": 7621,
      "81": 7622,
      "Cá»ĳ": 7623,
      "Ġsize": 7624,
      "Ġgoogle": 7625,
      "ĠCV": 7626,
      "ĠVisa": 7627,
      "ĠSS": 7628,
      "ĠKá»µ": 7629,
      "ĠPol": 7630,
      "ĠTá»µ": 7631,
      "ĠGeorge": 7632,
      "HA": 7633,
      "].": 7634,
      "phá»": 7635,
      "Ġtriá»ģn": 7636,
      "ĠngÃł": 7637,
      "ĠNÃºi": 7638,
      "ĠCanh": 7639,
      "ĠLÃłng": 7640,
      "ĠTel": 7641,
      "chester": 7642,
      "Ġmá»ĭt": 7643,
      "ĠÄĲáº¥y": 7644,
      "ÄĲoÃłn": 7645,
      "esh": 7646,
      "ĠJung": 7647,
      "Ġnháº¹n": 7648,
      "ĠSpa": 7649,
      "Ġsil": 7650,
      "ĠBin": 7651,
      "aga": 7652,
      "HS": 7653,
      "fi": 7654,
      "á»®": 7655,
      "Ġtáº¯n": 7656,
      "Ġmáº£i": 7657,
      "Ã³p": 7658,
      "Ġcháº¯p": 7659,
      "ĠTur": 7660,
      "ĠNáº±m": 7661,
      "ĠSÆ°Æ¡ng": 7662,
      "Ġtrá»ĩ": 7663,
      "ather": 7664,
      "ĠBL": 7665,
      "eep": 7666,
      "ĠBal": 7667,
      "PhiÃªn": 7668,
      "!âĢĿ.Ċ": 7669,
      "Ġá»ĵ": 7670,
      "Ġnung": 7671,
      "Ġhá»©c": 7672,
      "ĠPat": 7673,
      "Press": 7674,
      "Ġtáº£o": 7675,
      "ĠmÃŃt": 7676,
      "ĠrÃ¹ng": 7677,
      "ĠSur": 7678,
      "aily": 7679,
      "ATO": 7680,
      "ĠthÃ²i": 7681,
      "Bá»ĳ": 7682,
      "Sáº½": 7683,
      "Ġláº³ng": 7684,
      "ĠtrÃ³c": 7685,
      "Ġnáº¡o": 7686,
      "Ġpart": 7687,
      "ĠChá»ĳng": 7688,
      "ĠNhuáºŃn": 7689,
      "PC": 7690,
      "ius": 7691,
      "ĠPR": 7692,
      "Äĳá»ĳi": 7693,
      "Ġnhá»ĳt": 7694,
      "Ġpass": 7695,
      "ĠÄĳÃ³a": 7696,
      "pháº£i": 7697,
      "ĠAfghanistan": 7698,
      ".g": 7699,
      "Quá»ĳc": 7700,
      "ĠÆł": 7701,
      "Trá»Ŀi": 7702,
      "PhÃŃa": 7703,
      "ĠYoung": 7704,
      "otel": 7705,
      "Ġnguyá»ģn": 7706,
      "Ġchan": 7707,
      "ĠCoc": 7708,
      "ĠMun": 7709,
      "ĠÐ½": 7710,
      "ling": 7711,
      "pro": 7712,
      "ĠÃ¹n": 7713,
      "ĠnÆ°á»Ľu": 7714,
      "ĠHung": 7715,
      "ĠLá»ĩnh": 7716,
      "ĠThÃ¬n": 7717,
      "ĠInf": 7718,
      "USD": 7719,
      "Ġcontainer": 7720,
      "89": 7721,
      "Ġmet": 7722,
      "Ġins": 7723,
      "ÄĤNG": 7724,
      "rit": 7725,
      "á»£i": 7726,
      "ĠcÆ°a": 7727,
      "ĠPin": 7728,
      "Cl": 7729,
      "Ġtáº»": 7730,
      "iger": 7731,
      "Ġsite": 7732,
      "Ġgiáº§y": 7733,
      "ĠGa": 7734,
      "HO": 7735,
      "Ġmake": 7736,
      "ĠDá»±a": 7737,
      "ĠÃĢ": 7738,
      "other": 7739,
      "ĠtÆ¡i": 7740,
      "Ġlá»±u": 7741,
      "ĠngÃ²i": 7742,
      "ĠNháºŃp": 7743,
      "ĠUp": 7744,
      "ander": 7745,
      "Ġmore": 7746,
      "ĠTáº¥m": 7747,
      "ĠNhanh": 7748,
      "ets": 7749,
      "ĠGioan": 7750,
      "pa": 7751,
      "Ġcháº§m": 7752,
      "ĠTuáº¥t": 7753,
      "ĠÄĳÃ´la": 7754,
      "ĠInternational": 7755,
      "MÃłn": 7756,
      "Ġvá»¥ng": 7757,
      "Ġfol": 7758,
      "Ġnhá»Ľt": 7759,
      "ÄĤN": 7760,
      "Bá»įn": 7761,
      "DL": 7762,
      "Ġphao": 7763,
      "emon": 7764,
      "ÄĲÃ¡ng": 7765,
      "ĠkÃŃp": 7766,
      ".f": 7767,
      "ze": 7768,
      "Ġkali": 7769,
      "ĠÄĲÃ´n": 7770,
      "ĠMourinho": 7771,
      "ĠKon": 7772,
      "ĠThomas": 7773,
      "rogen": 7774,
      "ĠKhiÃªm": 7775,
      "ahoo": 7776,
      "ĠTÃ³c": 7777,
      "ĠTAND": 7778,
      "aco": 7779,
      "BQ": 7780,
      "Kiá»ĥm": 7781,
      "ÄĲáº¡o": 7782,
      "ago": 7783,
      "ĠKhá»ĳi": 7784,
      "ĠHollywood": 7785,
      "KÃŃch": 7786,
      "Ġsáº¯n": 7787,
      "Ġxui": 7788,
      "ĠHit": 7789,
      "ĠMS": 7790,
      "ÄĲÃ´ng": 7791,
      "ĠTá»«ng": 7792,
      "bps": 7793,
      "list": 7794,
      "Ġgáº£": 7795,
      "ĠHÆ°": 7796,
      "ĠVol": 7797,
      "ĠMen": 7798,
      "!!!Ċ": 7799,
      "Láº¡c": 7800,
      "ĠQL": 7801,
      "anta": 7802,
      "giá»Ŀ": 7803,
      "MÃ£": 7804,
      "ĠrÃªu": 7805,
      "Ġwho": 7806,
      "ĠItalia": 7807,
      "Ġcá»Ļi": 7808,
      "Ġcat": 7809,
      "Ġkháº¿": 7810,
      "ĠFire": 7811,
      "combank": 7812,
      "ĠvÃµng": 7813,
      "ĠOffice": 7814,
      "VÃ¢n": 7815,
      "red": 7816,
      "ĠtÃ£": 7817,
      "ĠÄĲen": 7818,
      "ĠSi": 7819,
      "âĢľNgÆ°Æ¡i": 7820,
      "189": 7821,
      "Ġkhang": 7822,
      "ĠVá»ĳn": 7823,
      "ĠTráºŃn": 7824,
      "ĠColl": 7825,
      "UYÃĬN": 7826,
      "ĠtrÃ¡m": 7827,
      "Ġráº«y": 7828,
      "ĠThá»¥c": 7829,
      "ĠId": 7830,
      "ury": 7831,
      "thÃłnh": 7832,
      "ĠsÃ²ng": 7833,
      "ĠMobifone": 7834,
      "háº¿": 7835,
      "arg": 7836,
      "ĠChÆ¡i": 7837,
      "LIN": 7838,
      "Phi": 7839,
      "rÃ´": 7840,
      "ĠtÃ²i": 7841,
      "Ġtráº·c": 7842,
      "Ġper": 7843,
      "ĠVC": 7844,
      "ĠVÃłi": 7845,
      "ĠThiÃªm": 7846,
      "ĠBÃłng": 7847,
      "ĠPost": 7848,
      "ĠFan": 7849,
      "ivia": 7850,
      "©n": 7851,
      "Ġcháº±ng": 7852,
      "ĠNáº¥m": 7853,
      "thu": 7854,
      "ĠBarca": 7855,
      "ĠBluetooth": 7856,
      "Ġmag": 7857,
      "ĠDon": 7858,
      "ĠNhiá»ĩm": 7859,
      "ÃĶI": 7860,
      "ĠThai": 7861,
      "Ġkhoáº¯n": 7862,
      "TrÃ¡i": 7863,
      "Ġav": 7864,
      "ĠHá»ıi": 7865,
      "Ġnet": 7866,
      "ĠCentral": 7867,
      "ĠInstagram": 7868,
      "Long": 7869,
      "Ġnhá»£t": 7870,
      "ÃĢNH": 7871,
      "ĠkÃ¬a": 7872,
      "Ġcotton": 7873,
      "Ġsl": 7874,
      "ĠnÄĥn": 7875,
      "ĠBáº¿p": 7876,
      "ĠLum": 7877,
      "ents": 7878,
      "170": 7879,
      "aint": 7880,
      "ThÃ¬": 7881,
      ".G": 7882,
      "86": 7883,
      "NV": 7884,
      "ĠCÃĵ": 7885,
      "ĠChá»ĵng": 7886,
      "trÃªn": 7887,
      "ape": 7888,
      "ealand": 7889,
      "ĠNgá»¥y": 7890,
      "mail": 7891,
      "á»ª": 7892,
      "ĠÄĳÃ¹ng": 7893,
      "ĠMP": 7894,
      "ĠLÄ©nh": 7895,
      "á»ĲC": 7896,
      "%/": 7897,
      "Ġtoa": 7898,
      "ĠBank": 7899,
      "ĠPeter": 7900,
      "Ġol": 7901,
      "Ġmg": 7902,
      "ĠCá»±u": 7903,
      "ĠChÃło": 7904,
      "led": 7905,
      "ChÃ¢n": 7906,
      "AA": 7907,
      "MÃ³n": 7908,
      "less": 7909,
      "Ġden": 7910,
      "ĠMus": 7911,
      "ĠTrá»±c": 7912,
      "ÄĲá»Ļng": 7913,
      "Ġkhoanh": 7914,
      "Má»Ł": 7915,
      "vel": 7916,
      "ĠJenn": 7917,
      "/NÄĲ": 7918,
      "NgÃ´i": 7919,
      "...\"Ċ": 7920,
      "organ": 7921,
      "VI": 7922,
      "ĠBre": 7923,
      "ĠRá»Ńa": 7924,
      "ĠTÃło": 7925,
      "ĠTÆ°á»£ng": 7926,
      "ĠNÃło": 7927,
      "Ġtoáº£": 7928,
      "ĠNhiá»ĩt": 7929,
      "house": 7930,
      "ĠquÃ½t": 7931,
      "ĠDVD": 7932,
      "76": 7933,
      "ĠCR": 7934,
      "ĠMer": 7935,
      "ĠRy": 7936,
      "Ġcá»¥t": 7937,
      "ĠÐ¾": 7938,
      "Giá»ĳng": 7939,
      "Ġsexy": 7940,
      "bl": 7941,
      "Ġvest": 7942,
      "Ġbáº§n": 7943,
      "ager": 7944,
      "NghiÃªn": 7945,
      "(Theo": 7946,
      "OC": 7947,
      "Ġháº¥t": 7948,
      "ĠTáº§m": 7949,
      "ĠKo": 7950,
      "Ġnáº¯n": 7951,
      "ĠÄĲoáº¡n": 7952,
      "ĠÃĶi": 7953,
      "Diá»ħn": 7954,
      "hai": 7955,
      "inal": 7956,
      "Ġvá»¥t": 7957,
      "ĠDoÃ£n": 7958,
      "hone": 7959,
      "ĠáºŃp": 7960,
      "ĠTáº£i": 7961,
      "ĠThá»Ń": 7962,
      "ĠPhÃ³ng": 7963,
      "ĠKhoáº£n": 7964,
      "ELTS": 7965,
      "Ġjeans": 7966,
      "jet": 7967,
      "Ġnháº§y": 7968,
      "ĠVat": 7969,
      "ĠWh": 7970,
      "Táº§n": 7971,
      "ĠhÃ¹": 7972,
      "ĠLCD": 7973,
      "ĠDáºŃu": 7974,
      "ĠHoáº¯c": 7975,
      "ĠCá»§": 7976,
      "Ġtime": 7977,
      "Nghá»ĩ": 7978,
      "):Ċ": 7979,
      "tin": 7980,
      "Ġrec": 7981,
      "ĠMÆ°á»Ŀng": 7982,
      "ĠYoutube": 7983,
      "ovo": 7984,
      "Æ¯á»¢C": 7985,
      "á»¨ng": 7986,
      "ĠsÆ°a": 7987,
      "ĠÄĲá»©ng": 7988,
      "Lá»ĭch": 7989,
      "ĠPakistan": 7990,
      "Há»ĵng": 7991,
      "ĠnhÃµm": 7992,
      "ĠMá»ħ": 7993,
      "ĠHá»įa": 7994,
      "ĠTÃ½": 7995,
      "hic": 7996,
      "ĠPremier": 7997,
      "tÃªn": 7998,
      "Ġquáº§ng": 7999,
      "ĠMir": 8000,
      "ict": 8001,
      "ulin": 8002,
      "Ġghe": 8003,
      "Tube": 8004,
      "Ġnem": 8005,
      "ĠVÃ²ng": 8006,
      "ĠÄĲá»ģn": 8007,
      "ĠTHU": 8008,
      "á¹": 8009,
      "Ġmoi": 8010,
      "Ġhá»Ŀn": 8011,
      "ala": 8012,
      "Æ¯á»ļC": 8013,
      "cow": 8014,
      "Ġpiano": 8015,
      "anel": 8016,
      "Ġ->": 8017,
      "Giá»¯a": 8018,
      "KhÃ¡c": 8019,
      "sinh": 8020,
      "Ġcá»ĵng": 8021,
      "ĠZealand": 8022,
      "ĠGe": 8023,
      "73": 8024,
      "Ġmáº¡t": 8025,
      "ĠbÃŃt": 8026,
      "ĠngÃ¡y": 8027,
      "Ġxá»Ļn": 8028,
      "ĠNgáº¡o": 8029,
      "83": 8030,
      "Ġsáº«m": 8031,
      "ĠphÆ°á»£t": 8032,
      "ĠDáºŃt": 8033,
      "ĠHá»ĮC": 8034,
      "ĠHuáº¥n": 8035,
      "999": 8036,
      "%Ċ": 8037,
      "ru": 8038,
      "vÃŃ": 8039,
      "ĠngÃ³ng": 8040,
      "ĠXH": 8041,
      "Mai": 8042,
      "PA": 8043,
      "ĠbÃ¹a": 8044,
      "Ġnáº·n": 8045,
      "Ġhat": 8046,
      "Ġsá»¥c": 8047,
      "094": 8048,
      "ĠHarry": 8049,
      "Iá»ĢU": 8050,
      "nho": 8051,
      "ĠngÃ³i": 8052,
      "ĠrÆ¡m": 8053,
      "ĠtÃŃt": 8054,
      "ĠFI": 8055,
      "ĠYam": 8056,
      "star": 8057,
      "ĠCSGT": 8058,
      "Ra": 8059,
      "ms": 8060,
      "td": 8061,
      "Ġhis": 8062,
      "ĠAh": 8063,
      "***": 8064,
      "ĠKhuÃª": 8065,
      "win": 8066,
      "ĠNhÆ°á»¡ng": 8067,
      "iga": 8068,
      "ChÃºa": 8069,
      "Ġlogic": 8070,
      "ĠSuzuki": 8071,
      "ĠArgentina": 8072,
      "?âĢĿ,": 8073,
      "QL": 8074,
      "ĠCÃ¡nh": 8075,
      "TrÆ°Æ¡ng": 8076,
      "Äĳá»ĵng": 8077,
      "appy": 8078,
      "Ġáº¡t": 8079,
      "ken": 8080,
      "ĠThÃºc": 8081,
      "ĠFlor": 8082,
      "ĠKangnam": 8083,
      "Ġxiáº¿t": 8084,
      "Ġmá»įng": 8085,
      "ĠLi": 8086,
      "ĠDong": 8087,
      "ĠZen": 8088,
      "365": 8089,
      "ique": 8090,
      "Ġváº£y": 8091,
      "ĠÄĲá»ĺ": 8092,
      "Chung": 8093,
      "Kiá»ĥu": 8094,
      "Sh": 8095,
      "tÆ°Æ¡ng": 8096,
      "ĠtÌģnh": 8097,
      "ThÆ°": 8098,
      "ĠOl": 8099,
      "TE": 8100,
      "ĠtÃ¬": 8101,
      "ĠNN": 8102,
      "ĠMÃ£o": 8103,
      "Ġhosting": 8104,
      "Ar": 8105,
      "Ġá»ĳ": 8106,
      "ĠAC": 8107,
      "Äĳáº¡i": 8108,
      "Báº£ng": 8109,
      "den": 8110,
      "ĠkÃ¨": 8111,
      "ÃŃp": 8112,
      "wa": 8113,
      "ĠPlaza": 8114,
      "ĠManchester": 8115,
      "Káº¿": 8116,
      "dex": 8117,
      "Ġyá»ĥ": 8118,
      "alth": 8119,
      "ĠGiuse": 8120,
      ".U": 8121,
      "ait": 8122,
      "ĠGÃ£": 8123,
      "Ġ\"Ċ": 8124,
      "ĠJul": 8125,
      "HÃ£ng": 8126,
      "cc": 8127,
      "Ġvali": 8128,
      "ĠBiáº¿n": 8129,
      "Ġsá»¡": 8130,
      "ÃĤM": 8131,
      "Ġteam": 8132,
      "Ġbung": 8133,
      "ĠVill": 8134,
      "ĠPay": 8135,
      "ĠEco": 8136,
      "ĠKhuyáº¿n": 8137,
      "ThÃ´i": 8138,
      "Nhá»Ľ": 8139,
      "ĠquÄĥng": 8140,
      "ĠVáº¤N": 8141,
      "ĠAI": 8142,
      "Game": 8143,
      "ĠmÃ¡ch": 8144,
      "Ġmáº©u": 8145,
      "Ġsty": 8146,
      "Ġbá»©t": 8147,
      "ĠDiÃªm": 8148,
      "ĠIELTS": 8149,
      "ĠOm": 8150,
      "âĢĻ.": 8151,
      "Tá»Ń": 8152,
      "Ãī": 8153,
      "101": 8154,
      "Ġ_": 8155,
      "ĠvÆ¡i": 8156,
      "Ġblock": 8157,
      "ĠTrÃ£i": 8158,
      "Ġá»ıi": 8159,
      "Tráº£i": 8160,
      "Ġtá»§i": 8161,
      "á»®NG": 8162,
      "Há»Ĺ": 8163,
      "Ġshowroom": 8164,
      "Kem": 8165,
      "¢y": 8166,
      "ĠnhÃ¡": 8167,
      "Ġmá»©t": 8168,
      "128": 8169,
      "Ġá»ķng": 8170,
      "Ġblogger": 8171,
      "NghÄ©": 8172,
      "CÃĶNG": 8173,
      "Uá»ĳng": 8174,
      "Ngoáº¡i": 8175,
      "Ġkhá»ıa": 8176,
      "uman": 8177,
      "Ġserver": 8178,
      "DÃ²ng": 8179,
      "tu": 8180,
      "Ġpháº£ng": 8181,
      "ĠBáºłN": 8182,
      "ĠBarack": 8183,
      "ÃĻNG": 8184,
      "ĠUniversity": 8185,
      ",...Ċ": 8186,
      "Pro": 8187,
      "ness": 8188,
      "ĠnÃ´i": 8189,
      "ÄĲÆ°Æ¡ng": 8190,
      "Ġluá»ĵn": 8191,
      "Ġtua": 8192,
      "/v": 8193,
      "Ká»¹": 8194,
      "thi": 8195,
      "xx": 8196,
      "Ġneo": 8197,
      "ĠNLÄĲ": 8198,
      "ĠUng": 8199,
      "ĠThá»ĭt": 8200,
      "\"TÃ´i": 8201,
      ",..": 8202,
      "Ġgym": 8203,
      "ĠTrans": 8204,
      "Nháº±m": 8205,
      "ista": 8206,
      "tions": 8207,
      "Ġamin": 8208,
      "Ġrem": 8209,
      "Ġxáº¥p": 8210,
      "Lá»±a": 8211,
      "ĠgÆ°á»£ng": 8212,
      "Ġpar": 8213,
      "ĠStre": 8214,
      "qua": 8215,
      "ĠMáº«n": 8216,
      "amine": 8217,
      "ĠLos": 8218,
      "ĠRem": 8219,
      "wei": 8220,
      "Ġshort": 8221,
      "ĠNoel": 8222,
      "ĠMoscow": 8223,
      "zo": 8224,
      "Ġtiáº¿u": 8225,
      "ĠRep": 8226,
      "ĠLux": 8227,
      "ĠtÃºm": 8228,
      "ekong": 8229,
      "ĠLip": 8230,
      "203": 8231,
      "thÆ°á»Ŀng": 8232,
      "Ġstart": 8233,
      "burg": 8234,
      "82": 8235,
      "ĠxÃ²e": 8236,
      "ĠÄĲá»ĵn": 8237,
      "Ġsá»§a": 8238,
      "/phÃ": 8239,
      "Pl": 8240,
      "Ġap": 8241,
      "ĠkhÄĥng": 8242,
      "ĠTráº£i": 8243,
      "ĠDuyá»ĩt": 8244,
      "ĠÃĲáº¡i": 8245,
      "ugin": 8246,
      "ĠCenter": 8247,
      "ret": 8248,
      "Ġline": 8249,
      "ĠBas": 8250,
      "Ġá»ª": 8251,
      "Ġmá»įt": 8252,
      "âĢľNáº¿u": 8253,
      "Ġoáº£i": 8254,
      "ÄĳÆ°á»Ŀng": 8255,
      "ĠkhÃłn": 8256,
      "uri": 8257,
      "ĠOk": 8258,
      "Iáº¾N": 8259,
      "Dáº§u": 8260,
      "brid": 8261,
      "ĠbáºŃy": 8262,
      "Ġnháº½": 8263,
      "ĠrÃ¢m": 8264,
      "quáºŃn": 8265,
      "ĠBÆ°u": 8266,
      "ĠAT": 8267,
      "ĠGÃł": 8268,
      "âĢĻĊ": 8269,
      "74": 8270,
      "Sá»¯a": 8271,
      "Ġhá»ħ": 8272,
      "ĠCá»±": 8273,
      "ĠbÃ¨o": 8274,
      "ĠPhaolÃ´": 8275,
      "Dáº¡": 8276,
      "Ġcal": 8277,
      "Ġváº©n": 8278,
      "ĠxÃ¹": 8279,
      "ĠÄĲo": 8280,
      "ĠhÃ£n": 8281,
      "Táº¡o": 8282,
      "ĠCle": 8283,
      "inger": 8284,
      "ages": 8285,
      "ĠStore": 8286,
      "ĠKhÃ³a": 8287,
      "BÃ©": 8288,
      "gan": 8289,
      "ĠTK": 8290,
      "Ġtá»ģ": 8291,
      "TCK": 8292,
      "Ġsáº£o": 8293,
      "Ġbá»į": 8294,
      "ĠFu": 8295,
      "ĠÃ¡t": 8296,
      "Ġtháº¡c": 8297,
      "Ġphá»ĵn": 8298,
      "-TT": 8299,
      "nect": 8300,
      "Ġsáº¥m": 8301,
      "ĠJean": 8302,
      "TB": 8303,
      "XB": 8304,
      "Ġ~": 8305,
      "ĠvÃªnh": 8306,
      "Ġhá»Ŀ": 8307,
      "ady": 8308,
      "Ġour": 8309,
      "UR": 8310,
      "ĠvÃ©t": 8311,
      "ĠphÃ¨n": 8312,
      "ĠRáºŃp": 8313,
      "ĠFed": 8314,
      "ĠKhÃºc": 8315,
      "ĠÂ·": 8316,
      "enser": 8317,
      "dy": 8318,
      "right": 8319,
      "há»ģ": 8320,
      "ĠmÃ¨": 8321,
      "ĠTÃ¡o": 8322,
      "ĠVo": 8323,
      "ift": 8324,
      "ĠAndre": 8325,
      "ĠTá»Ļi": 8326,
      "-G": 8327,
      "FI": 8328,
      "Ġdáº§y": 8329,
      "ĠNgá»ĵi": 8330,
      "âĢľM": 8331,
      "Ġmon": 8332,
      "ĠPhone": 8333,
      "ĠVá»Ģ": 8334,
      "ettings": 8335,
      "crip": 8336,
      "Ġiphone": 8337,
      "yo": 8338,
      "ĠSA": 8339,
      "ĠBá»©c": 8340,
      "ĠÄĳÃły": 8341,
      "Ġsup": 8342,
      "ĠNgÃłnh": 8343,
      "ĠCollagen": 8344,
      "ĠÄĳay": 8345,
      "ĠSum": 8346,
      "NgÃłi": 8347,
      "âĢľVáºŃy": 8348,
      "ĠsuÃ´n": 8349,
      "/QÄĲ": 8350,
      "Cung": 8351,
      "aa": 8352,
      "ior": 8353,
      "esus": 8354,
      "ĠDá»¥ng": 8355,
      "Æ¯á»ľI": 8356,
      "chen": 8357,
      "ÄĲau": 8358,
      "ĠGiáº£ng": 8359,
      "ĠLouis": 8360,
      "ĠBMW": 8361,
      "024": 8362,
      "NS": 8363,
      "ĠcÃ¹": 8364,
      "Ġnáº¡t": 8365,
      "Ġvn": 8366,
      "ĠquÃ¢y": 8367,
      "ĠVer": 8368,
      "ĠVÄĲ": 8369,
      "ĠTá»Ľ": 8370,
      "board": 8371,
      "92": 8372,
      "âĺ": 8373,
      "Ġvun": 8374,
      "quan": 8375,
      "ÃģN": 8376,
      "ĠStart": 8377,
      "Ġlives": 8378,
      "ĠdiÃªm": 8379,
      "ĠTab": 8380,
      "123": 8381,
      "Kháº£": 8382,
      "chÆ°a": 8383,
      "ĠDÃ£": 8384,
      "-ng": 8385,
      "Ġdá»Ļt": 8386,
      "ĠOce": 8387,
      "XuÃ¢n": 8388,
      "ban": 8389,
      "nhÃ¢n": 8390,
      "ĠVai": 8391,
      "ĠVáº¥p": 8392,
      "ĠSáº¯t": 8393,
      "ĠAR": 8394,
      "uawei": 8395,
      "ÃĬU": 8396,
      "ĠAPEC": 8397,
      "ute": 8398,
      "ĠÄĲÆ°a": 8399,
      "ĠhoÃ¡n": 8400,
      "ĠTra": 8401,
      "ĠAuto": 8402,
      "XÃ¢y": 8403,
      "gy": 8404,
      "ĺT": 8405,
      "ĠtÆ°ng": 8406,
      "ĠthuyÃªn": 8407,
      "ĠÄĳá»Ĺi": 8408,
      "cha": 8409,
      "ĠNhÃłn": 8410,
      "Äĳáº·c": 8411,
      "count": 8412,
      "Ġseries": 8413,
      "gar": 8414,
      "nal": 8415,
      "tis": 8416,
      "ĠHyun": 8417,
      "ĠvÃºt": 8418,
      "Ġláº§y": 8419,
      "Ġnháº£": 8420,
      "Ġsub": 8421,
      "ĠMid": 8422,
      "ĠSapa": 8423,
      "oshop": 8424,
      "ĠHá»£i": 8425,
      "¤NG": 8426,
      "ĠvÃŃt": 8427,
      "ĠphÃło": 8428,
      "ĠPok": 8429,
      "ĠGiÃ³": 8430,
      "ĠkÃ©n": 8431,
      "ĠAnt": 8432,
      "ĠThuá»·": 8433,
      "ĠCÄĲV": 8434,
      "OV": 8435,
      "VÃłi": 8436,
      "nÃ³i": 8437,
      "Ġbody": 8438,
      "ĠnhÃ¨": 8439,
      "Ġdáº§m": 8440,
      "ÄĲá»Ļ": 8441,
      "ThÃº": 8442,
      "MI": 8443,
      "ĠLÃ´": 8444,
      "247": 8445,
      "thá»±c": 8446,
      "Ġkn": 8447,
      "Ġsáº£y": 8448,
      "ĠDá»ħ": 8449,
      "cÃ¡ch": 8450,
      "Ġtáº¥c": 8451,
      "Ġláº«m": 8452,
      "Ġthá»«ng": 8453,
      "ĠBÃŃnh": 8454,
      "ĠMur": 8455,
      "ĠMekong": 8456,
      "inc": 8457,
      "ĠRÄĥng": 8458,
      "fl": 8459,
      "Ġnick": 8460,
      "ĠCast": 8461,
      "ĠLeg": 8462,
      "ĠráºŃp": 8463,
      "Ġráº§y": 8464,
      "ĠSuy": 8465,
      "ĠGáº·p": 8466,
      "ĠGlo": 8467,
      "eland": 8468,
      "!!Ċ": 8469,
      "ĠgiÆ°Æ¡ng": 8470,
      "ĠNgá»±": 8471,
      "Ġvir": 8472,
      "Ġhá»ķi": 8473,
      "Hi": 8474,
      "Ġ>>": 8475,
      "Ġrá»įi": 8476,
      "ĠVene": 8477,
      "TrÃł": 8478,
      "ender": 8479,
      "ĠMytour": 8480,
      "dotel": 8481,
      "uynh": 8482,
      "Ġphá»ī": 8483,
      "ĠRang": 8484,
      "Ġtráº»o": 8485,
      "ĠMilan": 8486,
      "Ġ%": 8487,
      "Ġchao": 8488,
      "ĠBook": 8489,
      "ĠâĢ¢": 8490,
      "Giá»įng": 8491,
      "Ġguitar": 8492,
      ".)Ċ": 8493,
      "cÆ¡": 8494,
      "Ġá»Ńng": 8495,
      "itor": 8496,
      "Ġsoc": 8497,
      "ĠSá»Ĳ": 8498,
      "Biá»ĥu": 8499,
      "ĠSak": 8500,
      "-N": 8501,
      "du": 8502,
      "ision": 8503,
      "ĠHOT": 8504,
      "Ġpeople": 8505,
      "ĠHal": 8506,
      "ution": 8507,
      "Giang": 8508,
      "Giáº£m": 8509,
      "ĠÃļt": 8510,
      "mon": 8511,
      "ÃĴ": 8512,
      "âĻ": 8513,
      "ĠcÃ¢m": 8514,
      "hÃª": 8515,
      "ĠCÃģC": 8516,
      "ĠPaste": 8517,
      "no": 8518,
      "Äģ": 8519,
      "Ġdáº±n": 8520,
      "ĠBy": 8521,
      "ĠTháº»": 8522,
      "ĠOS": 8523,
      "ÄĳÃ¢y": 8524,
      "ĠVatican": 8525,
      "GD": 8526,
      "Sá»ĳng": 8527,
      "vo": 8528,
      "NgÃ¢n": 8529,
      "Ġoanh": 8530,
      "ston": 8531,
      "LA": 8532,
      "Ġváº©y": 8533,
      "Ġmáº¥u": 8534,
      "Ġseo": 8535,
      "Ġher": 8536,
      "Ġdep": 8537,
      "ĠView": 8538,
      "ĠtÃŃa": 8539,
      "ĠNhiáº¿p": 8540,
      "ĠJer": 8541,
      "ĠÄĳong": 8542,
      "ĠÄĲá»ķi": 8543,
      "ĠRos": 8544,
      "phen": 8545,
      "ĠCHÃļ": 8546,
      "ĠliÃªu": 8547,
      "Ġmin": 8548,
      "ĠsÃ²": 8549,
      "ĠXa": 8550,
      "GiÃ¡m": 8551,
      "order": 8552,
      "eek": 8553,
      "ĠlÃ¹n": 8554,
      "Ġki": 8555,
      "Ġrep": 8556,
      "chain": 8557,
      "ĠÄĲÃ¡m": 8558,
      "ĠDÆ°á»Ŀng": 8559,
      "ĠGH": 8560,
      "ĠGá»įi": 8561,
      "uma": 8562,
      "khÃ³": 8563,
      "pi": 8564,
      "ĠlÃºt": 8565,
      "Ġngao": 8566,
      "ĠNV": 8567,
      "ĠSÃłn": 8568,
      "Ġbá»ĭnh": 8569,
      "ĠFB": 8570,
      "ĠFLC": 8571,
      "ĠOK": 8572,
      "riend": 8573,
      "ÃĶi": 8574,
      "Doanh": 8575,
      "/tu": 8576,
      "Top": 8577,
      "VÃ´": 8578,
      "sáº½": 8579,
      "ieng": 8580,
      "Bá»©c": 8581,
      "ĠngÃ¡c": 8582,
      "ĠCáº¥u": 8583,
      "âĢĿ;": 8584,
      "ĠDig": 8585,
      "ĠVNPT": 8586,
      "ĠdÃ¬u": 8587,
      ",m": 8588,
      "Ġlá»ĳc": 8589,
      "Ġsá»Ļ": 8590,
      "ĠÄĲÃ¢u": 8591,
      "Ġrá»§a": 8592,
      "ugh": 8593,
      "028": 8594,
      "GA": 8595,
      "ys": 8596,
      "ĠmÆ°á»Ľt": 8597,
      "Ġhand": 8598,
      "ĠQH": 8599,
      "ĠPhot": 8600,
      "ots": 8601,
      "Giai": 8602,
      "sá»ĳ": 8603,
      "yle": 8604,
      "ĠHim": 8605,
      "eda": 8606,
      "ĠPhil": 8607,
      "ights": 8608,
      "ĠnÃ²ng": 8609,
      "Ġgiá»¡n": 8610,
      "ĠKia": 8611,
      "Ġngá»«": 8612,
      "Ġwork": 8613,
      "ÄĲá»©ng": 8614,
      "itsub": 8615,
      "ctor": 8616,
      "Ġmat": 8617,
      "Ġmel": 8618,
      "ĠnÃŃn": 8619,
      "ĠNATO": 8620,
      "ĠHouse": 8621,
      "bert": 8622,
      "NÃ¢ng": 8623,
      "Ġur": 8624,
      "ĠDom": 8625,
      "ĠYoo": 8626,
      "reg": 8627,
      "ĠTuyáº¿n": 8628,
      "ĠNov": 8629,
      "Ġtá»ĩp": 8630,
      "Gá»Ńi": 8631,
      "Liá»ĩu": 8632,
      "ĠPu": 8633,
      "ĠHoÃ¡": 8634,
      "ĠGolden": 8635,
      "ĠLumia": 8636,
      "Bá»ĳn": 8637,
      "Berry": 8638,
      "Sá»©c": 8639,
      "XÃ©t": 8640,
      "kinh": 8641,
      "ĠÃ³ng": 8642,
      "ĠÄĳÃºt": 8643,
      "Ġnew": 8644,
      "ĠMÆ¡": 8645,
      "ĠSoc": 8646,
      "ĠThá»¥": 8647,
      "Ġtá»Ńu": 8648,
      "ĠOppo": 8649,
      "Thá»ĥ": 8650,
      "Ð´": 8651,
      "Ġláº¹": 8652,
      "ĠLáº¡ng": 8653,
      "ĠDam": 8654,
      "ublic": 8655,
      "LE": 8656,
      "ĠnghÄ©nh": 8657,
      "ĠRá»ĭa": 8658,
      "ism": 8659,
      "ister": 8660,
      "ĠchÃ³c": 8661,
      "Ġrá»ĳn": 8662,
      "ÃŃa": 8663,
      "ĠÄĲáº¯c": 8664,
      "ĠLim": 8665,
      "ĠGá»Ńi": 8666,
      "ĠRam": 8667,
      "ison": 8668,
      "ĠLá»Ĺi": 8669,
      "vi": 8670,
      "ÃĴNG": 8671,
      "ĠgÃ²n": 8672,
      "Ġdau": 8673,
      "the": 8674,
      "CÃł": 8675,
      "ĠLU": 8676,
      ".VN": 8677,
      "gin": 8678,
      "ĠbÃ¹i": 8679,
      "ĠngÃ¡ch": 8680,
      "Ġkháº£i": 8681,
      "ĠSac": 8682,
      "Ġgiá»Ĺ": 8683,
      "Ġthoi": 8684,
      "ĠhÃ³t": 8685,
      "Nháº¡c": 8686,
      "Ed": 8687,
      "áºª": 8688,
      "Ġtráº§u": 8689,
      "Ġdata": 8690,
      "ÄĲoáº¡n": 8691,
      "ĠnhoÃ¡ng": 8692,
      "Ġfanpage": 8693,
      "ĠSnap": 8694,
      "aku": 8695,
      "ashion": 8696,
      "EF": 8697,
      "cer": 8698,
      "Ġchá»ĵn": 8699,
      "ĠHaw": 8700,
      "ĠNgu": 8701,
      "ĠMá»ĩnh": 8702,
      "rolet": 8703,
      "tháº¿": 8704,
      "Ġthá»Ńa": 8705,
      "Ġthoáº¡t": 8706,
      "ÄĳÃ¡nh": 8707,
      "........": 8708,
      "ĠÄĳiáº¿m": 8709,
      "Ġláº©n": 8710,
      "ĠWik": 8711,
      "Nháº¯c": 8712,
      "áº¬P": 8713,
      "ĠCPU": 8714,
      "ĠMetro": 8715,
      "Hiá»ĥu": 8716,
      "ved": 8717,
      "ĠbÃŃch": 8718,
      "Ġdáº¥y": 8719,
      "ĠCÃ´i": 8720,
      "eme": 8721,
      "âĢľA": 8722,
      "ĠJesus": 8723,
      "Ġfe": 8724,
      "ĠTá»§": 8725,
      "ĠBá»ı": 8726,
      "Dá»±a": 8727,
      "Liá»ħu": 8728,
      "ML": 8729,
      "Ġbanh": 8730,
      "Æ°Æ¡c": 8731,
      "ĠMá»ĭ": 8732,
      "102": 8733,
      "evelop": 8734,
      "ĠTháº¡c": 8735,
      "emy": 8736,
      "ĠDub": 8737,
      "ĠJin": 8738,
      "ĠNhÃ¢m": 8739,
      "exus": 8740,
      "240": 8741,
      "Vui": 8742,
      "ĠSuá»ĳt": 8743,
      "ÃģNH": 8744,
      "ĠNá»ĶI": 8745,
      "Tuáº§n": 8746,
      "-ho": 8747,
      "-kh": 8748,
      "ring": 8749,
      "Ġtáº¡t": 8750,
      "ĠTor": 8751,
      "ival": 8752,
      "aker": 8753,
      "ĠnháºŃm": 8754,
      "thÃ¬": 8755,
      "tiáº¿ng": 8756,
      "uel": 8757,
      "ĠTrÃ¹ng": 8758,
      "Ð»Ð°": 8759,
      "********": 8760,
      "87": 8761,
      "Tam": 8762,
      "tt": 8763,
      "ĠSub": 8764,
      "ĠATM": 8765,
      "ways": 8766,
      "ĠÄĳÃ¡n": 8767,
      "Ġdem": 8768,
      "Ġpo": 8769,
      "ĠNiáº¿t": 8770,
      "ĠHÃ¨": 8771,
      "aux": 8772,
      "ĠSung": 8773,
      "ĠSho": 8774,
      "ĠDC": 8775,
      "ĠAz": 8776,
      "ĠThá»īnh": 8777,
      "Ġthey": 8778,
      "ÃģI": 8779,
      "giáº£i": 8780,
      "ÃĤm": 8781,
      "ĠLHQ": 8782,
      "Express": 8783,
      "ĠPasteur": 8784,
      "ĠÄĳáº·ng": 8785,
      "Ġbook": 8786,
      "Ġchá»¯ng": 8787,
      "ĠST": 8788,
      "ĠRá»": 8789,
      "ef": 8790,
      "Ġá»ķi": 8791,
      "Ġdáº«m": 8792,
      "ĠVH": 8793,
      "ĠVOA": 8794,
      "ĠTráº£": 8795,
      "ĠÄĲá»ĭch": 8796,
      "Ġrá»¥t": 8797,
      "105": 8798,
      "chÃŃnh": 8799,
      "Hiá»ĩu": 8800,
      "ĠTravel": 8801,
      "TrÃ¢n": 8802,
      "PháºŃt": 8803,
      "Ġtheir": 8804,
      "bour": 8805,
      "Ġteo": 8806,
      "Ġrá»£n": 8807,
      "ĠkÃ¬nh": 8808,
      "Ġháº±n": 8809,
      "Ġpol": 8810,
      "Ġrom": 8811,
      "Ġná»¡": 8812,
      "Tháº±ng": 8813,
      "...\"": 8814,
      "ĠTTXVN": 8815,
      "Ġváº§y": 8816,
      "ĠnáºŃp": 8817,
      "Ġdáº¡t": 8818,
      "Ġchang": 8819,
      "scar": 8820,
      "eague": 8821,
      "Ð²": 8822,
      "ĠuyÃªn": 8823,
      "Ġed": 8824,
      "ĠsÃłi": 8825,
      "Ġsum": 8826,
      "Ġgiá»Ł": 8827,
      "link": 8828,
      "ÃĹ": 8829,
      "Ġgiáº±ng": 8830,
      "Ġhá»ī": 8831,
      "ĠZing": 8832,
      "ĠHuynh": 8833,
      "Vietnam": 8834,
      "DN": 8835,
      "Ġgáº¯m": 8836,
      "ely": 8837,
      "thá»Ŀi": 8838,
      "ĠServer": 8839,
      "SiÃªu": 8840,
      "Ġmui": 8841,
      "Ġsáº§n": 8842,
      "Æ°Æ¡u": 8843,
      "ĠDO": 8844,
      "ĠChrome": 8845,
      "TháºŃm": 8846,
      "Ġinter": 8847,
      "Tá»§": 8848,
      "ĠRoyal": 8849,
      "Ġhon": 8850,
      "ĠTal": 8851,
      "Ġthá»ī": 8852,
      "Ġrá»ĵ": 8853,
      "ĠWall": 8854,
      "ĠvÃ©n": 8855,
      "ĠMartin": 8856,
      ".)": 8857,
      "Ġcol": 8858,
      "ĠdÆ¡": 8859,
      "ars": 8860,
      "ifer": 8861,
      "iber": 8862,
      "Ġscandal": 8863,
      "Â®": 8864,
      "Ġsuyá»ħn": 8865,
      "Ġmá»ĵng": 8866,
      "ĠAnn": 8867,
      "Da": 8868,
      "Dung": 8869,
      "ĠTáº§ng": 8870,
      "cháº¥t": 8871,
      "ĠLed": 8872,
      "ĠSEA": 8873,
      "ĠDiÃªu": 8874,
      "ĠTower": 8875,
      "ĠAsus": 8876,
      ".K": 8877,
      ".m": 8878,
      "91": 8879,
      "La": 8880,
      "ım": 8881,
      "ĠgÃ£i": 8882,
      "Ġthá»ıi": 8883,
      "ĠDragon": 8884,
      "BA": 8885,
      "Má»©c": 8886,
      "Å¨": 8887,
      "Ġuyá»ĥn": 8888,
      "ĠKT": 8889,
      "Truyá»ĩn": 8890,
      "Táº£i": 8891,
      "ĠPart": 8892,
      "ĠNgáº¡n": 8893,
      "ĠRiver": 8894,
      "ĠFree": 8895,
      "ĠYoga": 8896,
      "ĠÐº": 8897,
      "Ġxá»īn": 8898,
      ",t": 8899,
      "±a": 8900,
      "ĠHun": 8901,
      "Ġhoay": 8902,
      "ÄĲÃł": 8903,
      "ures": 8904,
      "Ġhydro": 8905,
      "ĠWilliam": 8906,
      "ĠSUV": 8907,
      "Báº¯c": 8908,
      "mark": 8909,
      "ĠnhÃºc": 8910,
      "ĠchÃłi": 8911,
      "ĠDÆ°á»¡ng": 8912,
      "cept": 8913,
      "Ġhuá»ĩ": 8914,
      "ĠTRONG": 8915,
      "ViÃªn": 8916,
      "wo": 8917,
      "xÃ£": 8918,
      "Ġag": 8919,
      "Ġnháº¡o": 8920,
      "Ġcá»įng": 8921,
      "ĠCit": 8922,
      "ĠNHáº¤T": 8923,
      "ennis": 8924,
      "âĢĶâĢĶâĢĶâĢĶâĢĶâĢĶâĢĶâĢĶ": 8925,
      "ĠAudi": 8926,
      "LINE": 8927,
      "115": 8928,
      "Ġcá»Ļ": 8929,
      "Ġá»ī": 8930,
      "ĠRec": 8931,
      "ĠShar": 8932,
      "IDS": 8933,
      "ĠCore": 8934,
      "ĠThan": 8935,
      "ĠGam": 8936,
      "ĠloÃ¡ng": 8937,
      "Ġitem": 8938,
      "vice": 8939,
      "Ġnham": 8940,
      "ĠCÃłi": 8941,
      "chu": 8942,
      "ĠDiÃªn": 8943,
      "ĠRanh": 8944,
      "ĠWifi": 8945,
      "Ġoi": 8946,
      "ĠBHTN": 8947,
      ":âĢľ": 8948,
      "cao": 8949,
      "ráº¥t": 8950,
      "uter": 8951,
      "ĠBáº¬T": 8952,
      "Ġsk": 8953,
      "ati": 8954,
      "khá»§ng": 8955,
      "ĠTá»ĵn": 8956,
      "âĢĿ-": 8957,
      "ÄĲáº¥t": 8958,
      "ito": 8959,
      "Äĳáº§u": 8960,
      "ĠFrank": 8961,
      "',": 8962,
      "Vá»ĳn": 8963,
      "ful": 8964,
      "ĠÑĤ": 8965,
      "Ġnháºµn": 8966,
      "Ġhá»·": 8967,
      "ĠxÃŃt": 8968,
      "chuyá»ĩn": 8969,
      "âĢ¦..": 8970,
      "ĠPha": 8971,
      "ove": 8972,
      "ĠColor": 8973,
      "/tuáº§n": 8974,
      "Sáº¯c": 8975,
      "hiá»ĩn": 8976,
      "por": 8977,
      "Ġ@": 8978,
      "ĠTi": 8979,
      "tháº§n": 8980,
      "ĠBá»ķn": 8981,
      "-K": 8982,
      "há»Ļ": 8983,
      "Ġcháº¯t": 8984,
      "Tháº£o": 8985,
      "ĠOut": 8986,
      "Ġxuá»ĵng": 8987,
      "ĠDá»¤NG": 8988,
      "750": 8989,
      "RP": 8990,
      "nÆ°á»Ľc": 8991,
      "Æ¯T": 8992,
      "LÄĥng": 8993,
      "Láº¡y": 8994,
      "Ġvá»¯a": 8995,
      "ĠMeg": 8996,
      "Ġhoáº£": 8997,
      "ĠKTS": 8998,
      "itz": 8999,
      "Ġvá»ĩt": 9000,
      "ious": 9001,
      "ĠClick": 9002,
      "Ġá»Ĳc": 9003,
      "UN": 9004,
      "áº¸": 9005,
      "Ġdiá»ģu": 9006,
      "ĠYahoo": 9007,
      "ĠMotor": 9008,
      "ology": 9009,
      "\"KhÃ´ng": 9010,
      "há»įc": 9011,
      "ĠTon": 9012,
      "ĠhÃ©o": 9013,
      "ĠHoáº±ng": 9014,
      "ÃĢNG": 9015,
      "evrolet": 9016,
      "ĠBlue": 9017,
      "ĠHuawei": 9018,
      "ĠGel": 9019,
      "ĠcÃłn": 9020,
      "Ġgang": 9021,
      "ĠTÆ°á»Ľc": 9022,
      "Ġadd": 9023,
      "ĠCharl": 9024,
      "ĠlÃ¡o": 9025,
      "Ġkey": 9026,
      "ĠrÃ¡ng": 9027,
      "ĠMÄ©": 9028,
      "ĠDaily": 9029,
      "Nháº¥t": 9030,
      "AD": 9031,
      "ga": 9032,
      "ĠTá»ĳc": 9033,
      "ĠNext": 9034,
      "ĠÄĲÃ¡p": 9035,
      "ĠNgÆ°ng": 9036,
      "Ġdoáº¡": 9037,
      "esel": 9038,
      "aba": 9039,
      "Tá»«ng": 9040,
      "AV": 9041,
      "Com": 9042,
      "ez": 9043,
      "Ġtáº¥y": 9044,
      "Ġnáº¥c": 9045,
      "ĠgÄĥng": 9046,
      "ĠCard": 9047,
      "ĠVen": 9048,
      ".[": 9049,
      "tim": 9050,
      "xic": 9051,
      "ĠngÃ¡t": 9052,
      "ĠIM": 9053,
      "ĠOscar": 9054,
      "/phÃºt": 9055,
      "TIN": 9056,
      "ĠTuyá»ĥn": 9057,
      "ĠChÃŃn": 9058,
      "ĠÃ¹": 9059,
      "Ġnom": 9060,
      "Ġráº§u": 9061,
      "ema": 9062,
      "ĠÃĬ": 9063,
      "ĠCharles": 9064,
      "ĠValent": 9065,
      "chÃºng": 9066,
      "°NG": 9067,
      "ĠTang": 9068,
      "Ġray": 9069,
      "ĠSir": 9070,
      "Ġbá»ĭch": 9071,
      "á»ķn": 9072,
      "ĠRau": 9073,
      "ĠArt": 9074,
      "Bá»ı": 9075,
      "áº¶T": 9076,
      ".b": 9077,
      "GM": 9078,
      "Link": 9079,
      "ction": 9080,
      "Ġváº¡": 9081,
      "Ġlá»ķ": 9082,
      "Ġtrá»Ĺi": 9083,
      "Quang": 9084,
      "ĠEnter": 9085,
      "XX": 9086,
      "ĠbÃ³i": 9087,
      "ating": 9088,
      "ĠFin": 9089,
      "Ġimplant": 9090,
      "-ph": 9091,
      ".P": 9092,
      "ĠdÃ£i": 9093,
      "ĠMail": 9094,
      "ĠMill": 9095,
      "ember": 9096,
      "Ġcasino": 9097,
      "DT": 9098,
      "ĠcÃ¹i": 9099,
      "Ġgram": 9100,
      "ĠVÆ°á»£ng": 9101,
      "ĠBlo": 9102,
      "ĠTruy": 9103,
      "Ġlove": 9104,
      "acy": 9105,
      "eco": 9106,
      "ĠAngela": 9107,
      "CÃ¡m": 9108,
      "cy": 9109,
      "Ġcr": 9110,
      "Ġháº¥u": 9111,
      "ĠHAG": 9112,
      "ĠlÃŃu": 9113,
      "anks": 9114,
      "vietnam": 9115,
      "huyá»ĩn": 9116,
      "Ġdel": 9117,
      "ĠThuyáº¿t": 9118,
      "ĠNGÆ¯á»ľI": 9119,
      "Suy": 9120,
      "ĠHTX": 9121,
      "ÄĲÃ¡p": 9122,
      "Ġfree": 9123,
      "LuÃ´n": 9124,
      "RI": 9125,
      "ĠmÃºc": 9126,
      "Ġthá»Ľt": 9127,
      "anin": 9128,
      "ĠSK": 9129,
      "ĠFDI": 9130,
      "ĠJet": 9131,
      "...,": 9132,
      "ĠhÃ²m": 9133,
      "111": 9134,
      "ĠIns": 9135,
      "ĠItaly": 9136,
      ",b": 9137,
      "370": 9138,
      "RS": 9139,
      "To": 9140,
      "Ġ|Ċ": 9141,
      "ĠTá»Ļc": 9142,
      "ĠHáº¿t": 9143,
      "ĠChang": 9144,
      "Ġkhuáº¿ch": 9145,
      "Ġah": 9146,
      "ĠAngeles": 9147,
      "Ġdecal": 9148,
      "ĠFrancisco": 9149,
      "mit": 9150,
      "ule": 9151,
      "Ġnáº»o": 9152,
      "Ġbá»Ŀi": 9153,
      "ĠÄĲÆ¯á»¢C": 9154,
      "ĠManh": 9155,
      "ĠDáº¥u": 9156,
      "ĠÄĲá»©a": 9157,
      "ĠUber": 9158,
      "ÃĢO": 9159,
      "ffee": 9160,
      "zz": 9161,
      "Ġváº¹o": 9162,
      "Ġlip": 9163,
      "ĠTÃ³m": 9164,
      "Ġany": 9165,
      "Ġfil": 9166,
      "umi": 9167,
      "ipedia": 9168,
      "ESCO": 9169,
      "itsubishi": 9170,
      "si": 9171,
      "vÃ´": 9172,
      "wan": 9173,
      "ĠÆ": 9174,
      "áºº": 9175,
      "ĠVang": 9176,
      "ĠMÃ£i": 9177,
      "Ġwhich": 9178,
      "ĠPhÃªrÃ´": 9179,
      "Ġnil": 9180,
      "Ġá»«": 9181,
      "Ġngoáº·t": 9182,
      "ĠRi": 9183,
      "ĠChá»¯a": 9184,
      "Ġcabin": 9185,
      "pping": 9186,
      "Ġuá»ķng": 9187,
      "ech": 9188,
      "Ġxáº©y": 9189,
      "ĠTrá»Ł": 9190,
      "Ġtoi": 9191,
      "ÄĲÃ¨n": 9192,
      "ĠGian": 9193,
      "dragon": 9194,
      "fo": 9195,
      "ĠCá»ķng": 9196,
      "ume": 9197,
      "ÃģO": 9198,
      "Quáº§n": 9199,
      "Ġprot": 9200,
      "ears": 9201,
      "ustin": 9202,
      "93": 9203,
      "Cáº¥u": 9204,
      "~~": 9205,
      "ĠtÃ½": 9206,
      "ĠNguy": 9207,
      "urt": 9208,
      "ĠNá»ģn": 9209,
      "ChÃ¡u": 9210,
      "SÆ°": 9211,
      "ĠTÃª": 9212,
      "TráºŃn": 9213,
      "ĠRÆ°á»£u": 9214,
      "atus": 9215,
      "elly": 9216,
      "ula": 9217,
      "ustom": 9218,
      "ĠHarv": 9219,
      "ĠSÃ³ng": 9220,
      "ĠSto": 9221,
      "ĠTráº¡i": 9222,
      "ÄĲÃłn": 9223,
      "ĠXung": 9224,
      "eller": 9225,
      "ience": 9226,
      "Ġabout": 9227,
      "ĠBT": 9228,
      "ĠBá»ĳi": 9229,
      "ĠLife": 9230,
      "ĠSk": 9231,
      "ĠDell": 9232,
      "osterone": 9233,
      "rent": 9234,
      "Ġvv": 9235,
      "ĠÄĲá»Ļt": 9236,
      "ĠKen": 9237,
      "NgÃ´": 9238,
      "round": 9239,
      "idan": 9240,
      "168": 9241,
      "ĠPhá»ī": 9242,
      "ĠsuÃ´ng": 9243,
      "ĠBeach": 9244,
      "Tá»ĳt": 9245,
      "ves": 9246,
      "ĠhÄĥm": 9247,
      "Ġgiá»ħu": 9248,
      "ĠVá»ļI": 9249,
      "Quáº£n": 9250,
      "ĠVIP": 9251,
      "))": 9252,
      "men": 9253,
      "pad": 9254,
      "ĠvÅ©ng": 9255,
      "auty": 9256,
      "ĠPre": 9257,
      "can": 9258,
      "Ġnat": 9259,
      "ĠchÃłm": 9260,
      "ĠTan": 9261,
      "UBND": 9262,
      "Váº»": 9263,
      "],": 9264,
      "Ġion": 9265,
      "Ġdáº¥m": 9266,
      "ĠrÃ¬nh": 9267,
      "ĠLÃłnh": 9268,
      "âĢĿ:": 9269,
      "ĠChá»Ŀ": 9270,
      "ThÃ¡nh": 9271,
      "ĠâĢĿĊ": 9272,
      "Ġ=>": 9273,
      "Hu": 9274,
      "ĠGod": 9275,
      "Nghi": 9276,
      "tron": 9277,
      "ĠThuáº§n": 9278,
      "ĠBá»Ĺng": 9279,
      "ĠArab": 9280,
      "GP": 9281,
      "ĠÆ°Æ¡m": 9282,
      "Ġhad": 9283,
      "ĠngÃ²": 9284,
      "ĠngÃ¹i": 9285,
      "ĠkhÃ¢m": 9286,
      "ĠLÆ°": 9287,
      "ĠGIá»": 9288,
      "ĠFre": 9289,
      "giÃ¡": 9290,
      "ĠMobi": 9291,
      "xicÃ´": 9292,
      "Fone": 9293,
      "RÃµ": 9294,
      "Ä¨": 9295,
      "ĠÄĳÃ´n": 9296,
      "Ġreg": 9297,
      "ĠNano": 9298,
      "ĠSand": 9299,
      "ĠNgá»Ļ": 9300,
      "%)": 9301,
      "sk": 9302,
      "ĠÃºng": 9303,
      "Ġcook": 9304,
      "ĠnhÃ³i": 9305,
      "edan": 9306,
      "âĢĻ.Ċ": 9307,
      "ĠLÃĢM": 9308,
      "field": 9309,
      "ĠliÃªm": 9310,
      "ĠCáº¯t": 9311,
      "ĠCry": 9312,
      "ĠPP": 9313,
      "ĠLove": 9314,
      "Ġbá»ģnh": 9315,
      "Iá»ĢN": 9316,
      "Ġchá»ķi": 9317,
      "Ġloay": 9318,
      "ington": 9319,
      "ĠDownload": 9320,
      "ĠTouch": 9321,
      "ĠchÃ²m": 9322,
      "Kiáº¿n": 9323,
      "gg": 9324,
      "Ġáº£m": 9325,
      "ĨNH": 9326,
      "Ġthinh": 9327,
      "ĠTer": 9328,
      "ĠKey": 9329,
      "ĠJW": 9330,
      "Ġstyle": 9331,
      "97": 9332,
      "Ghi": 9333,
      "ĠLáº¯k": 9334,
      "ĠChá»©": 9335,
      "Łm": 9336,
      "ĠmÆ°á»Ľn": 9337,
      "Ġreview": 9338,
      "ĠBiá»ĩn": 9339,
      "ĠDA": 9340,
      "ense": 9341,
      "ĠChÆ°": 9342,
      "omo": 9343,
      "Äĳiá»ģu": 9344,
      "ĠSá»¬": 9345,
      "Bá»Ĺng": 9346,
      "hÃ¬nh": 9347,
      "Ġká»ĭ": 9348,
      "Ġduoc": 9349,
      "ÄĲá»Ĺ": 9350,
      "ĠPhanxicÃ´": 9351,
      "ĠAdd": 9352,
      "COM": 9353,
      "Ġes": 9354,
      "Ġnáº»": 9355,
      "ĠPG": 9356,
      "asy": 9357,
      "á»ĩt": 9358,
      "ĠHá»ģ": 9359,
      "ĠBayern": 9360,
      "&T": 9361,
      "cáºŃu": 9362,
      "rand": 9363,
      "ĠmÃºi": 9364,
      "ĠBá»Ńu": 9365,
      "ĠThiáº¿n": 9366,
      "asa": 9367,
      "ido": 9368,
      "ĠÐ´": 9369,
      "fect": 9370,
      "Ġvon": 9371,
      "ĠTáºŃn": 9372,
      "ĠNe": 9373,
      "ĠNXB": 9374,
      "ĠSar": 9375,
      "ÄĲÃ¡m": 9376,
      "Truyá»ģn": 9377,
      "ThÆ°á»£ng": 9378,
      "áºłO": 9379,
      "Ġjean": 9380,
      "Ġgluc": 9381,
      "Mang": 9382,
      "Ġke": 9383,
      "Ġdan": 9384,
      "ĠNap": 9385,
      "ĠLat": 9386,
      "osh": 9387,
      "ĠCanon": 9388,
      "ĠModel": 9389,
      "-o": 9390,
      "-gi": 9391,
      "ÑĪ": 9392,
      "ĠbÃ¡ng": 9393,
      "ĠchiÃªng": 9394,
      "ĠVÃ£n": 9395,
      "ÄĲáº£ng": 9396,
      "Ġtuá»ĵng": 9397,
      "âĢ¦âĢĿ.Ċ": 9398,
      "ĠLá»Ĺ": 9399,
      "Chá»©ng": 9400,
      "186": 9401,
      "ĠVá»¹": 9402,
      "iana": 9403,
      "UYá»Ĩ": 9404,
      ".facebook": 9405,
      "/ch": 9406,
      "phi": 9407,
      "raph": 9408,
      "ĠgÃ¡n": 9409,
      "Ã¢t": 9410,
      "Ġrock": 9411,
      "ĠhÃª": 9412,
      "ĠBI": 9413,
      "ĠBag": 9414,
      "ĠGá»Ĺ": 9415,
      "Ġáº¤y": 9416,
      "ĠFIFA": 9417,
      "ĢN": 9418,
      "á»īnh": 9419,
      "ĠLS": 9420,
      "ĠGhi": 9421,
      "ĠQue": 9422,
      "ĠJac": 9423,
      "ovic": 9424,
      "Ð¾Ð»": 9425,
      "ĠÆ¯Æ¡ng": 9426,
      "-In": 9427,
      "Lá»±c": 9428,
      "Tay": 9429,
      "af": 9430,
      "dam": 9431,
      "mo": 9432,
      "well": 9433,
      "Ġtone": 9434,
      "Ġmuá»ĳng": 9435,
      "Ġri": 9436,
      "ĠgiÃ£y": 9437,
      "ĠNick": 9438,
      "chiáº¿n": 9439,
      "ÄĲH": 9440,
      "Nga": 9441,
      "ĠVá»¤": 9442,
      "ĠStudio": 9443,
      "áº¾N": 9444,
      "ĠmÃ¬n": 9445,
      "Ġxá»īu": 9446,
      "elfie": 9447,
      "cum": 9448,
      "ni": 9449,
      "xe": 9450,
      "Ġml": 9451,
      "ĠNiá»ģm": 9452,
      "ĠchÃ¹ng": 9453,
      "ĠLab": 9454,
      "ĠDÃ¢y": 9455,
      "ĠAth": 9456,
      "erg": 9457,
      "Ngá»ĵi": 9458,
      "ĠJim": 9459,
      "trÃ¡i": 9460,
      "Ġname": 9461,
      "ĠâĢ¦.": 9462,
      "Hoáº¡t": 9463,
      "-up": 9464,
      "Ġhanh": 9465,
      "Ġtháº«m": 9466,
      "ĠMH": 9467,
      "ĠNháº£y": 9468,
      "ĠMá»¸": 9469,
      "urch": 9470,
      "----------------": 9471,
      "Bl": 9472,
      "GI": 9473,
      "Le": 9474,
      "VÃ²ng": 9475,
      "ker": 9476,
      "Ã¶": 9477,
      "ĠCáº¥m": 9478,
      "ĠCá»ĳt": 9479,
      "ĠBÃ´ng": 9480,
      "ĠSáº¢N": 9481,
      "ÄĲá»ĭnh": 9482,
      "Ġkáº»o": 9483,
      "ventus": 9484,
      "cÃ¹ng": 9485,
      "uth": 9486,
      "ĠBá»Ļt": 9487,
      "Ġloss": 9488,
      "ĠReg": 9489,
      "obs": 9490,
      "ĠNá»ĺI": 9491,
      "Ġestrogen": 9492,
      "light": 9493,
      "ãĥ": 9494,
      "ĠTex": 9495,
      "Ġgiun": 9496,
      "ĠCC": 9497,
      "ĠTrá»«": 9498,
      "Ġphá»Ľt": 9499,
      "ides": 9500,
      "ĠNhÃ¬": 9501,
      "ĠFlash": 9502,
      "zyme": 9503,
      "SA": 9504,
      "Vi": 9505,
      "ble": 9506,
      "back": 9507,
      "nham": 9508,
      "ĠPass": 9509,
      "Ġbá»Ļn": 9510,
      "itr": 9511,
      "116": 9512,
      "Ġwhen": 9513,
      "Æ¯á»¢NG": 9514,
      "BM": 9515,
      "Tá»Ľi": 9516,
      "ĠSáº§m": 9517,
      "ĠNguyen": 9518,
      "ĠGá»": 9519,
      "oma": 9520,
      "iep": 9521,
      "ĠLoa": 9522,
      "Ġgao": 9523,
      "ĠdÄ©a": 9524,
      "ĠÄĲáº¦U": 9525,
      "ĠLÃŃ": 9526,
      "ĠLav": 9527,
      "Ġná»ĭnh": 9528,
      "Tranh": 9529,
      "Ġcuáº£": 9530,
      "GÃ£": 9531,
      "Ġcáº±n": 9532,
      "Ġdáº³ng": 9533,
      "ĠBush": 9534,
      "ĠPen": 9535,
      "ĠNháº¥n": 9536,
      "cam": 9537,
      "´m": 9538,
      "ĠÄ©": 9539,
      "Ġgáº¯p": 9540,
      "ĠngÃ³t": 9541,
      "ĠCur": 9542,
      "ĠBlock": 9543,
      "ĠVietjet": 9544,
      "ffic": 9545,
      "achi": 9546,
[...]
