{
  "version": "1.0",
  "truncation": null,
  "padding": null,
  "added_tokens": [
    {
      "id": 16000,
      "content": "<|bos|>",
      "single_word": false,
      "lstrip": false,
      "rstrip": false,
      "normalized": false,
      "special": true
    },
    {
      "id": 16001,
      "content": "<|user_start|>",
      "single_word": false,
      "lstrip": false,
      "rstrip": false,
      "normalized": false,
      "special": true
    },
    {
      "id": 16002,
      "content": "<|user_end|>",
      "single_word": false,
      "lstrip": false,
      "rstrip": false,
      "normalized": false,
      "special": true
    },
    {
      "id": 16003,
      "content": "<|assistant_start|>",
      "single_word": false,
      "lstrip": false,
      "rstrip": false,
      "normalized": false,
      "special": true
    },
    {
      "id": 16004,
      "content": "<|assistant_end|>",
      "single_word": false,
      "lstrip": false,
      "rstrip": false,
      "normalized": false,
      "special": true
    },
    {
      "id": 16005,
      "content": "<|python_start|>",
      "single_word": false,
      "lstrip": false,
      "rstrip": false,
      "normalized": false,
      "special": true
    },
    {
      "id": 16006,
      "content": "<|python_end|>",
      "single_word": false,
      "lstrip": false,
      "rstrip": false,
      "normalized": false,
      "special": true
    },
    {
      "id": 16007,
      "content": "<|output_start|>",
      "single_word": false,
      "lstrip": false,
      "rstrip": false,
      "normalized": false,
      "special": true
    },
    {
      "id": 16008,
      "content": "<|output_end|>",
      "single_word": false,
      "lstrip": false,
      "rstrip": false,
      "normalized": false,
      "special": true
    }
  ],
  "normalizer": {
    "type": "NFD"
  },
  "pre_tokenizer": {
    "type": "Sequence",
    "pretokenizers": [
      {
        "type": "Split",
        "pattern": {
          "Regex": "[^\\r\\n\\p{L}\\p{N}]?[\\p{Lu}\\p{Lt}\\p{Lm}\\p{Lo}\\p{M}]*[\\p{Ll}\\p{Lm}\\p{Lo}\\p{M}]+|[^\\r\\n\\p{L}\\p{N}]?[\\p{Lu}\\p{Lt}\\p{Lm}\\p{Lo}\\p{M}]+[\\p{Ll}\\p{Lm}\\p{Lo}\\p{M}]*|\\p{N}{1,3}| ?[^\\s\\p{L}\\p{N}]+[\\r\\n/]*|\\s*[\\r\\n]+|\\s+(?!\\S)|\\s+"
        },
        "behavior": "Isolated",
        "invert": false
      },
      {
        "type": "ByteLevel",
        "add_prefix_space": false,
        "trim_offsets": true,
        "use_regex": false
      }
    ]
  },
  "post_processor": null,
  "decoder": {
    "type": "ByteLevel",
    "add_prefix_space": true,
    "trim_offsets": true,
    "use_regex": true
  },
  "model": {
    "type": "BPE",
    "dropout": null,
    "unk_token": null,
    "continuing_subword_prefix": null,
    "end_of_word_suffix": null,
    "fuse_unk": false,
    "byte_fallback": false,
    "ignore_merges": false,
    "vocab": {
      "!": 0,
      "\"": 1,
      "#": 2,
      "$": 3,
      "%": 4,
      "&": 5,
      "'": 6,
      "(": 7,
      ")": 8,
      "*": 9,
      "+": 10,
      ",": 11,
      "-": 12,
      ".": 13,
      "/": 14,
      "0": 15,
      "1": 16,
      "2": 17,
      "3": 18,
      "4": 19,
      "5": 20,
      "6": 21,
      "7": 22,
      "8": 23,
      "9": 24,
      ":": 25,
      ";": 26,
      "<": 27,
      "=": 28,
      ">": 29,
      "?": 30,
      "@": 31,
      "A": 32,
      "B": 33,
      "C": 34,
      "D": 35,
      "E": 36,
      "F": 37,
      "G": 38,
      "H": 39,
      "I": 40,
      "J": 41,
      "K": 42,
      "L": 43,
      "M": 44,
      "N": 45,
      "O": 46,
      "P": 47,
      "Q": 48,
      "R": 49,
      "S": 50,
      "T": 51,
      "U": 52,
      "V": 53,
      "W": 54,
      "X": 55,
      "Y": 56,
      "Z": 57,
      "[": 58,
      "\\": 59,
      "]": 60,
      "^": 61,
      "_": 62,
      "`": 63,
      "a": 64,
      "b": 65,
      "c": 66,
      "d": 67,
      "e": 68,
      "f": 69,
      "g": 70,
      "h": 71,
      "i": 72,
      "j": 73,
      "k": 74,
      "l": 75,
      "m": 76,
      "n": 77,
      "o": 78,
      "p": 79,
      "q": 80,
      "r": 81,
      "s": 82,
      "t": 83,
      "u": 84,
      "v": 85,
      "w": 86,
      "x": 87,
      "y": 88,
      "z": 89,
      "{": 90,
      "|": 91,
      "}": 92,
      "~": 93,
      "¡": 94,
      "¢": 95,
      "£": 96,
      "¤": 97,
      "¥": 98,
      "¦": 99,
      "§": 100,
      "¨": 101,
      "©": 102,
      "ª": 103,
      "«": 104,
      "¬": 105,
      "®": 106,
      "¯": 107,
      "°": 108,
      "±": 109,
      "²": 110,
      "³": 111,
      "´": 112,
      "µ": 113,
      "¶": 114,
      "·": 115,
      "¸": 116,
      "¹": 117,
      "º": 118,
      "»": 119,
      "¼": 120,
      "½": 121,
      "¾": 122,
      "¿": 123,
      "À": 124,
      "Á": 125,
      "Â": 126,
      "Ã": 127,
      "Ä": 128,
      "Å": 129,
      "Æ": 130,
      "Ç": 131,
      "È": 132,
      "É": 133,
      "Ê": 134,
      "Ë": 135,
      "Ì": 136,
      "Í": 137,
      "Î": 138,
      "Ï": 139,
      "Ð": 140,
      "Ñ": 141,
      "Ò": 142,
      "Ó": 143,
      "Ô": 144,
      "Õ": 145,
      "Ö": 146,
      "×": 147,
      "Ø": 148,
      "Ù": 149,
      "Ú": 150,
      "Û": 151,
      "Ü": 152,
      "Ý": 153,
      "Þ": 154,
      "ß": 155,
      "à": 156,
      "á": 157,
      "â": 158,
      "ã": 159,
      "ä": 160,
      "å": 161,
      "æ": 162,
      "ç": 163,
      "è": 164,
      "é": 165,
      "ê": 166,
      "ë": 167,
      "ì": 168,
      "í": 169,
      "î": 170,
      "ï": 171,
      "ð": 172,
      "ñ": 173,
      "ò": 174,
      "ó": 175,
      "ô": 176,
      "õ": 177,
      "ö": 178,
      "÷": 179,
      "ø": 180,
      "ù": 181,
      "ú": 182,
      "û": 183,
      "ü": 184,
      "ý": 185,
      "þ": 186,
      "ÿ": 187,
      "Ā": 188,
      "ā": 189,
      "Ă": 190,
      "ă": 191,
      "Ą": 192,
      "ą": 193,
      "Ć": 194,
      "ć": 195,
      "Ĉ": 196,
      "ĉ": 197,
      "Ċ": 198,
      "ċ": 199,
      "Č": 200,
      "č": 201,
      "Ď": 202,
      "ď": 203,
      "Đ": 204,
      "đ": 205,
      "Ē": 206,
      "ē": 207,
      "Ĕ": 208,
      "ĕ": 209,
      "Ė": 210,
      "ė": 211,
      "Ę": 212,
      "ę": 213,
      "Ě": 214,
      "ě": 215,
      "Ĝ": 216,
      "ĝ": 217,
      "Ğ": 218,
      "ğ": 219,
      "Ġ": 220,
      "ġ": 221,
      "Ģ": 222,
      "ģ": 223,
      "Ĥ": 224,
      "ĥ": 225,
      "Ħ": 226,
      "ħ": 227,
      "Ĩ": 228,
      "ĩ": 229,
      "Ī": 230,
      "ī": 231,
      "Ĭ": 232,
      "ĭ": 233,
      "Į": 234,
      "į": 235,
      "İ": 236,
      "ı": 237,
      "Ĳ": 238,
      "ĳ": 239,
      "Ĵ": 240,
      "ĵ": 241,
      "Ķ": 242,
      "ķ": 243,
      "ĸ": 244,
      "Ĺ": 245,
      "ĺ": 246,
      "Ļ": 247,
      "ļ": 248,
      "Ľ": 249,
      "ľ": 250,
      "Ŀ": 251,
      "ŀ": 252,
      "Ł": 253,
      "ł": 254,
      "Ń": 255,
      "aÌ": 256,
      "ÌĤ": 257,
      "ÌĽ": 258,
      "Ìģ": 259,
      "ng": 260,
      "Ġt": 261,
      "Ġc": 262,
      "Ì£": 263,
      "ÌĢ": 264,
      "uÌĽ": 265,
      "eÌĤ": 266,
      "oÌĽ": 267,
      "ĠÄ": 268,
      "nh": 269,
      "ĠÄĳ": 270,
      "aÌĢ": 271,
      "Ìī": 272,
      "oÌĤ": 273,
      "aÌĤ": 274,
      "Ġth": 275,
      "aÌ£": 276,
      "Ġv": 277,
      "Ì£ÌĤ": 278,
      "Ġl": 279,
      "aÌģ": 280,
      "Ġh": 281,
      "Ġm": 282,
      "Ġch": 283,
      "uÌĽoÌĽ": 284,
      "Ġk": 285,
      "Ġb": 286,
      "ieÌĤ": 287,
      "Ìĥ": 288,
      "Ġnh": 289,
      "Ġtr": 290,
      "Ġs": 291,
      "Ġn": 292,
      "Ìģt": 293,
      "Ġkh": 294,
      "oÌģ": 295,
      "Ġg": 296,
      "aÌĨ": 297,
      "aÌī": 298,
      "eÌ£ÌĤ": 299,
      "oÌ£ÌĤ": 300,
      "Ġd": 301,
      "Ġng": 302,
      "Ìģc": 303,
      "Ì£c": 304,
      "Ġcu": 305,
      "Ġp": 306,
      "ÌĢng": 307,
      "Ġph": 308,
      "oÌĤng": 309,
      "iÌĢ": 310,
      "ieÌ£ÌĤ": 311,
      "aÌģc": 312,
      "Ìģi": 313,
      "Ìģn": 314,
      "Ġgi": 315,
      "ĠvaÌĢ": 316,
      "ÌĢn": 317,
      "ĠT": 318,
      "ĠlaÌĢ": 319,
      "ÌĢi": 320,
      "aÌ£ÌĤ": 321,
      "Ġr": 322,
      ".Ċ": 323,
      "Ìīa": 324,
      "Ìģng": 325,
      "uy": 326,
      "Ġq": 327,
      "ĠnhuÌĽ": 328,
      "ÌĢu": 329,
      "ĠcoÌģ": 330,
      "Ìĥng": 331,
      "ĠcuÌīa": 332,
      "eÌĤÌī": 333,
      "eÌĤn": 334,
      "iÌ£": 335,
      "oÌĽÌģi": 336,
      "aÌĤÌģt": 337,
      "Ġx": 338,
      "aÌ£i": 339,
      "Ġqu": 340,
      "âĢ": 341,
      "ong": 342,
      "ĠN": 343,
      "oÌ£ÌĤt": 344,
      "aÌĥ": 345,
      "ĠcaÌģc": 346,
      "Ġho": 347,
      "ĠÄĳuÌĽoÌĽ": 348,
      "ĠkhoÌĤng": 349,
      "ĠC": 350,
      "iÌĢnh": 351,
      "eÌĤÌģ": 352,
      "aÌĤÌģ": 353,
      "Ġcho": 354,
      "aÌĤn": 355,
      "iÌģ": 356,
      "ĠmoÌ£ÌĤt": 357,
      "an": 358,
      "uoÌĤ": 359,
      "ĠÄĳuÌĽoÌĽÌ£c": 360,
      "uÌĽoÌĽÌĢi": 361,
      "ĠtuÌĽ": 362,
      "oÌĽÌī": 363,
      "Ì£ng": 364,
      "aÌĢy": 365,
      "ay": 366,
      "ÌĨ": 367,
      "ĠH": 368,
      "aÌ£ÌĨ": 369,
      "Ġtrong": 370,
      "ĠtoÌĤ": 371,
      "aÌĤÌĢn": 372,
      "ĠnguÌĽoÌĽÌĢi": 373,
      "ĠvoÌĽÌģi": 374,
      "ieÌĤn": 375,
      "aÌ£n": 376,
      "ĠÄĳeÌĤ": 377,
      "ĠsuÌĽ": 378,
      "anh": 379,
      "inh": 380,
      "ieÌĤÌĢu": 381,
      "ieÌ£ÌĤn": 382,
      "ĠnhuÌĽÌĥng": 383,
      "aÌīi": 384,
      "Ġngh": 385,
      "ao": 386,
      "ang": 387,
      "ĠV": 388,
      "Ġchu": 389,
      "ai": 390,
      "ĠÄĳaÌĤ": 391,
      "ĠtieÌĤ": 392,
      "aÌĢng": 393,
      "ĠÄĳoÌĤ": 394,
      "Ġdu": 395,
      "ĠÄĲ": 396,
      "ĠB": 397,
      "ieÌĤÌī": 398,
      "uÌĽoÌĽÌģc": 399,
      "Ġco": 400,
      "ĠÄĳaÌĥ": 401,
      "aÌĢnh": 402,
      "uÌĽoÌĽng": 403,
      "ĠtheÌĤÌī": 404,
      "ĠÄĳeÌĤÌī": 405,
      "ĠM": 406,
      "Ìģp": 407,
      "ĠTh": 408,
      "aÌĢn": 409,
      "aÌĢi": 410,
      "aÌīn": 411,
      "oÌĽÌ£": 412,
      "am": 413,
      "eÌĤÌĢ": 414,
      "ĠthuÌĽ": 415,
      "ĠÄĳoÌ£ÌĤ": 416,
      "eÌĥ": 417,
      "oÌĽÌĢi": 418,
      "iÌī": 419,
      "au": 420,
      "Ìīi": 421,
      "ĠnaÌĢy": 422,
      "uÌĽÌĥ": 423,
      "Ìīng": 424,
      "ĠL": 425,
      "aÌ£ÌĤt": 426,
      "in": 427,
      "ĠnaÌĨ": 428,
      "Ġthu": 429,
      "uÌĽoÌĽÌĢng": 430,
      "iÌģnh": 431,
      "ĠbaÌ£n": 432,
      "aÌ£ÌĤn": 433,
      "Ìĥn": 434,
      "Ġra": 435,
      "aÌĤÌģy": 436,
      "eÌĤÌģt": 437,
      "ieÌĤÌģt": 438,
      "ĠÄĳoÌģ": 439,
      "ĠâĢ": 440,
      "Ġkhi": 441,
      "ĠcuÌĥng": 442,
      "aÌģi": 443,
      "ĠÄĳeÌĤÌģn": 444,
      "ĠS": 445,
      "oÌĽn": 446,
      "ĠcaÌī": 447,
      "aÌĨn": 448,
      "ĠseÌĥ": 449,
      "ĠlaÌĢm": 450,
      "ĠmaÌĢ": 451,
      "ĠnoÌģ": 452,
      "oÌĤÌģ": 453,
      "ĠlaÌ£i": 454,
      "ĠP": 455,
      "Ġy": 456,
      "ĠveÌĤÌĢ": 457,
      "ĠoÌĽÌī": 458,
      "aÌģt": 459,
      "ĠK": 460,
      "ĠvaÌĢo": 461,
      "oÌĤÌģng": 462,
      "ĠcoÌĤng": 463,
      "aÌĤÌī": 464,
      "âĢĿ": 465,
      "ieÌ£ÌĤt": 466,
      "ĠTr": 467,
      "aÌĤy": 468,
      "Ġlo": 469,
      "ĠCh": 470,
      "ĠnhieÌĤÌĢu": 471,
      "oÌ£ÌĤi": 472,
      "ĠA": 473,
      "ĠkhaÌģc": 474,
      "ĠchuÌĽ": 475,
      "ĠphaÌīi": 476,
      "eo": 477,
      "ĠsuÌĽÌ£": 478,
      "uÌ£": 479,
      "aÌĢo": 480,
      "ĠtuÌĽÌĢ": 481,
      "em": 482,
      "ĠthiÌĢ": 483,
      "aÌģo": 484,
      "ÌĢm": 485,
      "ieÌ£ÌĤc": 486,
      "ĠÄĳi": 487,
      "aÌģn": 488,
      "oÌ£": 489,
      "ieÌĤÌģn": 490,
      "ĠtoÌĤi": 491,
      "ĠtreÌĤn": 492,
      "aÌģng": 493,
      "aÌĨÌĢng": 494,
      "ĠchiÌī": 495,
      "aÌ£ÌĤp": 496,
      "uÌĽÌ£c": 497,
      "iÌĥ": 498,
      "ung": 499,
      "ĠbiÌ£": 500,
      "uyeÌĤ": 501,
      "Ìģch": 502,
      "ĠD": 503,
      "ĠNg": 504,
      "ieÌ£ÌĤu": 505,
      "Ġdo": 506,
      "ĠÄĳaÌĤÌĢu": 507,
      "aÌ£ÌĨc": 508,
      "ĠvieÌ£ÌĤc": 509,
      "aÌĤm": 510,
      "aÌ£ÌĨt": 511,
      "eÌ£": 512,
      "Ġkho": 513,
      "aÌĨÌģc": 514,
      "ĠâĢľ": 515,
      "ĠhieÌ£ÌĤn": 516,
      "Ġto": 517,
      "ĠnhaÌĢ": 518,
      "ĠNh": 519,
      "Ġ(": 520,
      "ÌĢa": 521,
      "ĠÄĳiÌ£": 522,
      "eÌī": 523,
      "aÌģnh": 524,
      "oÌĤÌĥ": 525,
      "ĠthaÌĢnh": 526,
      "aÌīo": 527,
      "ĠmiÌĢnh": 528,
      "aÌĨÌģt": 529,
      "on": 530,
      "ĠG": 531,
      "ĠPh": 532,
      "ĠcuÌĽ": 533,
      "ĠtaÌ£i": 534,
      "ĠnhaÌĤÌģt": 535,
      "ĠnuÌĽoÌĽÌģc": 536,
      "oÌĽÌĢ": 537,
      "iÌģch": 538,
      "aÌĨng": 539,
      "aÌ£o": 540,
      "ĠhaÌĢng": 541,
      "oÌ£ÌĤc": 542,
      "ĠduÌ£ng": 543,
      "oÌĤi": 544,
      "aÌģp": 545,
      "uÌĽoÌĽÌ£ng": 546,
      "en": 547,
      "uÌī": 548,
      "ĠÄĳoÌ£ÌĤng": 549,
      "ĠcoÌĢn": 550,
      "aÌĤÌĥn": 551,
      "aÌ£c": 552,
      "er": 553,
      "ĠhoÌĽn": 554,
      "ĠnoÌģi": 555,
      "uÌ£c": 556,
      "aÌĤÌģp": 557,
      "ĠtheÌĤÌģ": 558,
      "oÌĤÌĢi": 559,
      "uyeÌĤn": 560,
      "ĠneÌĤn": 561,
      "Ġcon": 562,
      "Ìģm": 563,
      "Ġta": 564,
      "ĠraÌĤÌģt": 565,
      "eÌĤÌģu": 566,
      "oÌĽi": 567,
      "uÌģc": 568,
      "ĠnaÌĨm": 569,
      "ĠcoÌĤ": 570,
      "aÌĤÌĢu": 571,
      "ĠchiÌģnh": 572,
      "aÌĤu": 573,
      "ĠhoÌ£c": 574,
      "ĠQ": 575,
      "ĠnhaÌĤn": 576,
      "oÌĤÌģi": 577,
      "uyeÌ£ÌĤ": 578,
      "aÌĤÌģn": 579,
      "Ġquan": 580,
      "yÌģ": 581,
      "Ì£ch": 582,
      "ĠngaÌĢy": 583,
      "ĠnhuÌĽng": 584,
      "uÌĽÌ£": 585,
      "ĠcaÌģch": 586,
      "ieÌĤÌīm": 587,
      "oÌĽÌ£p": 588,
      "oÌī": 589,
      "ĠsoÌĤÌģ": 590,
      "aÌ£t": 591,
      "Ġsau": 592,
      "iÌ£ch": 593,
      "uÌĽÌĥa": 594,
      "ĠthoÌĽÌĢi": 595,
      "ĠchuÌģng": 596,
      "Ġquy": 597,
      "ĠcoÌĽ": 598,
      "ĠbieÌĤÌģt": 599,
      "ĠhoÌĽÌ£p": 600,
      "ĠleÌĤn": 601,
      "ĠÄĳieÌĤÌĢu": 602,
      "Ġgia": 603,
      "ÄĲ": 604,
      "ĠÄĳiÌ£nh": 605,
      "Ġtheo": 606,
      "aÌ£nh": 607,
      "ĠmoÌĽÌģi": 608,
      "aÌīng": 609,
      "aÌĤÌīm": 610,
      "20": 611,
      "ĠcuÌĢng": 612,
      "eÌģ": 613,
      "aÌĨÌģn": 614,
      "Ġanh": 615,
      "ia": 616,
      "ĠnaÌĢo": 617,
      "ĠÄĳuÌĽ": 618,
      "ĠthuÌĽÌ£c": 619,
      "Ġsinh": 620,
      "aÌ£ÌĤy": 621,
      "uÌĽoÌĽÌīng": 622,
      "ĠthaÌĤÌģy": 623,
      "ĠsaÌīn": 624,
      "ĠÄĳang": 625,
      "ĠgiaÌģ": 626,
      "ieÌĤÌīu": 627,
      "Ġcao": 628,
      "ĠhiÌĢnh": 629,
      "ĠviÌĢ": 630,
      "ar": 631,
      "ieÌĤÌīn": 632,
      "ĠoÌĤng": 633,
      "ĠtruÌĽoÌĽÌĢng": 634,
      "Ġmu": 635,
      "uyeÌĤÌĢn": 636,
      "aÌģch": 637,
      "oÌĤÌī": 638,
      "ĠÄĳoÌĤÌĢng": 639,
      "oÌ£ng": 640,
      "Ġqua": 641,
      "ĠhoÌ£": 642,
      "ĠÄĳaÌĤy": 643,
      "ĠcaÌĤÌĢn": 644,
      "ĠloÌĽ": 645,
      "ĠNam": 646,
      "ĠnghieÌ£ÌĤ": 647,
      "ĠKh": 648,
      "oÌĢng": 649,
      "Ġhay": 650,
      "oÌ£i": 651,
      "ĠgiÌĢ": 652,
      "ĠVieÌ£ÌĤt": 653,
      "uyeÌ£ÌĤn": 654,
      "ĠhoÌĤ": 655,
      "ĠtuÌĽÌ£": 656,
      "ĠthoÌĤng": 657,
      "aÌģy": 658,
      "eÌ£ÌĤnh": 659,
      "ĠÄĳo": 660,
      "ĠtruÌĽoÌĽÌģc": 661,
      "uaÌĤÌģt": 662,
      "uÌĽÌģc": 663,
      "ĠmaÌ£ÌĨt": 664,
      "ĠsuÌĽÌī": 665,
      "ĠnhaÌ£ÌĤn": 666,
      "ĠphaÌģt": 667,
      "aÌ£ng": 668,
      "Ìģu": 669,
      "uoÌĤÌģc": 670,
      "im": 671,
      "Ġngo": 672,
      "aÌĤÌģu": 673,
      "yÌĥ": 674,
      "ĠnaÌĨng": 675,
      "Ġtin": 676,
      "ĠlyÌģ": 677,
      "eÌĤu": 678,
      "ĠkhaÌģch": 679,
      "Th": 680,
      "ĠmuoÌĤ": 681,
      "..": 682,
      "ĠvieÌĤn": 683,
      "ĠhaÌĢnh": 684,
      "Ġem": 685,
      "ĠtriÌĢnh": 686,
      "Ġhai": 687,
      "ĠbaÌĨÌĢng": 688,
      "ĠyÌģ": 689,
      "ĠtiÌĢnh": 690,
      "00": 691,
      "ĠÄĳoÌĤÌģi": 692,
      "Ġgian": 693,
      "uÌģp": 694,
      "ĠnhieÌĤn": 695,
      "ĠchaÌĤÌģt": 696,
      "ĠdaÌĤn": 697,
      "ĠthuÌĽoÌĽÌĢng": 698,
      "ĠtoÌĽÌģi": 699,
      "ĠtaÌĤm": 700,
      "Ġvu": 701,
      "oÌĤÌģc": 702,
      "ĠcaÌģi": 703,
      "ĠluÌĽoÌĽÌ£ng": 704,
      "ĠphaÌĤÌīm": 705,
      "ĠvaÌ£ÌĤy": 706,
      "aÌīm": 707,
      "ĠcaÌīm": 708,
      "Ġxe": 709,
      "aÌīnh": 710,
      "ĠHo": 711,
      "âĢ¦": 712,
      "ĠboÌ£ÌĤ": 713,
      "ĠvuÌ£": 714,
      "ĠtoaÌĢn": 715,
      "Ġtu": 716,
      "ĠaÌĨn": 717,
      "ĠgiuÌģp": 718,
      "uÌĽoÌĽÌģng": 719,
      "ĠvaÌĤÌĥn": 720,
      "ĠtieÌĤÌģp": 721,
      "ĠmuoÌĤÌģn": 722,
      "oÌĤÌĥi": 723,
      "ĠloaÌ£i": 724,
      "al": 725,
      "ĠbaÌīo": 726,
      "ĠhoÌ£ÌĤi": 727,
      "ĠteÌĤÌģ": 728,
      "ĠcaÌĤÌģp": 729,
      "ĠtoÌĤÌģt": 730,
      "es": 731,
      "ĠtaÌ£o": 732,
      "or": 733,
      "ĠviÌ£": 734,
      "Ġkinh": 735,
      "ĠquaÌģ": 736,
      "ĠtiÌģnh": 737,
      "ĠnghiÌĥ": 738,
      "ĠloÌĽÌģn": 739,
      "aÌ£ch": 740,
      "ĠkeÌĤÌģt": 741,
      "ĠhoaÌ£ÌĨc": 742,
      "uÌĽng": 743,
      "ÌĢy": 744,
      "uÌģng": 745,
      "ĠroÌĤÌĢi": 746,
      "ĠÄĳieÌĤÌīm": 747,
      ":Ċ": 748,
      "ĠxuaÌĤÌģt": 749,
      "Ġtay": 750,
      "ĠsoÌĤÌģng": 751,
      "oÌĤÌĢng": 752,
      "Ġnay": 753,
      "oÌģa": 754,
      "ĠÄĳuÌĽoÌĽÌĢng": 755,
      "uÌĽÌĢa": 756,
      "ĠtaÌģc": 757,
      "ĠraÌĨÌĢng": 758,
      "Ġlu": 759,
      "it": 760,
      "Ìģa": 761,
      "ĠphaÌĤÌĢn": 762,
      "ĠduÌĢng": 763,
      "ĠbaÌīn": 764,
      "ĠthieÌĤÌģt": 765,
      "ĠuÌĽ": 766,
      "ĠbeÌ£ÌĤnh": 767,
      "iÌĢn": 768,
      "ĠquaÌī": 769,
      "ĠâĢĵ": 770,
      "uoÌĤÌīi": 771,
      "Ġtho": 772,
      "ĠhieÌ£ÌĤu": 773,
      "ĠthiÌ£": 774,
      "ĠgioÌĽÌģi": 775,
      "eÌĤÌĥ": 776,
      "aÌĨÌģng": 777,
      "ĠchuÌī": 778,
      "ĠcaÌĤÌĢu": 779,
      "aÌĨÌīng": 780,
      "aÌģm": 781,
      "oÌ£ÌĤng": 782,
      "oÌģng": 783,
      "ĠheÌ£ÌĤ": 784,
      "ĠnghieÌ£ÌĤp": 785,
      "ĠmaÌģy": 786,
      "ĠthuÌĽÌģc": 787,
      "Ġ-": 788,
      "ĠtriÌ£": 789,
      "ĠÄĳaÌ£i": 790,
      "aÌĤÌīn": 791,
      "ĠphiÌģ": 792,
      "ĠchieÌĤ": 793,
      "ĠyeÌĤu": 794,
      "aÌĤÌĢm": 795,
      "uoÌĤÌģng": 796,
      "ĠÄĳeÌĤÌĢu": 797,
      "ĠcuoÌ£ÌĤc": 798,
      "Ì£n": 799,
      "oÌĽÌīi": 800,
      "iÌĢm": 801,
      "uoÌĤn": 802,
      "ĠphaÌģp": 803,
      "ĠÄĳeÌĤÌĢ": 804,
      "oÌĽÌ£i": 805,
      "Ġsao": 806,
      "ĠduÌĽoÌĽ": 807,
      "Ġty": 808,
      "eÌ£p": 809,
      "ĠvoÌĤ": 810,
      "201": 811,
      "ĠtroÌĽÌī": 812,
      "Ġnhau": 813,
      "Tr": 814,
      "oÌģc": 815,
      "ĠGi": 816,
      "aÌĨm": 817,
      "ĠR": 818,
      "aÌ£ÌĤu": 819,
      "uÌģt": 820,
      "eÌĤm": 821,
      "ĠphoÌĢng": 822,
      "Ch": 823,
      "ĠaÌīnh": 824,
      "ĠchiÌ£": 825,
      "ĠbeÌĤn": 826,
      "ĠtroÌ£ng": 827,
      "ĠgiaÌīi": 828,
      "ch": 829,
      "ĠchoÌ£n": 830,
      "eÌĤÌīn": 831,
      "et": 832,
      "ĠlaÌĤÌĢn": 833,
      "at": 834,
      "Ġmang": 835,
      "ĠnhiÌĢn": 836,
      "ĠgioÌĽÌĢ": 837,
      "ĠmaÌĨÌģt": 838,
      "ĠtieÌĤÌģng": 839,
      "ĠthaÌĤn": 840,
      "ĠduÌĽ": 841,
      "yÌĢ": 842,
      "Ġkhu": 843,
      "ĠduÌĽÌ£": 844,
      "ieÌĤÌĥn": 845,
      "ĠchuÌĽa": 846,
      "ĠtiÌĢm": 847,
      "ĠluÌĽÌ£c": 848,
      "ieÌĤÌĢn": 849,
      "ĠneÌĤÌģu": 850,
      "ĠbaÌĤÌģt": 851,
      "Ġbao": 852,
      "ĠtieÌĤÌĢn": 853,
      "uyeÌĤÌīn": 854,
      "oÌĤn": 855,
      "ĠU": 856,
      "ĠchuÌĽÌģc": 857,
      "ĠQuoÌĤÌģc": 858,
      "ĠthuÌĽoÌĽng": 859,
      "ĠO": 860,
      "ieÌ£ÌĤm": 861,
      "ĠbieÌ£ÌĤt": 862,
      "Ġan": 863,
      "ĠÄĳeÌ£p": 864,
      "Ġ\"": 865,
      "Ġtrang": 866,
      "el": 867,
      "ĠtaÌ£ÌĤp": 868,
      "ĠvaÌĤÌģn": 869,
      "ĠluÌģc": 870,
      "ĠtaÌĨng": 871,
      "ĠthoÌĤÌģng": 872,
      "ĠX": 873,
      "Ng": 874,
      "ĠngoaÌĢi": 875,
      "aÌĤÌģm": 876,
      "ĠtheÌĤm": 877,
      "ĠvuÌĽÌĢa": 878,
      "ĠtrieÌĤÌīn": 879,
      "?Ċ": 880,
      "ĠtaÌĢi": 881,
      "ĠhoaÌĢn": 882,
      "ĠnuÌĽÌĥa": 883,
      "aÌ£m": 884,
      "ĠlieÌĤn": 885,
      "ĠtieÌĤu": 886,
      "ĠkeÌĤÌģ": 887,
      "ĠthaÌ£ÌĤt": 888,
      "ĠphuÌĽoÌĽng": 889,
      "ĠmoÌ£i": 890,
      "ĠdiÌ£ch": 891,
      "ĠthiÌģch": 892,
      "ĠthuÌī": 893,
      "hi": 894,
      "Ġi": 895,
      "Nh": 896,
      "ĠtreÌī": 897,
      "ĠhoÌģa": 898,
      "Ġso": 899,
      "Ġda": 900,
      "ĠkhoÌģ": 901,
      "ĠÄĳieÌ£ÌĤn": 902,
      "as": 903,
      "ĠthuÌĽÌģ": 904,
      "ĠI": 905,
      "ĠloÌĽÌĢi": 906,
      "ĠsaÌģng": 907,
      "aÌĥy": 908,
      "ĠQu": 909,
      "oÌĥ": 910,
      "ĠTrung": 911,
      "ĠthaÌģng": 912,
      "ĠluoÌĤn": 913,
      "ĠnhoÌī": 914,
      "Ġdoanh": 915,
      "ĠnoÌĽi": 916,
      "ĠquoÌĤÌģc": 917,
      "ĠcheÌĤÌģ": 918,
      "uÌĽÌĥng": 919,
      "ĠsuÌĽÌģc": 920,
      "ĠchuyeÌ£ÌĤn": 921,
      "ĠbaÌĨÌģt": 922,
      "ĠbaÌģo": 923,
      "om": 924,
      "ĠhoaÌ£t": 925,
      "ĠbaÌĢi": 926,
      "ĠÄĳoÌĤÌīi": 927,
      "ĠÄĳaÌĤÌģt": 928,
      "aÌĨÌģm": 929,
      "ic": 930,
      "ĠheÌĤÌģt": 931,
      "Ġtrung": 932,
      "aÌ£ÌĨp": 933,
      "ĠquyeÌĤÌĢn": 934,
      "âĢľ": 935,
      "ĠdaÌĤÌĥn": 936,
      "ĠmeÌ£": 937,
      "ĠaÌĤÌģy": 938,
      "ĠvaÌĨn": 939,
      "Ġmua": 940,
      "ĠaÌģn": 941,
      "Ġchi": 942,
      "uÌĽÌī": 943,
      "ĠquyeÌĤÌģt": 944,
      "ĠÄĳaÌ£ÌĨc": 945,
      "ĠlaÌĥ": 946,
      "ĠtriÌģ": 947,
      "ĠÄĳoÌĽn": 948,
      "aÌĤÌĥ": 949,
      "eÌģp": 950,
      "uÌĽu": 951,
      "ĠÄĳuÌĽa": 952,
      "Ġvi": 953,
      "ĠloÌĢng": 954,
      "ĠmaÌ£nh": 955,
      "uoÌĤÌĢn": 956,
      "ĠE": 957,
      "Ġxem": 958,
      "ieÌĤÌģu": 959,
      "aÌ£y": 960,
      "ieÌĤu": 961,
      "ĠvaÌ£ÌĤt": 962,
      "ĠmaÌĢu": 963,
      "ĠtoÌĤÌī": 964,
      "le": 965,
      "ĠlieÌ£ÌĤu": 966,
      "ĠÄĳiÌ£a": 967,
      "aÌīy": 968,
      "ĠuÌĽÌģng": 969,
      "ĠtuoÌĤÌīi": 970,
      "Ġngay": 971,
      "uÌĢ": 972,
      "ĠÄĳaÌ£o": 973,
      "Ġtham": 974,
      "ĠhoÌīi": 975,
      "oÌĤÌīi": 976,
      "ĠtuÌĽÌĢng": 977,
      "ĠgaÌĤy": 978,
      "uÌĢng": 979,
      "Ġnghe": 980,
      "ĠF": 981,
      "ĠÄĳaÌ£ÌĨt": 982,
      "ĠÄĳaÌģnh": 983,
      "Ġthay": 984,
      "Ġgiao": 985,
      "ĠkhieÌĤÌģn": 986,
      "ĠsiÌĥ": 987,
      "ĠbiÌĢnh": 988,
      "ĠdeÌĤÌĥ": 989,
      "aÌģu": 990,
      "iÌīnh": 991,
      "ĠchuyeÌĤÌīn": 992,
      "Ġai": 993,
      "ĠchieÌĤÌģc": 994,
      "ĠbeÌģ": 995,
      "uÌĽÌĢng": 996,
      "aÌĨÌģp": 997,
      "is": 998,
      "ĠlaÌ£ÌĤp": 999,
      "10": 1000,
      "ĠsoÌĽÌī": 1001,
      "ĠbieÌĤÌģn": 1002,
      "ĠmoÌĤÌĥi": 1003,
      "ieÌĤm": 1004,
      "ĠkyÌĢ": 1005,
      "ĠhuÌĽoÌĽÌģng": 1006,
      "ro": 1007,
      "ĠhieÌĤÌīu": 1008,
      "ĠbaÌģn": 1009,
      "ĠphuÌ£": 1010,
      "ĠAnh": 1011,
      "ĠchieÌĤÌģn": 1012,
      "ĠboÌī": 1013,
      "ĠÄĳiÌĢnh": 1014,
      "aÌ£ÌĨng": 1015,
      "ĠphuÌ£c": 1016,
      "ĠÄĳoÌĽÌĢi": 1017,
      "ĠtieÌĤn": 1018,
      "ĠnuÌĽÌĥ": 1019,
      "ĠbaÌĢ": 1020,
      "uÌĽoÌĽÌ£c": 1021,
      "Ìĥi": 1022,
      "ĠchuyeÌĤn": 1023,
      "oÌĢ": 1024,
      "Ġnhanh": 1025,
      "uÌĽoÌĽi": 1026,
      "ĠgiaÌīm": 1027,
      "ĠtiÌģch": 1028,
      "ĠHaÌĢ": 1029,
      "uÌĽoÌĽÌ£": 1030,
      "ac": 1031,
      "ĠchaÌĤn": 1032,
      "uyeÌĤÌģn": 1033,
      "19": 1034,
      "ĠgaÌĤÌĢn": 1035,
      "ĠgiaÌģo": 1036,
      "ĠchuÌĽÌģng": 1037,
      "ĠtuÌĽÌī": 1038,
      "ĠtuÌ£c": 1039,
      "ĠtuÌĽoÌĽÌ£ng": 1040,
      "ĠteÌĤn": 1041,
      "âĢĿĊ": 1042,
      "ĠÄĳuÌī": 1043,
      "ĠboÌĽÌīi": 1044,
      "Ġtinh": 1045,
      "ĠY": 1046,
      "uÌĽÌīa": 1047,
      "ĠtaÌĤÌģt": 1048,
      "oÌ£n": 1049,
      "ĠnguyeÌĤn": 1050,
      "ĠdaÌĢi": 1051,
      "ĠtieÌĤÌģt": 1052,
      "Ġcung": 1053,
      "ĠxaÌĥ": 1054,
      "ĠgiuÌĽÌĥa": 1055,
      "ĠloÌĽÌ£i": 1056,
      "ĠgoÌ£i": 1057,
      "ĠcaÌĢng": 1058,
      "ĠMyÌĥ": 1059,
      "ĠlaÌĤÌģy": 1060,
      "ĠliÌ£ch": 1061,
      "ieÌĤng": 1062,
      "ĠkieÌĤÌģn": 1063,
      "ĠchoÌĽi": 1064,
      "ĠcaÌīnh": 1065,
      "ĠthuaÌ£ÌĤt": 1066,
      "ĠngheÌ£ÌĤ": 1067,
      "ĠhaÌĨÌģn": 1068,
      "Ġthi": 1069,
      "ĠnoÌ£ÌĤi": 1070,
      "ĠdieÌĤÌĥn": 1071,
      "ĠcaÌģ": 1072,
      "aÌĥi": 1073,
      "ĠsaÌģch": 1074,
      "!Ċ": 1075,
      "ĠcaÌĤu": 1076,
      "ĠmaÌĤÌģt": 1077,
      "ĠtruyeÌĤÌĢn": 1078,
      "aÌĤÌĥu": 1079,
      "ĠxuoÌĤÌģng": 1080,
      "ĠcuÌĽÌīa": 1081,
      "ĠduÌĽoÌĽÌģi": 1082,
      "uÌĽÌ£a": 1083,
      "ĠkhoaÌīng": 1084,
      "ĠgaÌ£ÌĨp": 1085,
      "ĠphaÌĤn": 1086,
      "ĠduÌĽÌ£ng": 1087,
      "Ġbu": 1088,
      "uyeÌĤÌģt": 1089,
      "oÌĽÌĥ": 1090,
      "Ġthanh": 1091,
      "eÌĢ": 1092,
      "ĠhoÌ£ÌĤ": 1093,
      "ĠcuÌĽÌģ": 1094,
      "ĠÄĳoÌĤÌĢ": 1095,
      "ĠroÌĥ": 1096,
      "ĠvuÌĽÌ£c": 1097,
      "ĠW": 1098,
      "Ġw": 1099,
      "ĠnoÌĤÌīi": 1100,
      "ĠnaÌĢng": 1101,
      "ĠdieÌ£ÌĤn": 1102,
      "ĠcuÌĽÌģu": 1103,
      "ĠÄĳuÌģng": 1104,
      "ĠtieÌĤÌģn": 1105,
      "uÌĽÌĥu": 1106,
      "ing": 1107,
      "uyeÌ£ÌĤt": 1108,
      "ĠbaÌĢn": 1109,
      "ĠkhiÌģ": 1110,
      "ĠnghiÌĥa": 1111,
      "oÌĽÌģ": 1112,
      "uyeÌĤÌĥn": 1113,
      "un": 1114,
      "ĠchiÌģ": 1115,
      "ĠthuoÌ£ÌĤc": 1116,
      "ĠsaÌĨÌģc": 1117,
      "ĠsoÌĽ": 1118,
      "ĠtroÌĽÌ£": 1119,
      "âĢĵ": 1120,
      "ol": 1121,
      "ĠkhaÌī": 1122,
      "oÌĤÌĢ": 1123,
      "ĠiÌģt": 1124,
      "uÌĥ": 1125,
      "aÌ£ÌĤm": 1126,
      "iÌĥnh": 1127,
      "eÌģt": 1128,
      "ĠveÌ£ÌĤ": 1129,
      "uÌģ": 1130,
      "ĠduÌĢ": 1131,
      "Ġtranh": 1132,
      "ĠxaÌĤy": 1133,
      "ĠvieÌĤÌģt": 1134,
      "eb": 1135,
      "ĠCoÌĤng": 1136,
      "oÌĢn": 1137,
      "ĠnghieÌ£ÌĤm": 1138,
      "ĠkieÌ£ÌĤn": 1139,
      "ĠsaÌģt": 1140,
      "uÌĽÌĢ": 1141,
      "ĠmuÌĽÌģc": 1142,
      "Ġchung": 1143,
      "iÌģn": 1144,
      "ĠÄĳaÌĤÌĢy": 1145,
      "il": 1146,
      "ĠmoÌĽÌī": 1147,
      "ĠgiaÌī": 1148,
      "Ġhoa": 1149,
      "ĠthaÌĤÌĢn": 1150,
      "ĠyeÌĤÌģu": 1151,
      "ĠtuÌĽoÌĽÌīng": 1152,
      "us": 1153,
      "ieÌĤÌģm": 1154,
      "ĠphoÌĤÌģ": 1155,
      "oÌĤÌģn": 1156,
      "ad": 1157,
      "ĠxaÌģc": 1158,
      "ĠNeÌĤÌģu": 1159,
      "Ġba": 1160,
      "ĠcaÌĤy": 1161,
      "oÌģn": 1162,
      "ĠmuÌ£c": 1163,
      "ĠphiÌģa": 1164,
      "eÌĤÌĢn": 1165,
      "ĠthuoÌĤÌģc": 1166,
      "ĠcoÌĤÌī": 1167,
      "Ġphong": 1168,
      "ur": 1169,
      "ĠtuÌĽoÌĽng": 1170,
      "th": 1171,
      "ĠÄĳoÌ£ÌĤi": 1172,
      "ĠgiuÌĽÌĥ": 1173,
      "ĠJ": 1174,
      "ĠÄĳaÌĤu": 1175,
      "ĠaÌģp": 1176,
      "oÌģi": 1177,
      "ĠhuÌĽÌĥu": 1178,
      "ĠTrong": 1179,
      "ĠNguyeÌĤÌĥn": 1180,
      "ĠnhaÌ£ÌĤp": 1181,
      "Ġnhu": 1182,
      "aÌĢu": 1183,
      "ĠcaÌĨn": 1184,
      "Ph": 1185,
      "ĠcaÌ£nh": 1186,
      "ĠNhuÌĽng": 1187,
      "ĠmaÌ£ng": 1188,
      "ĠquaÌīn": 1189,
      "ĠboÌĤÌģ": 1190,
      "eÌģo": 1191,
      "ĠNgo": 1192,
      "ĠquaÌĤn": 1193,
      "ĠchuaÌĤÌīn": 1194,
      "ĠÄĳoÌ£ÌĤc": 1195,
      "ĠhuÌĽoÌĽÌīng": 1196,
      "...": 1197,
      "ĠtraÌī": 1198,
      "ĠcoÌĤÌģ": 1199,
      "eÌĤÌģp": 1200,
      "ĠtoÌĤÌģi": 1201,
      "Ġsang": 1202,
      "ed": 1203,
      "ĠÄĳau": 1204,
      "Ġf": 1205,
      "ĠhaÌ£n": 1206,
      "ĠlaÌĤu": 1207,
      "Ġo": 1208,
      "ĠhaÌĥy": 1209,
      "uÌĽa": 1210,
      "ĠvuÌĢng": 1211,
      "id": 1212,
      "ĠbieÌĤÌīu": 1213,
      "Ġminh": 1214,
      "ĠToÌĤi": 1215,
      "Ġvui": 1216,
      "ĠluÌĽÌ£a": 1217,
      "ĠcuÌĽoÌĽÌĢi": 1218,
      "ĠtrieÌ£ÌĤu": 1219,
      "ĠchiÌ£u": 1220,
      "ĠkhaÌģ": 1221,
      "Kh": 1222,
      "ĠNoÌ£ÌĤi": 1223,
      "ĠaÌĤm": 1224,
      "oo": 1225,
      "ĠaÌģo": 1226,
      "Ġchia": 1227,
      "Ġ,": 1228,
      "ĠtiÌīnh": 1229,
      "ĠtruÌĽoÌĽÌīng": 1230,
      "aÌĤÌĢy": 1231,
      "ieÌ£ÌĤp": 1232,
      "Ġban": 1233,
      "ĠÄĳaÌģng": 1234,
      "ĠchaÌĨÌīng": 1235,
      "uÌĽoÌĽÌ£t": 1236,
      "),": 1237,
      "aÌĢm": 1238,
      "ĠCaÌģc": 1239,
      "ĠÄĳaÌīm": 1240,
      "ĠluÌĽu": 1241,
      "ĠnhieÌ£ÌĤm": 1242,
      "ĠchoÌĤÌģng": 1243,
      "Ġtra": 1244,
      "oÌģm": 1245,
      "ĠcheÌĤÌģt": 1246,
      "ĠtruÌĽÌ£c": 1247,
      "ĠkyÌĥ": 1248,
      "ĠkieÌĤÌīm": 1249,
      "ĠChu": 1250,
      "ĠcuÌ£": 1251,
      "ĠchuÌģt": 1252,
      "aÌĤng": 1253,
      "oÌĤÌīng": 1254,
      "ĠbuÌĽoÌĽÌģc": 1255,
      "Ġxa": 1256,
      "ĠchaÌĨÌģc": 1257,
      "ĠnguoÌĤÌĢn": 1258,
      "uÌĽÌģ": 1259,
      "ĠhoÌĤÌĢ": 1260,
      "ĠkeÌĤÌī": 1261,
      "ĠgaÌģi": 1262,
      "ĠcuÌĽÌ£c": 1263,
      "Ġbay": 1264,
      "ĠÄĳoÌĤi": 1265,
      "ĠveÌī": 1266,
      "ter": 1267,
      "ĠcuoÌĤÌģi": 1268,
      "ĠkhoÌīi": 1269,
      "Ġin": 1270,
      "ÌĤng": 1271,
      "ĠquyÌģ": 1272,
      "ĠtraÌ£ng": 1273,
      "Ġkhai": 1274,
      "ĠTuy": 1275,
      "ot": 1276,
      "ĠluaÌ£ÌĤt": 1277,
      "Ġca": 1278,
      "ĠphuÌĢ": 1279,
      "ĠrieÌĤng": 1280,
      "ĠgioÌĤÌģng": 1281,
      "Äĳ": 1282,
      "aÌĨÌĢm": 1283,
      "ĠÄĳa": 1284,
      "ĠcaÌģo": 1285,
      "ĠÄĳuÌĽÌģng": 1286,
      "ĠvaÌĢi": 1287,
      "tr": 1288,
      "Ġdanh": 1289,
      "ĠuoÌĤÌģng": 1290,
      "ag": 1291,
      "Ġkhoa": 1292,
      "eÌĤÌģn": 1293,
      "ĠtuÌĽÌģc": 1294,
      "ĠtieÌ£ÌĤn": 1295,
      "Trong": 1296,
      "Ġdung": 1297,
      ")Ċ": 1298,
      "ĠroÌ£ÌĤng": 1299,
      "ĠKhoÌĤng": 1300,
      "ĠAn": 1301,
      "ĠBoÌ£ÌĤ": 1302,
      "ĠMinh": 1303,
      "Ġgh": 1304,
      "ĠoÌĤ": 1305,
      "ĠkyÌģ": 1306,
      "ĠÄĲuÌĽÌģc": 1307,
      "ĠchuÌģ": 1308,
      "ĠmoÌĤi": 1309,
      "ĠphuÌī": 1310,
      "ĠMoÌ£ÌĤt": 1311,
      "Ġxin": 1312,
      "Ġdi": 1313,
      "ĠÄĳaÌ£t": 1314,
      "oÌĤÌĢm": 1315,
      "ĠbieÌĤÌīn": 1316,
      "ĠgiaÌģc": 1317,
      "ĠboÌģng": 1318,
      "12": 1319,
      "ĠCoÌģ": 1320,
      "ĠhoÌĤm": 1321,
      "ĠxuÌĽÌī": 1322,
      "ĠmaÌĤÌĥu": 1323,
      "ĠthoaÌ£i": 1324,
      "200": 1325,
      "Theo": 1326,
      "000": 1327,
      "uÌĽÌģng": 1328,
      "ĠbaÌģc": 1329,
      "ĠnaÌĨÌĢm": 1330,
      "os": 1331,
      "ĠÄĲaÌ£i": 1332,
      "aÌĥn": 1333,
      "ĠthieÌĤÌģu": 1334,
      "ap": 1335,
      "ĠchaÌ£y": 1336,
      "oÌĤÌģt": 1337,
      "ĠnhoÌĽÌģ": 1338,
      "ĠtoÌĤÌģ": 1339,
      "ĠÄĳaÌĤÌģu": 1340,
      "aÌ£p": 1341,
      "ĠduÌ£c": 1342,
      "ĠkhoÌī": 1343,
      "ĠkhoÌīe": 1344,
      "ĠchuÌĽoÌĽng": 1345,
      "ĠduÌĽoÌĽÌĥng": 1346,
      "ĠÄĳaÌĢn": 1347,
      "ieÌĤÌĥ": 1348,
      "ĠtraÌĨÌģng": 1349,
      "ĠÄĳoaÌĢn": 1350,
      "ĠtroÌĢ": 1351,
      "ĠKhi": 1352,
      "Ġnam": 1353,
      "âĢĿ,": 1354,
      "ĠdaÌĢnh": 1355,
      "Ġkia": 1356,
      "ĠloÌĽÌģp": 1357,
      "ĠvaÌ£ÌĤn": 1358,
      "ĠhoÌĤÌĢi": 1359,
      "ĠthoÌĤi": 1360,
      "ĠvieÌ£ÌĤn": 1361,
      "ĠÄĳoaÌ£n": 1362,
      "ĠtroÌĽÌĢi": 1363,
      "Ġke": 1364,
      "ĠtiÌģn": 1365,
      "ĠdaÌ£ng": 1366,
      "ĠvaÌĢng": 1367,
      "ĠVaÌĨn": 1368,
      "ĠgoÌĤÌĢm": 1369,
      "ĠluaÌ£ÌĤn": 1370,
      "ĠNhuÌĽÌĥng": 1371,
      "ĠchoÌĤÌĢng": 1372,
      "Ġphim": 1373,
      "NG": 1374,
      "ĠtraÌģi": 1375,
      "ĠnguÌī": 1376,
      "ĠkiÌģch": 1377,
      "ĠnheÌ£": 1378,
      "ĠtuyeÌ£ÌĤt": 1379,
      "ĠvoÌĽÌ£": 1380,
      "ĠcoÌ£ÌĤng": 1381,
      "ĠhoÌĤÌĥ": 1382,
      "ĠvoÌ£ng": 1383,
      "iÌ£p": 1384,
      "ĠngaÌĢnh": 1385,
      "ĠvoÌĤÌģn": 1386,
      "ĠHoa": 1387,
      "ĠÄĲoÌĤng": 1388,
      "aÌĤÌīu": 1389,
      "ĠtoÌĤÌīng": 1390,
      "ĠngoÌĤÌĢi": 1391,
      "ĠcaÌ£ÌĤu": 1392,
      "âĢĿ.Ċ": 1393,
      "ĠthaÌĤÌģt": 1394,
      "ĠdoÌĢng": 1395,
      "ĠSau": 1396,
      "ĠkieÌĤÌģm": 1397,
      "ĠChuÌģa": 1398,
      "ĠpheÌģp": 1399,
      "ĠiÌģch": 1400,
      "one": 1401,
      "ĠaÌģnh": 1402,
      "ĠmoÌģn": 1403,
      "30": 1404,
      "ĠAÌĤ": 1405,
      "ĠtyÌī": 1406,
      "ĠleÌ£ÌĤ": 1407,
      "aÌĥng": 1408,
      "ĠÄĳaÌĨng": 1409,
      "ĠThieÌĤn": 1410,
      "Ġxanh": 1411,
      "ĠThanh": 1412,
      ").": 1413,
      "ĠlaÌĥnh": 1414,
      "um": 1415,
      "ĠgiaÌīn": 1416,
      "ĠmaÌģu": 1417,
      "ĠBaÌ£n": 1418,
      "ĠsaÌĤu": 1419,
      "ĠchoÌĤÌĥ": 1420,
      "ĠphaÌ£m": 1421,
      "ĠhoÌĢa": 1422,
      "ĠngoaÌ£i": 1423,
      "ĠÄĳaÌģ": 1424,
      "MoÌ£ÌĤt": 1425,
      "ĠleÌĥ": 1426,
      "Ìīu": 1427,
      "ĠthieÌ£ÌĤn": 1428,
      "ĠphaÌģ": 1429,
      "ĠmaÌ£ÌĨc": 1430,
      "uoÌĤÌģt": 1431,
      "ho": 1432,
      "Ġmo": 1433,
      "ĠvoÌĢng": 1434,
      "15": 1435,
      "ĠtraÌģnh": 1436,
      "ĠBiÌĢnh": 1437,
      "ĠÄĳoÌģng": 1438,
      "ĠlaÌ£nh": 1439,
      "uÌĽoÌĽÌģi": 1440,
      "ĠNhaÌ£ÌĤt": 1441,
      "ĠkhaÌĨn": 1442,
      "oÌģp": 1443,
      "ĠNguÌĽoÌĽÌĢi": 1444,
      "ĠmaÌĤÌģy": 1445,
      "ĠhoÌĽi": 1446,
      "ĠÄĳem": 1447,
      "ĠnghiÌ£": 1448,
      "ĠphaÌīn": 1449,
      "ĠNgh": 1450,
      "ĠÄĳoÌ£c": 1451,
      "eÌĢn": 1452,
      "ĠsoÌĽÌ£": 1453,
      "Ìīy": 1454,
      "ĠChiÌģnh": 1455,
      "ĠhaÌ£ÌĤu": 1456,
      "ine": 1457,
      "ĠÄĳaÌģp": 1458,
      "ĠhaÌ£": 1459,
      "ĠseÌī": 1460,
      "ĠneÌĤÌĢn": 1461,
      "ĠdaÌĢng": 1462,
      "ĠnghieÌĤn": 1463,
      "ĠkeÌģo": 1464,
      "ĠÄĳoÌĤng": 1465,
      "ĠnheÌģ": 1466,
      "ĠmoÌĤn": 1467,
      "Ġ.": 1468,
      "ĠnaÌĤng": 1469,
      "yÌī": 1470,
      "uÌĽÌīi": 1471,
      "ĠViÌĢ": 1472,
      "Ġquanh": 1473,
      "ĠchuÌĽÌģ": 1474,
      "ĠthoÌĽ": 1475,
      "ĠtoaÌģn": 1476,
      "ĠtieÌĤÌīu": 1477,
      "ph": 1478,
      "lo": 1479,
      "ion": 1480,
      "ĠuÌĽu": 1481,
      "ĠhuÌģt": 1482,
      "Ġsuy": 1483,
      "uaÌĤn": 1484,
      "ĠHoaÌĢng": 1485,
      "âĢĿ.": 1486,
      "uÌĥng": 1487,
      "Ġmong": 1488,
      "âĢ¦Ċ": 1489,
      "ĠtuaÌĤÌĢn": 1490,
      "ame": 1491,
      "ĠxaÌīy": 1492,
      "ĠTP": 1493,
      "re": 1494,
      "Ġthe": 1495,
      "11": 1496,
      "CaÌģc": 1497,
      "Ġquay": 1498,
      "ĠtraÌ£ÌĤn": 1499,
      "ĠnhoÌģm": 1500,
      "Ġvai": 1501,
      "oÌ£ÌĤn": 1502,
      "Ġlao": 1503,
      ".âĢĿĊ": 1504,
      "Ìĥa": 1505,
      "Ġnguy": 1506,
      "eÌĤÌĢm": 1507,
      "ĠchuÌĽÌĥa": 1508,
      "ĠphuÌģt": 1509,
      "uoÌĤi": 1510,
      "ĠlieÌĤÌĢn": 1511,
      "Ġtrai": 1512,
      "ĠÄĳaÌīo": 1513,
      "ĠxeÌģt": 1514,
      "ĠmuÌĢa": 1515,
      "ĠthuÌģ": 1516,
      "ĠraÌĨng": 1517,
      "ĠhoaÌ£ch": 1518,
      "ĠthieÌĤn": 1519,
      "ĠmoÌĤ": 1520,
      "Ġweb": 1521,
      "ĠÄĲaÌĤy": 1522,
      "ĠquaÌĤÌĢn": 1523,
      "ĠVaÌĢ": 1524,
      "ĠleÌĤÌĥ": 1525,
      "uÌīy": 1526,
      "ĠnhaÌ£c": 1527,
      "Ġxo": 1528,
      "ĠDo": 1529,
      "Ġu": 1530,
      "ĠsaÌ£ch": 1531,
      "UÌĽ": 1532,
      "ĠthaÌģi": 1533,
      "ĠtraÌģch": 1534,
      "ĠnhieÌ£ÌĤt": 1535,
      "ĠnguÌĽoÌĽi": 1536,
      "ĠBaÌĨÌģc": 1537,
      "ĠcaÌīi": 1538,
      "ĠhaÌ£i": 1539,
      "ĠÄĳiÌģch": 1540,
      "ĠÄĳeÌĤm": 1541,
      "ĠnhaÌĨÌĢm": 1542,
      "ĠchoÌģng": 1543,
      "ĠchieÌĤÌĢu": 1544,
      "ĠTaÌĤy": 1545,
      "Ġduy": 1546,
      "ĠsaÌĤn": 1547,
      "aÌ£ÌĨn": 1548,
      "ĠdaÌĤÌĢu": 1549,
      "ĠguÌĽÌīi": 1550,
      "ĠÄĳoÌī": 1551,
      "ĠDuÌĽoÌĽng": 1552,
      "Ġghi": 1553,
      "iv": 1554,
      "ĠTo": 1555,
      "ĠmeÌĤÌĢm": 1556,
      "ĠcaÌĤn": 1557,
      "ent": 1558,
      "ToÌĤi": 1559,
      "ĠmaÌģi": 1560,
      "ĠkhaÌģm": 1561,
      "ĠHoÌ£ÌĤi": 1562,
      "ĠtaÌ£ÌĤn": 1563,
      "Ġru": 1564,
      "Ġhuy": 1565,
      "ĠchaÌĤÌģp": 1566,
      "ĠkhaÌĤÌīu": 1567,
      "and": 1568,
      "ĠnoÌģng": 1569,
      "ua": 1570,
      "ĠNhaÌĢ": 1571,
      "ĠÄĲieÌĤÌĢu": 1572,
      "ĠVoÌĽÌģi": 1573,
      "ĠtuÌĽoÌĽÌģng": 1574,
      "ĠbuoÌĤÌīi": 1575,
      "ĠkhoaÌīn": 1576,
      "Ġquen": 1577,
      "Gi": 1578,
      "ĠchaÌĨm": 1579,
      "ĠdaÌĤÌģu": 1580,
      "oÌ£t": 1581,
      "ig": 1582,
      "ĠsoÌĽÌģm": 1583,
      "ĠxuyeÌĤn": 1584,
      "ĠxuÌģc": 1585,
      "ĠtoÌģc": 1586,
      "ieÌ£ÌĤng": 1587,
      "ĠkiÌģnh": 1588,
      "aÌĥo": 1589,
      "NeÌĤÌģu": 1590,
      "ĠchaÌĨÌģn": 1591,
      "ĠhaÌĤÌģp": 1592,
      "ĠmaÌ£ÌĤt": 1593,
      "ĠthuaÌ£ÌĤn": 1594,
      "Ġa": 1595,
      "ĠthaÌĤÌģp": 1596,
      "ec": 1597,
      "ĠPhaÌ£ÌĤt": 1598,
      "Ġ:": 1599,
      "ĠboÌĤÌī": 1600,
      ").Ċ": 1601,
      "ĠgoÌģp": 1602,
      "ĠThaÌģi": 1603,
      "aÌĤÌĢng": 1604,
      "50": 1605,
      "ieÌĤÌĢm": 1606,
      "Ġsai": 1607,
      "ĠmieÌ£ÌĤng": 1608,
      "ĠhieÌĤÌīm": 1609,
      "Ġlinh": 1610,
      "ĠmaÌĨÌģc": 1611,
      "ieÌĤÌĥm": 1612,
      "Ġtai": 1613,
      "ĠoÌĤÌī": 1614,
      "ĠmyÌĥ": 1615,
      "ĠkieÌĤÌīu": 1616,
      "ĠnaÌ£ÌĨng": 1617,
      "ieÌĤÌģp": 1618,
      "ĠmaÌĢn": 1619,
      "Ġthai": 1620,
      "ĠthuÌĽÌī": 1621,
      "ĠPhaÌģp": 1622,
      "ĠlaÌģ": 1623,
      "OÌĽ": 1624,
      "ir": 1625,
      "ite": 1626,
      "KhoÌĤng": 1627,
      "Ġcha": 1628,
      "ĠOÌĤng": 1629,
      "ĠChuÌģng": 1630,
      "ĠIn": 1631,
      "ĠcaÌ£ÌĤp": 1632,
      "NhuÌĽÌĥng": 1633,
      "ĠTraÌĤÌĢn": 1634,
      "ĠKyÌĢ": 1635,
      "ĠgiaÌĤÌģy": 1636,
      "ĠThaÌĢnh": 1637,
      "ĠthaÌĨÌīng": 1638,
      "ĠkeÌī": 1639,
      "ĠngoÌĤi": 1640,
      "ĠtoÌ£ÌĤi": 1641,
      "ie": 1642,
      "ak": 1643,
      "Ġtuy": 1644,
      "ĠÄĳaÌĢo": 1645,
      "ĠtraÌīi": 1646,
      "ĠnieÌ£ÌĤm": 1647,
      "ip": 1648,
      "Ġxong": 1649,
      "ĠÄĳen": 1650,
      "com": 1651,
      "ĠnghiÌī": 1652,
      "ĠHaÌĢn": 1653,
      "ĠHaÌīi": 1654,
      "ieÌĤÌģng": 1655,
      "ĠchuÌĽÌĥ": 1656,
      "ĠliÌĥnh": 1657,
      "ĠngaÌĤn": 1658,
      "ĠtaÌīi": 1659,
      "ĠngoÌĽÌĢ": 1660,
      "ĠlaÌĨÌģm": 1661,
      "ĠloÌ£ÌĤ": 1662,
      "ĠsuÌĽÌīa": 1663,
      "ĠvieÌĤm": 1664,
      "ĠToÌĤÌīng": 1665,
      "100": 1666,
      "ĠÄĳaÌĤÌīy": 1667,
      "ĠdaÌ£y": 1668,
      "ĠcuÌĽoÌĽÌĢng": 1669,
      "ĠngheÌĤÌĢ": 1670,
      "ĠkhaÌĨÌģc": 1671,
      "ĠThu": 1672,
      "ĠkhaÌīo": 1673,
      "ĠtuyeÌĤÌģn": 1674,
      "aÌĨÌĥn": 1675,
      "ĠbuÌĽÌģc": 1676,
      "ex": 1677,
      "ĠHoÌĤÌĢ": 1678,
      "ĠdaÌĤÌĢn": 1679,
      "ĠloÌĤÌĥi": 1680,
      "ĠlaÌ£c": 1681,
      "ĠAÌģ": 1682,
      "ĠcaÌģnh": 1683,
      "Ġcoi": 1684,
      "ĠQuy": 1685,
      "ĠLong": 1686,
      "ut": 1687,
      "Sau": 1688,
      "ĠtoÌ£ÌĤc": 1689,
      "ĠchoÌĽÌĢ": 1690,
      "ĠchuÌĽÌģa": 1691,
      "EÌĤ": 1692,
      "ĠtiÌ£ch": 1693,
      "ĠthaÌĤÌīm": 1694,
      "ĠluyeÌ£ÌĤn": 1695,
      "ĠmaÌ£i": 1696,
      "Khi": 1697,
      "ĠkyÌī": 1698,
      "ĠtaÌĤÌĢng": 1699,
      "ĠvuÌĽoÌĽÌ£t": 1700,
      "ĠnguÌĽÌĥ": 1701,
      "ĠbaÌģnh": 1702,
      "ĠTheÌĤÌģ": 1703,
      "ĠphoÌĤÌģi": 1704,
      "Ġmay": 1705,
      "ĠhoÌĤn": 1706,
      "ĠthiÌ£t": 1707,
      "CoÌģ": 1708,
      "ĠchiÌīnh": 1709,
      "ĠthaÌĨÌģng": 1710,
      "...Ċ": 1711,
      "ĠnhoÌĽÌĢ": 1712,
      "Ġcam": 1713,
      "ĠlaÌ£": 1714,
      "ĠtuÌĽoÌĽi": 1715,
      "iÌ£nh": 1716,
      "ĠngaÌĨn": 1717,
      "ĠphuÌģc": 1718,
      "CM": 1719,
      "ul": 1720,
      "Ġnghi": 1721,
      "ĠhaÌģt": 1722,
      "ĠdaÌģng": 1723,
      "ĠSoÌĽn": 1724,
      "ĠmaÌĥ": 1725,
      "Ġtim": 1726,
      "18": 1727,
      "ĠthuÌģc": 1728,
      "ĠcaÌĤÌĢm": 1729,
      "ĠhaÌ£nh": 1730,
      "ĠnoÌĤÌģi": 1731,
      "ĠsuaÌĤÌģt": 1732,
      "\"Ċ": 1733,
      "ĠthaÌĨm": 1734,
      "ĠhaÌĥng": 1735,
      "ĠchaÌĢng": 1736,
      "ĠsaÌĨÌĥn": 1737,
      "VoÌĽÌģi": 1738,
      "ĠtriÌĢ": 1739,
      "ĠnaÌ£n": 1740,
      "ĠmoÌĤÌģi": 1741,
      "Ġnu": 1742,
      "ĠaÌĤÌģn": 1743,
      "ĠbaÌ£ÌĤt": 1744,
      "ĠsuoÌĤÌģt": 1745,
      "ĠlaÌĥo": 1746,
      "ĠyeÌĤn": 1747,
      "Ġgiai": 1748,
      "ĠhuÌĽoÌĽng": 1749,
      "ĠsuÌĽÌĥa": 1750,
      "OÌĤ": 1751,
      "ĠdiÌ£": 1752,
      "ĠBaÌīn": 1753,
      "Ġuy": 1754,
      "uÌĽÌģa": 1755,
      "ĠÄĳaÌĤÌģy": 1756,
      "ĠraÌĢng": 1757,
      "ĠÄĲoÌĤÌĢng": 1758,
      "ĠNgoaÌĢi": 1759,
      "ĠdaÌĤy": 1760,
      "ĠkhoÌĤÌī": 1761,
      "ĠChuÌī": 1762,
      "ĠtaÌĢu": 1763,
      "ĠkhoÌĽÌīi": 1764,
      "ĠthaÌīo": 1765,
      "st": 1766,
      "eÌ£n": 1767,
      "ĠsoÌģc": 1768,
      "ĠtaÌĤÌģn": 1769,
      "ĠnieÌĤn": 1770,
      "ĠTuÌĽÌĢ": 1771,
      "ĠnuoÌĤi": 1772,
      "ĠmuÌĥi": 1773,
      "ĠTheo": 1774,
      "ĠoÌĽn": 1775,
      "ĠCoÌĤ": 1776,
      "ĠTu": 1777,
      "ĠTH": 1778,
      "ĠÄĳuÌĽÌĢng": 1779,
      "ĠLan": 1780,
      "âĢĻ": 1781,
      "ail": 1782,
      "ĠnhieÌĤÌĥm": 1783,
      "AÌĤ": 1784,
      "ĠreÌī": 1785,
      "ĠtaÌĤÌĢm": 1786,
      "ĠnghieÌĤm": 1787,
      "aÌĨÌī": 1788,
      "Ġche": 1789,
      "ĠcuÌĥ": 1790,
      "ĠcuÌĽÌī": 1791,
      "eÌ£ÌĤt": 1792,
      "ĠtuyeÌĤÌīn": 1793,
      "ĠUS": 1794,
      ".com": 1795,
      "art": 1796,
      "ĠmieÌĤÌĢn": 1797,
      "ĠLu": 1798,
      "ĠgoÌĤÌĥ": 1799,
      "ĠthuÌīy": 1800,
      "ĠÄĳuÌĽÌģa": 1801,
      "ĠPhong": 1802,
      "ĠoÌĤÌīn": 1803,
      "NH": 1804,
      "ĠnoÌĤng": 1805,
      "ĠmieÌĤÌĥn": 1806,
      "uoÌĤÌģi": 1807,
      "ĠhaÌĢi": 1808,
      "ĠlaÌĨÌģng": 1809,
      "ĠLeÌĤ": 1810,
      "ĠVuÌĥ": 1811,
      "ĠquaÌģn": 1812,
      "ĠkhoÌģa": 1813,
      "ĠphaÌ£ÌĤn": 1814,
      "Ġlai": 1815,
      "ĠTruÌĽoÌĽÌĢng": 1816,
      "ĠtoÌĤÌģc": 1817,
      "ess": 1818,
      "ĠNgoÌ£c": 1819,
      "ĠtoÌĤn": 1820,
      "ĠgiaÌģm": 1821,
      "ĠbaÌĤÌĢu": 1822,
      "ĠcaÌĤÌģu": 1823,
      "ĠsaÌĨÌģp": 1824,
      "ĠbiÌģ": 1825,
      "ĠnhaÌ£ÌĤt": 1826,
      "ĠduÌĽÌĥ": 1827,
      "ab": 1828,
      "ĠbaÌĢy": 1829,
      "ĠcaÌĨÌģt": 1830,
      "iet": 1831,
      "ĠboÌ£n": 1832,
      "ĠsieÌĤu": 1833,
      "24": 1834,
      "Ġngon": 1835,
      "oÌĽÌģt": 1836,
      "Ġgame": 1837,
      "ĠÄĲeÌĤÌī": 1838,
      "ĠthaÌĤÌĢy": 1839,
      "ĠbeÌĤÌģp": 1840,
      "BaÌ£n": 1841,
      "ĠgoÌĤÌģc": 1842,
      "te": 1843,
      "ĠchaÌģu": 1844,
      "16": 1845,
      "ĠthuÌĽoÌĽÌīng": 1846,
      "ĠhuyeÌ£ÌĤn": 1847,
      "ĠngaÌĨÌģn": 1848,
      "ĠthaÌ£ÌĤm": 1849,
      "ĠthueÌĤ": 1850,
      "ĠaÌĤÌģm": 1851,
      "ĠLieÌĤn": 1852,
      "ĠÄĳoÌ£ÌĤt": 1853,
      "ĠphoÌĤÌī": 1854,
      "ĠphieÌĤn": 1855,
      "ĠnaÌĨÌģm": 1856,
      "uÌĽoÌĽÌ£u": 1857,
      "ĠThiÌ£": 1858,
      "ND": 1859,
      "ĠxaÌĤÌģu": 1860,
      "av": 1861,
      "uÌĽoÌĽÌĥng": 1862,
      "oÌ£c": 1863,
      "ĠneÌģt": 1864,
      "ĠduÌ£": 1865,
      "ĠBan": 1866,
      "ĠkeÌģm": 1867,
      "ĠchaÌĤu": 1868,
      "ĠhaÌĤÌĢu": 1869,
      "ĠkhoÌĤ": 1870,
      "aÌĨÌīn": 1871,
      "ĠcuoÌĤÌģn": 1872,
      ".v": 1873,
      "ĠChaÌĤu": 1874,
      "ĠbuoÌ£ÌĤc": 1875,
      "ĠhaÌ£t": 1876,
      "ĠsoÌĤng": 1877,
      "ĠthuÌĽÌĢa": 1878,
      "ĠtruÌģc": 1879,
      "Ġxung": 1880,
      "Ġof": 1881,
      "ĠbaÌĢo": 1882,
      "to": 1883,
      "ĠpheÌĤ": 1884,
      "ĠkeÌĤ": 1885,
      "ĠbaÌĤy": 1886,
      "Ġsung": 1887,
      "ĠmoÌĽ": 1888,
      "ĠtoÌī": 1889,
      "ĠmaÌ£ch": 1890,
      "ĠCon": 1891,
      "ĠthuyeÌĤÌģt": 1892,
      "ĠÄĳoÌĤÌī": 1893,
      "ĠhoÌĤÌĢng": 1894,
      "ĠmeÌĤ": 1895,
      "ĠnuÌģi": 1896,
      "ĠChiÌī": 1897,
      "ĠnhaÌĨÌģc": 1898,
      "ĠnieÌĤÌĢm": 1899,
      "ĠtaÌĨÌģc": 1900,
      "ĠxeÌĤÌģp": 1901,
      "ook": 1902,
      "ĠÄĲoÌģ": 1903,
      "OÌĤng": 1904,
      "ĠmaÌĥi": 1905,
      "ĠbuoÌĤÌĢn": 1906,
      "ĠLo": 1907,
      "Ì£p": 1908,
      "up": 1909,
      "ĠheÌĤÌĢ": 1910,
      "ĠtaÌĤÌģm": 1911,
      "uÌ£n": 1912,
      "ĠNguyeÌĤn": 1913,
      "ĠtuÌĢy": 1914,
      "ĠÄĳoÌģn": 1915,
      "ĠluÌĽÌīa": 1916,
      "line": 1917,
      "ĠÄĳeÌĢn": 1918,
      "ĠruÌĽoÌĽÌ£u": 1919,
      "ĠLaÌĤm": 1920,
      "ĠÄĳoÌĤÌģc": 1921,
      "ard": 1922,
      "ĠKim": 1923,
      "Ġtrao": 1924,
      "ĠthoaÌģt": 1925,
      "ĠhuyeÌĤÌģt": 1926,
      "ĠHaÌĥy": 1927,
      ".âĢĿ": 1928,
      "site": 1929,
      "ĠqueÌĤn": 1930,
      "ĠÄĳaÌģm": 1931,
      "ĠcaÌĢ": 1932,
      "ĠNga": 1933,
      "ĠthieÌ£ÌĤu": 1934,
      "ĠchaÌ£ÌĨt": 1935,
      "ĠÄĲaÌīng": 1936,
      "ĠluÌĽng": 1937,
      "ĠlaÌĢnh": 1938,
      "est": 1939,
      "ĠhaÌĨÌīn": 1940,
      "ew": 1941,
      "ĠhoaÌĢng": 1942,
      "ĠtaÌģi": 1943,
      "ĠLinh": 1944,
      "ĠgioÌģ": 1945,
      "ĠchuÌ£p": 1946,
      "ark": 1947,
      "ĠduÌĽÌ£a": 1948,
      "14": 1949,
      "ĠphoÌģng": 1950,
      "ĠthuÌ£": 1951,
      "ĠPhuÌĽoÌĽng": 1952,
      "ĠEm": 1953,
      "ÄĲeÌĤÌī": 1954,
      "ĠHoÌ£": 1955,
      "ĠquaÌīng": 1956,
      "ĠGiaÌģo": 1957,
      "ĠuÌĽoÌĽÌģc": 1958,
      "ĠhoÌ£a": 1959,
      "ĠvuÌĥ": 1960,
      "ĠlaÌĢng": 1961,
      "ĠlaÌĢn": 1962,
      "ĠÄĳoÌĽÌ£i": 1963,
      "ĠnhieÌĤu": 1964,
      "ĠnguÌĥ": 1965,
      "ĠduÌĽoÌĽng": 1966,
      "aÌĤÌīy": 1967,
      "ĠtuyeÌĤn": 1968,
      "09": 1969,
      "ĠchuyeÌĤÌģn": 1970,
      "ĠtoÌĤÌĢn": 1971,
      "ĠtaÌ£ÌĨng": 1972,
      "ow": 1973,
      "ĠthoÌĽÌī": 1974,
      "ĠroÌĽi": 1975,
      "ĠthueÌĤÌģ": 1976,
      "ĠchieÌĤÌģm": 1977,
      "ĠThuÌī": 1978,
      "ĠsoaÌģt": 1979,
      "13": 1980,
      "NguÌĽoÌĽÌĢi": 1981,
      "kh": 1982,
      "Ġkim": 1983,
      "oaÌĢi": 1984,
      "ĠChiÌģ": 1985,
      "ĠthaÌ£ÌĤn": 1986,
      "ĠmaÌģt": 1987,
      "ĠKinh": 1988,
      "oÌĤm": 1989,
      "ob": 1990,
      "ĠveÌĤÌģt": 1991,
      "ĠvoÌĽÌĢi": 1992,
      "Ġxu": 1993,
      "ĠkhoÌĤÌģi": 1994,
      "ĠngoÌĤn": 1995,
      "uÌĽoÌĽÌĢn": 1996,
      "ĠdaÌĢy": 1997,
      "ĠbaÌ£c": 1998,
      "ĠkhaÌĨÌīng": 1999,
      "ĠgaÌĨÌģng": 2000,
      "ĠbuÌ£ng": 2001,
      "Ġe": 2002,
      "AÌĢ": 2003,
      "ĠluÌĽoÌĽng": 2004,
      "ĠcuÌĽÌģng": 2005,
      "Ġthao": 2006,
      "ĠthoaÌīi": 2007,
      "Ìīnh": 2008,
      "ĠÄĳoÌĽÌĥ": 2009,
      "ĠÄĳu": 2010,
      "AÌģ": 2011,
      "ĠvuÌĽÌĥng": 2012,
      "ĠruÌĽÌīa": 2013,
      "Ġ:Ċ": 2014,
      "ĠchieÌĤÌģu": 2015,
      "ĠtraÌĨm": 2016,
      "ĠtuÌĽoÌĽÌĢng": 2017,
      "ĠnuÌĽÌīa": 2018,
      "net": 2019,
      "ĠtruÌĢng": 2020,
      "Ġma": 2021,
      "ĠUSD": 2022,
      "ĠÄĳoaÌģn": 2023,
      "ĠcaÌģn": 2024,
      "ĠkhaÌĨÌģp": 2025,
      "ĠgaÌĨÌģn": 2026,
      "ĠnoÌĤÌĥi": 2027,
      "Ġphi": 2028,
      "ĠnguyeÌ£ÌĤn": 2029,
      "ĠmuÌĢi": 2030,
      "ĠHoÌĢa": 2031,
      "ĠgiaÌĢu": 2032,
      "ĠruÌģt": 2033,
      "ĠdaÌ£ÌĤy": 2034,
      "ĠÄĳaÌģo": 2035,
      "ĠbieÌ£ÌĤn": 2036,
      "oÌĤÌĢn": 2037,
      "ĠlaÌĤÌĥn": 2038,
      "ĠNgaÌĢi": 2039,
      "ĠluÌĽoÌĽÌ£c": 2040,
      "ĠNhuÌĽ": 2041,
      "aÌĤÌģc": 2042,
      "ĠhoaÌģ": 2043,
      "ik": 2044,
      "if": 2045,
      "25": 2046,
      "ĠchaÌ£ÌĤm": 2047,
      "__": 2048,
      "Tuy": 2049,
      "Ġcan": 2050,
      "ĠmoÌĽÌĢi": 2051,
      "ĠgaÌĢ": 2052,
      "ĠkiÌ£p": 2053,
      "ĠÄĳoÌĢi": 2054,
      "ĠbieÌĤn": 2055,
      "iÌģt": 2056,
      "ĠAÌĤu": 2057,
      "ill": 2058,
      "17": 2059,
      "ĠHoÌĤÌĢng": 2060,
      "ĠhoÌĤÌĢn": 2061,
      "ĠLyÌģ": 2062,
      "ĠgheÌĤÌģ": 2063,
      "ĠDu": 2064,
      "ĠsaÌ£n": 2065,
      "ĠnguÌĽoÌĽÌ£c": 2066,
      "ĠdaÌģm": 2067,
      "ĠquaÌ£ÌĤn": 2068,
      "ĠcaÌ£ÌĤn": 2069,
      "ĠroÌĽÌĢi": 2070,
      "ĠÄĲaÌĢ": 2071,
      "ĠtuÌ£": 2072,
      "ĠgioÌ£ng": 2073,
      "oc": 2074,
      "ĠthuÌĽoÌĽÌ£ng": 2075,
      "ĠnaÌĨÌģng": 2076,
      "ĠCoÌĢn": 2077,
      "ĠNoÌģ": 2078,
      "ĠÄĳuÌĽÌģc": 2079,
      "ĠngaÌ£i": 2080,
      "oÌĽÌģp": 2081,
      "ĠkieÌ£ÌĤm": 2082,
      "ĠtroÌĤÌĢng": 2083,
      "Ġtruy": 2084,
      "ĠÄĳeÌ£ÌĤ": 2085,
      "ĠlieÌ£ÌĤt": 2086,
      "HCM": 2087,
      "ra": 2088,
      "ĠruÌĽÌĢng": 2089,
      "ĠXuaÌĤn": 2090,
      "eÌĢo": 2091,
      "Ġhy": 2092,
      "ĠnhaÌĤÌģn": 2093,
      "ĠxuÌĽoÌĽng": 2094,
      "ĠchoÌĽÌ£": 2095,
      "ĠkhuoÌĤn": 2096,
      "ĠchaÌīy": 2097,
      "oa": 2098,
      "ĠsoÌģng": 2099,
      "ĠBa": 2100,
      "ĠmeÌĥ": 2101,
      "ĠtuÌģi": 2102,
      "ĠmaÌĢy": 2103,
      "ĠmuÌ£n": 2104,
      "NgoaÌĢi": 2105,
      "Ġsong": 2106,
      "ers": 2107,
      "ly": 2108,
      "ĠVaÌĤn": 2109,
      "ist": 2110,
      "ou": 2111,
      "Ġly": 2112,
      "ĠBaÌīo": 2113,
      "ĠtoÌĢa": 2114,
      "ĠtroÌĤng": 2115,
      "Ġrau": 2116,
      "ĠbaÌīng": 2117,
      "ĠtaÌĨÌģm": 2118,
      "ĠkiÌĢ": 2119,
      "ĠÄĳaÌīng": 2120,
      "ĠhaÌīo": 2121,
      "ĠÄĳuÌĽoÌĽng": 2122,
      "ĠbeÌĤÌĢn": 2123,
      "ack": 2124,
      "oi": 2125,
      "ĠNhaÌĤn": 2126,
      "ĠThaÌģnh": 2127,
      "ĠGiang": 2128,
      "Ġand": 2129,
      "ĠkeÌĤu": 2130,
      "ĠloÌĤng": 2131,
      "ne": 2132,
      "ĠTuÌĽ": 2133,
      "ĠGia": 2134,
      "ĠgiaÌĢ": 2135,
      "ĠxuÌĽa": 2136,
      "ĠHai": 2137,
      "Ġ.Ċ": 2138,
      "ĠmuÌĽa": 2139,
      "Ġung": 2140,
      "ĠkeÌĢm": 2141,
      "ĠcuÌĽoÌĽÌģi": 2142,
      "amin": 2143,
      "ĠgiaÌīng": 2144,
      "ĠbeÌĢ": 2145,
      "ĠOÌĽ": 2146,
      "amp": 2147,
      "ĠthiÌģ": 2148,
      "ĠtruÌĽÌĢ": 2149,
      "ce": 2150,
      "Anh": 2151,
      "ĠroÌĤÌģi": 2152,
      "ĠPhuÌģ": 2153,
      "ĠsaÌĢng": 2154,
      "ĠCoÌ£ÌĤng": 2155,
      "ĠZ": 2156,
      "ĠThaÌĤÌĢn": 2157,
      "40": 2158,
      "NhuÌĽng": 2159,
      "ĠboÌ£ÌĤt": 2160,
      "ĠkhaÌģng": 2161,
      "ub": 2162,
      "aÌ£ÌĤc": 2163,
      "ĠduÌĽÌĢng": 2164,
      "ĠhoÌ£p": 2165,
      "?âĢĿĊ": 2166,
      "tt": 2167,
      "ĠleÌ£ÌĤnh": 2168,
      "ĠthuÌĽoÌĽÌģc": 2169,
      "ĠnguÌĽÌ£c": 2170,
      "ĠÄĳaÌĨÌīng": 2171,
      "ĠthoÌĽÌĢ": 2172,
      "ĠloaÌ£n": 2173,
      "ĠHuy": 2174,
      "ĠbuÌĽÌĥa": 2175,
      "ĠtaÌ£p": 2176,
      "ĠlaÌ£ÌĨng": 2177,
      "ĠtoÌĽÌĢ": 2178,
      "ĠgoÌģi": 2179,
      "ĠnhaÌĢng": 2180,
      "ĠVaÌ£ÌĤy": 2181,
      "ĠlaÌģi": 2182,
      "ĠaÌĤÌīm": 2183,
      "ĠQuaÌĤn": 2184,
      "ĠVieÌ£ÌĤc": 2185,
      "Ġwebsite": 2186,
      "oÌ£a": 2187,
      "ĠcaÌĨng": 2188,
      "ĠBaÌĢ": 2189,
      "ĠgoÌģc": 2190,
      "ĠngaÌĢn": 2191,
      "ĠTaÌ£i": 2192,
      "ĠnguÌĽÌĢng": 2193,
      "ĠQuang": 2194,
      "od": 2195,
      "ĠqueÌĤ": 2196,
      "ĠhaÌīi": 2197,
      "ore": 2198,
      "ĠcoÌĽn": 2199,
      "60": 2200,
      "ĠcoÌĽm": 2201,
      "ĠguÌĽoÌĽng": 2202,
      "ĠnaÌĤÌģu": 2203,
      "ĠkhuÌģc": 2204,
      "Ġngang": 2205,
      ".vn": 2206,
      "ĠgieÌĤÌģt": 2207,
      "Ġxinh": 2208,
      "ChuÌģng": 2209,
      "ĠTuÌĽÌī": 2210,
      "qu": 2211,
      "ĠbaÌ£ÌĤc": 2212,
      "ĠtruÌĽng": 2213,
      "ĠVN": 2214,
      "ÌĢo": 2215,
      "ĠdoÌĥi": 2216,
      "ĠVuÌĽoÌĽng": 2217,
      "ĠtruÌĽÌģng": 2218,
      "ĠboÌĤÌģn": 2219,
      "ĠoÌĤm": 2220,
      "ĠloÌĤÌģi": 2221,
      "Ġvay": 2222,
      "ĠtheÌī": 2223,
      "ĠTaÌĤn": 2224,
      "ĠoÌĤÌģng": 2225,
      "ĠtiÌī": 2226,
      "ĠTieÌĤn": 2227,
      "ile": 2228,
      "ort": 2229,
      "ĠquaÌĢ": 2230,
      "ĠsuÌĽÌģ": 2231,
      "ĠhaÌ£ng": 2232,
      "Qu": 2233,
      "Ġsu": 2234,
      "ĠmuÌĽÌĢng": 2235,
      "ĠMeÌ£": 2236,
      "ĠtiÌĥnh": 2237,
      "ass": 2238,
      "ĠtaÌī": 2239,
      "ĠkhuyeÌĤÌģn": 2240,
      "Ġgan": 2241,
      "ÄĲaÌĤy": 2242,
      "ĠtruÌ£": 2243,
      "ĠhaÌĢo": 2244,
      "ĠTieÌĤÌīu": 2245,
      "ĠViet": 2246,
      "pp": 2247,
      "ÃĲ": 2248,
      "ĠtuÌī": 2249,
      "ĠbaÌĨng": 2250,
      "NgaÌĢy": 2251,
      "ĠngheÌĢo": 2252,
      "ĠthuÌĢ": 2253,
      "ĠthoÌīa": 2254,
      "ĠOÌĽÌī": 2255,
      "Ġmai": 2256,
      "ĠLuaÌ£ÌĤt": 2257,
      "ov": 2258,
      "ĠnoÌĽÌ£": 2259,
      "ĠkhuÌīng": 2260,
      "Ġbinh": 2261,
      "ĠtoÌĤÌīn": 2262,
      "ĠngoÌ£t": 2263,
      "ĠluÌĽoÌĽ": 2264,
      "Ġla": 2265,
      "ĠtraÌĢ": 2266,
      "|Ċ": 2267,
      "iÌ£n": 2268,
      "ĠloaÌĢi": 2269,
      "ĠSuÌĽÌ£": 2270,
      "ĠveÌģ": 2271,
      "Ġkem": 2272,
      "ĠlaÌĨÌģp": 2273,
      "ĠSoÌĽÌī": 2274,
      "ĠâĢ¦": 2275,
      "ieÌĤÌģc": 2276,
      "TruÌĽoÌĽÌģc": 2277,
      "ĠPhi": 2278,
      "ĠchaÌģy": 2279,
      "ĠsoÌĽn": 2280,
      "ity": 2281,
      "ĠHieÌ£ÌĤn": 2282,
      "ĠPhoÌģ": 2283,
      "ĠsoÌĤÌī": 2284,
      "ev": 2285,
      "Ġpha": 2286,
      "ĠkhuaÌĤÌīn": 2287,
      "TaÌ£i": 2288,
      "ĠSt": 2289,
      "ĠgiuÌĽoÌĽÌĢng": 2290,
      "oaÌĢn": 2291,
      "199": 2292,
      ",Ċ": 2293,
      "ĠMai": 2294,
      "ĠsaÌĢn": 2295,
      "uoÌĤÌĢng": 2296,
      "ĠdiÌ£p": 2297,
      "ĠloÌ£c": 2298,
      "ĠthaÌģc": 2299,
      "ĠbaÌ£i": 2300,
      "ĠBeÌĤn": 2301,
      "ĠkhoÌģc": 2302,
      "ĠPhoÌĢng": 2303,
      "oÌīi": 2304,
      "ĠbeÌĤÌĢ": 2305,
      "oÌīng": 2306,
      "ĠcuÌ£c": 2307,
      "ĠBoÌĽÌīi": 2308,
      "age": 2309,
      "ĠloaÌ£t": 2310,
      "ord": 2311,
      "ĠxuÌĽÌģ": 2312,
      "ieÌĤÌĥu": 2313,
      "ĠQuaÌīng": 2314,
      "Ġquang": 2315,
      "ĠmeÌ£ÌĤt": 2316,
      "ĠThoÌĤng": 2317,
      "ĠCao": 2318,
      "HieÌ£ÌĤn": 2319,
      "ĠCho": 2320,
      "gi": 2321,
      "\",": 2322,
      "Ġtan": 2323,
      "ĠluÌĽoÌĽÌ£t": 2324,
      "Ġninh": 2325,
      "ĠtraÌĤÌĢm": 2326,
      "CaÌģch": 2327,
      "eÌģn": 2328,
      "ĠCH": 2329,
      "ĠPhaÌ£m": 2330,
      "ĠgoÌ£n": 2331,
      "su": 2332,
      "ĠhuÌĽÌģng": 2333,
      "Ġlan": 2334,
      "--": 2335,
      "ĠphaÌģi": 2336,
      "Ġdinh": 2337,
      "ĠteÌ£ÌĤ": 2338,
      "ĠgiaÌ£ÌĤn": 2339,
      "//": 2340,
      "ĠhoÌ£ÌĤp": 2341,
      "ĠhaÌĢm": 2342,
      "ĠthoÌĽm": 2343,
      "ĠAl": 2344,
      "ĠmoÌ£ÌĤ": 2345,
      "ell": 2346,
      "Ġon": 2347,
      "ĠcaÌ£ÌĨp": 2348,
      "ĠaÌĤÌīn": 2349,
      "ĠviÌģ": 2350,
      "itamin": 2351,
      "ĠTrang": 2352,
      "ĠNaÌĨm": 2353,
      "oÌĤÌĥng": 2354,
      "22": 2355,
      "Ġphu": 2356,
      "ĠphieÌĤÌģu": 2357,
      "ation": 2358,
      "CoÌĤng": 2359,
      "ĠkiÌģn": 2360,
      "ebook": 2361,
      "ate": 2362,
      "ĠtroÌĢn": 2363,
      "TuÌĽÌĢ": 2364,
      "ĠÄĲaÌ£ÌĨc": 2365,
      "ĠhuÌĽ": 2366,
      "ud": 2367,
      "ĠchaÌĢo": 2368,
      "ĠvuÌĽoÌĽÌĢn": 2369,
      "ĠÄĳeÌĤÌģ": 2370,
      "\".Ċ": 2371,
      "ĠtaÌ£m": 2372,
      "oÌ£ÌĤp": 2373,
      "ĠLa": 2374,
      "ttp": 2375,
      "ĠSaÌĢi": 2376,
      "co": 2377,
      "ĠloÌĤÌĥ": 2378,
      "://": 2379,
      "ind": 2380,
      "ax": 2381,
      "ĠheÌĢ": 2382,
      "ick": 2383,
      "ĠvoÌ£ÌĤi": 2384,
      "ĠnaÌĥo": 2385,
      "iÌ£a": 2386,
      "ĠÄĳieÌĤÌīn": 2387,
      "TT": 2388,
      "ĠÄĲuÌĽoÌĽÌĢng": 2389,
      "ĠdaÌ£": 2390,
      "ĠeÌģp": 2391,
      "ĠkhaÌģn": 2392,
      "ĠThe": 2393,
      "Ġthang": 2394,
      "ĠChi": 2395,
      "23": 2396,
      "ĠdieÌ£ÌĤt": 2397,
      "all": 2398,
      "ton": 2399,
      "ri": 2400,
      "ĠphaÌ£t": 2401,
      "acebook": 2402,
      "ĠlaÌĤÌĢm": 2403,
      "era": 2404,
      "ĠCaÌģch": 2405,
      "ternet": 2406,
      "ĠtraÌĢn": 2407,
      "Ġkhung": 2408,
      "ĠcaÌĢi": 2409,
      "ĠbeÌģo": 2410,
      "ĠboÌĽÌĢ": 2411,
      "ĠvoÌĽÌĥ": 2412,
      "ĠgaÌĤÌģp": 2413,
      "ĠthaÌ£ÌĤp": 2414,
      "ĠtuÌĢ": 2415,
      "ĠtaÌĢn": 2416,
      "ĠmaÌĥn": 2417,
      "ĠsaÌĨÌģt": 2418,
      "uÌ£i": 2419,
      "Ġnha": 2420,
      "ĠTruÌĽoÌĽÌģc": 2421,
      "80": 2422,
      "ĠHu": 2423,
      "ĠphaÌĤÌĥu": 2424,
      "ĠHuÌĽoÌĽng": 2425,
      "ĠÄĳiÌīnh": 2426,
      "ĠaÌģc": 2427,
      "eg": 2428,
      "ĠNinh": 2429,
      "ry": 2430,
      "aÌĨÌĥng": 2431,
      "ĠheÌ£n": 2432,
      "ant": 2433,
      "ĠÄĳaÌĢi": 2434,
      "ĠGoÌĢn": 2435,
      "ĠÃĲ": 2436,
      "ĠmoÌīi": 2437,
      "ĠchaÌ£m": 2438,
      "ĠvaÌīi": 2439,
      "ĠÄĳaÌ£ÌĤu": 2440,
      "ĠthoaÌģng": 2441,
      "Phone": 2442,
      "ht": 2443,
      "Ġnhi": 2444,
      "ĠSa": 2445,
      "ĠUB": 2446,
      "Ġ&": 2447,
      "ĠbaÌĥi": 2448,
      "ĠnoÌĤÌī": 2449,
      "ĠluÌ£c": 2450,
      "io": 2451,
      "ff": 2452,
      "ĠÄĲoÌĤÌģi": 2453,
      "ĠduÌĽoÌĽÌ£c": 2454,
      "ĠmuÌĽoÌĽÌĢi": 2455,
      "uoÌ£ÌĤc": 2456,
      "ĠchuÌĽÌĢng": 2457,
      "500": 2458,
      "ĠNha": 2459,
      "ee": 2460,
      "**": 2461,
      "ĠAÌīnh": 2462,
      "ĠmeÌ£ÌĤnh": 2463,
      "ĠâĢĺ": 2464,
      "ĠkhuyeÌĤn": 2465,
      "ĠTaÌĤÌģt": 2466,
      "ĠÐ": 2467,
      "ain": 2468,
      "ĠduÌĽÌģt": 2469,
      "21": 2470,
      "ĠmoÌĽÌĥ": 2471,
      "ok": 2472,
      "ĠthaÌģnh": 2473,
      "se": 2474,
      "ich": 2475,
      "ĠtraÌĤÌĢn": 2476,
      "IEÌĤ": 2477,
      "ĠphuÌģ": 2478,
      "iz": 2479,
      "ĠÄĲiÌĢnh": 2480,
      "eÌ£o": 2481,
      "ĠvoÌī": 2482,
      "ĠgiaÌĤÌģc": 2483,
      "ĠÄĳuoÌĤÌīi": 2484,
      "ĠliÌģ": 2485,
      "VN": 2486,
      "ÌĢnh": 2487,
      "ĠgiaÌĢy": 2488,
      "Ġchua": 2489,
      "nam": 2490,
      "ĠNgaÌĢy": 2491,
      "ĠTa": 2492,
      "Ġhu": 2493,
      "ĠQuyÌģ": 2494,
      "ĠmaÌĨÌģn": 2495,
      "?âĢĿ": 2496,
      "ĠtaÌģn": 2497,
      "ĠGiaÌģm": 2498,
      "ĠnhaÌīy": 2499,
      "AN": 2500,
      "ĠcuÌĽÌ£": 2501,
      "ĠÄĳaÌĥi": 2502,
      "ĠuÌīng": 2503,
      "ĠcaÌĤÌīn": 2504,
      "ĠphaÌĤÌģn": 2505,
      "ĠtraÌĢo": 2506,
      "ĠbaÌĨÌģn": 2507,
      "gle": 2508,
      "ĠÄĳieÌ£ÌĤu": 2509,
      "ĠMaÌ£ÌĨc": 2510,
      "ĠthieÌ£ÌĤt": 2511,
      "ĠphoÌģ": 2512,
      "ĠtaÌĨÌģt": 2513,
      "Ġtung": 2514,
      "ww": 2515,
      "AÌ£": 2516,
      "BuÌĽoÌĽÌģc": 2517,
      "ĠngaÌ£c": 2518,
      "ĠMoÌĤÌĥi": 2519,
      "ĠToÌĤÌī": 2520,
      "Ġtha": 2521,
      "ĠBaÌ£ch": 2522,
      "ĠTuaÌĤÌģn": 2523,
      "ĠNH": 2524,
      "Ġhuynh": 2525,
      "ĠhoÌĤi": 2526,
      "70": 2527,
      "Ġtri": 2528,
      "og": 2529,
      "ĠboÌĢ": 2530,
      "ĠtoÌĤÌģn": 2531,
      "ast": 2532,
      "ĠTaÌĤm": 2533,
      "ĠboÌĤÌģi": 2534,
      "ĠNhieÌĤÌĢu": 2535,
      "oogle": 2536,
      "ĠNaÌĨÌĥng": 2537,
      "ĠuÌĽoÌĽng": 2538,
      "az": 2539,
      "Ġvang": 2540,
      "ĠphuÌĽÌģc": 2541,
      "ĠnoÌĤÌĥ": 2542,
      "OÌĽÌī": 2543,
      "ĠphaÌģn": 2544,
      "uÌ£y": 2545,
      "ĠsoÌĤÌģt": 2546,
      "ĠVieÌ£ÌĤn": 2547,
      "ĠraÌĥi": 2548,
      "ĠmuÌĽÌ£c": 2549,
      "ĠgiaÌĢnh": 2550,
      "ĠMar": 2551,
      "ĠkieÌĤn": 2552,
      "ĠvuÌĽoÌĽng": 2553,
      "ĠhieÌ£ÌĤp": 2554,
      "ah": 2555,
      "ĠUBND": 2556,
      "ĠÄĲeÌĤÌģn": 2557,
      "ĠduÌĽoÌĽÌĢng": 2558,
      "uÌĽoÌĽÌģp": 2559,
      "deo": 2560,
      "ĠchaÌĤÌģm": 2561,
      "ĠCoÌĽ": 2562,
      ".\"Ċ": 2563,
      "ĠveÌĥ": 2564,
      "ĠNgaÌĤn": 2565,
      "ĠtiÌģ": 2566,
      "ĠngaÌĥ": 2567,
      "ĠkhieÌĤÌīn": 2568,
      "eÌĤnh": 2569,
      "CoÌĤ": 2570,
      "ĠchuÌ£c": 2571,
      "oÌĽÌ£t": 2572,
      "Ġvideo": 2573,
      "ĠuÌīy": 2574,
      "ĠtaÌĤy": 2575,
      "ĠxaÌĤm": 2576,
      "ĠboÌĽ": 2577,
      "Ġngu": 2578,
      "ĠneÌĤu": 2579,
      "ĠÄĲoÌ£ÌĤ": 2580,
      "ĠAr": 2581,
      "Ġro": 2582,
      ".HCM": 2583,
      "uÌĽÌģt": 2584,
      "ĠLuÌģc": 2585,
      "ĠÄĳaÌ£ÌĤp": 2586,
      "ĠtruÌĽoÌĽng": 2587,
      "ĠHy": 2588,
      "ÄĲieÌĤÌĢu": 2589,
      "ĠTeÌĤÌģt": 2590,
      "Ġvua": 2591,
      "Ġmi": 2592,
      "ĠnoÌĽÌī": 2593,
      "ĠgiaÌĤy": 2594,
      "ĠmieÌĤÌģng": 2595,
      "ĠSh": 2596,
      "CH": 2597,
      "Em": 2598,
      "ĠthaÌĨÌĢng": 2599,
      "28": 2600,
      "ĠÄĳiÌ£ch": 2601,
      "ep": 2602,
      "ĠDuÌĢ": 2603,
      "ĠtruÌĽÌĥ": 2604,
      "ĠthaÌīi": 2605,
      "Ġcl": 2606,
      "Ġvitamin": 2607,
      "ib": 2608,
      "EÌ£ÌĤ": 2609,
      "ĠtruyeÌ£ÌĤn": 2610,
      "ina": 2611,
      "ViÌĢ": 2612,
      "ĠsyÌĥ": 2613,
      "ĠtieÌĤÌĢm": 2614,
      "ink": 2615,
      "ĠNew": 2616,
      "\".": 2617,
      "ĠhuÌĢng": 2618,
      "ĠchaÌ£ÌĨn": 2619,
      "ĠTaÌĢi": 2620,
      "uoÌĤÌģn": 2621,
      "ĠHieÌ£ÌĤp": 2622,
      "ĠBeÌ£ÌĤnh": 2623,
      "ĠthoÌĤn": 2624,
      "are": 2625,
      "ĠhieÌĤÌīn": 2626,
      "197": 2627,
      "oÌ£ÌĤm": 2628,
      "our": 2629,
      "ĠkhiÌģch": 2630,
      "ĠTaÌ£ÌĤp": 2631,
      "ĠDuÌĥng": 2632,
      "Ġnon": 2633,
      "ĠHaÌ£": 2634,
      "ĠgioÌīi": 2635,
      "PT": 2636,
      "ĠgoÌĽÌ£i": 2637,
      "ond": 2638,
      "Ġcanh": 2639,
      "TreÌĤn": 2640,
      "90": 2641,
      "ĠthaÌīm": 2642,
      "ĠchoÌģ": 2643,
      "Ġtreo": 2644,
      "ĠÄĳuÌĽÌ£ng": 2645,
      "ian": 2646,
      "Ġpro": 2647,
      "ĠThuÌĽoÌĽng": 2648,
      "ĠthieÌĤÌīu": 2649,
      "ĠduyeÌĤn": 2650,
      "ĠCuÌĥng": 2651,
      "ĠDaÌĤn": 2652,
      "VieÌ£ÌĤc": 2653,
      "ĠnguÌĽÌĢa": 2654,
      "ĠchuÌĢa": 2655,
      ",âĢ¦": 2656,
      "ĠVinh": 2657,
      "op": 2658,
      "Ġim": 2659,
      "Ġsho": 2660,
      "ĠsoÌĤi": 2661,
      "ĠThoÌĽÌĢi": 2662,
      "und": 2663,
      "Ġko": 2664,
      "ĠkiÌ£ch": 2665,
      "ver": 2666,
      "ĠmaÌīnh": 2667,
      "ĠbaÌ£o": 2668,
      "Ì£a": 2669,
      "ue": 2670,
      "Ġdao": 2671,
      "ank": 2672,
      "ĠGieÌĤ": 2673,
      "uc": 2674,
      "ĠchiÌģn": 2675,
      "ĠUÌĽ": 2676,
      "ĠthaÌĤm": 2677,
      "Ġhoang": 2678,
      "ĠÄĳaÌ£ÌĤm": 2679,
      "ĠcaÌĤÌģm": 2680,
      "Ġthua": 2681,
      "ĠbuÌ£i": 2682,
      "ĠThuÌĽÌ£c": 2683,
      "ĠPhan": 2684,
      "ĠtuÌĽÌ£a": 2685,
      "oÌĽÌģn": 2686,
      "ĠtieÌĤÌģc": 2687,
      "ĠngoÌģn": 2688,
      "ĠLuÌĽu": 2689,
      "ĠthaÌģch": 2690,
      "âĢĶ": 2691,
      "ĠHuÌĽng": 2692,
      "ĠmaÌĢng": 2693,
      "ĠnhaÌĨÌģn": 2694,
      "ĠtoÌĤng": 2695,
      "ĠhuÌīy": 2696,
      "ĠLaÌĢm": 2697,
      "Ġxoay": 2698,
      "ĠHoÌ£c": 2699,
      "HaÌĥy": 2700,
      "ĠthoÌģi": 2701,
      "ĠhuÌĽÌģa": 2702,
      "ĠcaÌīn": 2703,
      "ĠcoÌ£ÌĤt": 2704,
      "ĠaÌģi": 2705,
      "ĠTR": 2706,
      "ĠÄĳoÌĤÌģt": 2707,
      "aÌĥnh": 2708,
      "ĠTieÌĤu": 2709,
      "ĠHuÌĢng": 2710,
      "ĠruoÌ£ÌĤt": 2711,
      "ĠgiaÌĥn": 2712,
      "ĠnuÌģt": 2713,
      "ĠkhoÌĽÌģp": 2714,
      "ĠÂ": 2715,
      "ox": 2716,
      "Ġchim": 2717,
      "ĠtroÌ£n": 2718,
      "Ġhttp": 2719,
      "uÌ£t": 2720,
      "Ġbang": 2721,
      "end": 2722,
      "ĠCaÌģi": 2723,
      "ĠBaÌģc": 2724,
      "ĠmuoÌĤÌģi": 2725,
      "ĠYeÌĤn": 2726,
      "ĠcoÌĽÌĢ": 2727,
      "ĠsaÌģnh": 2728,
      "ĠtroÌĤÌģng": 2729,
      "ĠDN": 2730,
      "ĠhuoÌĤÌģng": 2731,
      "BeÌĤn": 2732,
      "ĠnuÌ£": 2733,
      "ĠnhuÌĽÌ£a": 2734,
      "ĠcoÌĤÌģt": 2735,
      "ĠthaÌī": 2736,
      "ĠchuÌģc": 2737,
      "ĠboÌĤng": 2738,
      "ĠsuÌģng": 2739,
      "ĠKhaÌģnh": 2740,
      "ĠgaÌ£o": 2741,
      "UÌĽOÌĽ": 2742,
      "VeÌĤÌĢ": 2743,
      "II": 2744,
      "26": 2745,
      "TC": 2746,
      "ĠTieÌĤÌģn": 2747,
      "ĠlaÌĥng": 2748,
      "ĠdiÌĥ": 2749,
      "ĠtaÌīng": 2750,
      "phone": 2751,
      "ĠTam": 2752,
      "Ġsay": 2753,
      "Ngh": 2754,
      "ĠngaÌĢi": 2755,
      "ĠThuÌīy": 2756,
      "ĠthuyeÌĤÌĢn": 2757,
      "ĠhieÌĤÌģm": 2758,
      "ÄĲoÌĤÌģi": 2759,
      "ĠAÌĤÌģn": 2760,
      "ĠmoÌīng": 2761,
      "ĠtuÌģc": 2762,
      "ĠthaÌĤÌĢm": 2763,
      "ĠhoÌīng": 2764,
      "ĠcoÌī": 2765,
      "ĠaÌĢ": 2766,
      "ĠÄĲoaÌĢn": 2767,
      "lin": 2768,
      "ĠnaÌĤÌģm": 2769,
      "ĠPH": 2770,
      "ĠmaÌ£c": 2771,
      "ĠKhoa": 2772,
      "ĠNhaÌĤÌģt": 2773,
      "ĠdaÌĤu": 2774,
      "ect": 2775,
      "ĠOÌĤ": 2776,
      "Ġong": 2777,
      "ĠleÌī": 2778,
      "ĠboÌĽÌģt": 2779,
      "log": 2780,
      "!âĢĿĊ": 2781,
      "Xem": 2782,
      "300": 2783,
      "ĠTreÌĤn": 2784,
      ">>": 2785,
      "ĠbaÌģt": 2786,
      "aÌĤÌĥy": 2787,
      "ĠvaÌģy": 2788,
      "ĠtruÌģ": 2789,
      "ĠsaÌĨÌģm": 2790,
      "ĠboÌĤÌĢi": 2791,
      "ĠthuÌĽÌ£": 2792,
      "ĠtaÌģo": 2793,
      "ĠtraÌĤÌģn": 2794,
      "ĠPhaÌģt": 2795,
      "ĠuÌĽa": 2796,
      "mart": 2797,
      "ĠGoogle": 2798,
      "27": 2799,
      "ĠhoaÌīng": 2800,
      "ĠthaÌĨÌģc": 2801,
      "ĠNoÌģi": 2802,
      "ĠnoÌ£ÌĤp": 2803,
      "Ġemail": 2804,
      "ĠdiÌ£u": 2805,
      "uÌĢi": 2806,
      "Ġ?": 2807,
      "ĠmiÌ£n": 2808,
      "ĠKH": 2809,
      "ĠmuÌĽoÌĽi": 2810,
      "NhuÌĽ": 2811,
      "ĠlaÌĤm": 2812,
      "Ġbi": 2813,
      "ĠÄĳua": 2814,
      "ĠPl": 2815,
      "Ġlang": 2816,
      "ĠnhuaÌ£ÌĤn": 2817,
      "ĠluÌĥ": 2818,
      "VaÌĢ": 2819,
      "ĠgiaÌ£ÌĤt": 2820,
      "ĠlaÌĥi": 2821,
      "ĠnhaÌĥn": 2822,
      "SuÌĽÌ£": 2823,
      "ĠluÌĽoÌĽÌģi": 2824,
      "ĠSinh": 2825,
      "-Ċ": 2826,
      "198": 2827,
      "ĠhoÌĤÌĥn": 2828,
      "ĠmoÌĽÌĢ": 2829,
      "ĠSp": 2830,
      "aÌĤÌĥm": 2831,
      "ĠRe": 2832,
      "ĠaÌīo": 2833,
      "ĠThuÌĽoÌĽÌ£ng": 2834,
      "ĠbaÌ£ch": 2835,
      "ĠÄĳiÌĥa": 2836,
      "ĠQuan": 2837,
      "Con": 2838,
      "ĠdiÌģnh": 2839,
      "ĠchuoÌ£ÌĤt": 2840,
      "-t": 2841,
      "ĠboÌĤÌĥng": 2842,
      "ĠloÌĤ": 2843,
      "ĠtraÌ£i": 2844,
      "ĠcuÌĽoÌĽng": 2845,
      "ĠtaÌĤÌīy": 2846,
      "ĠTrieÌĤÌĢu": 2847,
      "ĠaÌ£": 2848,
      "ĠSaÌīn": 2849,
      "ĠhoÌĤÌī": 2850,
      "ĠcoÌĤÌīng": 2851,
      "ĠboÌģ": 2852,
      "ĠmiÌī": 2853,
      "ans": 2854,
      "ĠÄĲaÌĢi": 2855,
      "ĠSam": 2856,
      "ĠthaÌĤÌģm": 2857,
      "ĠchoÌĤÌģi": 2858,
      "ĠduyeÌ£ÌĤt": 2859,
      "ĠTiÌĢnh": 2860,
      "ĠÄĳaÌ£p": 2861,
      "ĠphoÌīng": 2862,
      "ĠtaÌģch": 2863,
      "ĠTruÌĽoÌĽng": 2864,
      "ĠkeÌĤnh": 2865,
      "ĠngoÌ£n": 2866,
      "ĠtroÌ£ÌĤn": 2867,
      "ĠÄĳaÌĨÌģc": 2868,
      "ĠgiaÌ£ÌĨt": 2869,
      "ĠPhuÌģc": 2870,
      "NaÌĨm": 2871,
      "uÌģy": 2872,
      "ĠthoÌĤÌī": 2873,
      "ĠxoÌģa": 2874,
      "ĠVoÌĥ": 2875,
      "ĠVeÌĤÌĢ": 2876,
      "ber": 2877,
      "ĠKhu": 2878,
      "ĠtaÌĤn": 2879,
      "ĠnghiÌĢn": 2880,
      "ĠgoÌĽÌĥ": 2881,
      "NguoÌĤÌĢn": 2882,
      "ĠngaÌ£ÌĤp": 2883,
      "AÌĨ": 2884,
      "ĠchuÌģa": 2885,
      "ĠphieÌĤÌĢn": 2886,
      "eÌ£t": 2887,
      "Ġsa": 2888,
      "ĠAnd": 2889,
      "Ġfor": 2890,
      "ĠHaÌĢng": 2891,
      "ĠBieÌĤÌīn": 2892,
      "iÌĢa": 2893,
      "ight": 2894,
      "ĠngaÌĨÌģm": 2895,
      "ĠHoÌĽn": 2896,
      "ĠDuy": 2897,
      "Ġpin": 2898,
      "35": 2899,
      "Ġvo": 2900,
      "Ġthan": 2901,
      "ey": 2902,
      "ĠMa": 2903,
      "ĠÄĲaÌĢo": 2904,
      "ĠtaÌ£ÌĤt": 2905,
      "ĠnuÌĽoÌĽÌģng": 2906,
      "ĠVin": 2907,
      "ĠnguÌĽoÌĽÌĥng": 2908,
      "ĠnhaÌ£t": 2909,
      "ĠtieÌ£ÌĤc": 2910,
      "ĠUÌīy": 2911,
      "ĠcaÌĤÌģt": 2912,
      "ĠApp": 2913,
      "AM": 2914,
      "ĠFacebook": 2915,
      "ump": 2916,
      "ear": 2917,
      "ĠnuÌĽoÌĽng": 2918,
      "ĠCan": 2919,
      "ĠThieÌĤÌģt": 2920,
      "ty": 2921,
      "ĠtriÌģch": 2922,
      "ĠboÌĽi": 2923,
      "oh": 2924,
      "ĠtroÌĤÌģn": 2925,
      "ĠnhaÌĤÌĥn": 2926,
      "ĠlaÌģt": 2927,
      "____": 2928,
      "ĠkhaÌĤÌģu": 2929,
      "Ho": 2930,
      "mm": 2931,
      "ĠCha": 2932,
      "ĠoÌĽi": 2933,
      "AÌī": 2934,
      "ĠbaÌģm": 2935,
      "ĠxuaÌĤn": 2936,
      "ĠBr": 2937,
      "ĠchaÌģn": 2938,
      "ĠÄĲieÌ£ÌĤn": 2939,
      "ĠchoÌĽÌī": 2940,
      "ĠDung": 2941,
      "ĠLaÌĢ": 2942,
      "tel": 2943,
      "LV": 2944,
      "29": 2945,
      "Ġ'": 2946,
      "ĠDieÌ£ÌĤp": 2947,
      "Ġ?Ċ": 2948,
      "mp": 2949,
      "45": 2950,
      "ĠGiaÌģ": 2951,
      "ChiÌī": 2952,
      "ĠgaÌ£ÌĤt": 2953,
      "ThoÌĤng": 2954,
      "BaÌĢi": 2955,
      "CuÌĥng": 2956,
      "ĠNhi": 2957,
      "Ġ+": 2958,
      "ĠBl": 2959,
      "ĠxuÌĽÌģng": 2960,
      "ĠluÌĽÌĢa": 2961,
      "ÄĲT": 2962,
      "ĠThuÌĽÌģ": 2963,
      "ĠsoÌĽÌ£i": 2964,
      "iÌĥa": 2965,
      "ld": 2966,
      "xi": 2967,
      "ĠchaÌĨng": 2968,
      "ĠSuÌĽÌī": 2969,
      "ĠmoÌģc": 2970,
      "ran": 2971,
      "ĠsaÌĨn": 2972,
      "ÄĲuÌĽoÌĽÌ£c": 2973,
      "ĠMy": 2974,
      "ĠboÌ£c": 2975,
      "ĠtoÌīa": 2976,
      "ĠnguÌĽÌ£a": 2977,
      "BoÌ£ÌĤ": 2978,
      "Ġnho": 2979,
      "Ġvong": 2980,
      "ĠtuÌģ": 2981,
      "ĠgoÌĤÌģi": 2982,
      "ĠvoÌĥ": 2983,
      "ĠlaÌĨÌģc": 2984,
      "ĠViÌĥnh": 2985,
      "ĠÄĲaÌĤÌĢu": 2986,
      "ĠquaÌģi": 2987,
      "Ġvinh": 2988,
      "ĠDuÌĽÌ£": 2989,
      "Ġj": 2990,
      "uk": 2991,
      "ĠMan": 2992,
      "Hai": 2993,
      "ĠTroÌ£ng": 2994,
      "ĠBaÌĢi": 2995,
      "uoÌĤÌĥi": 2996,
      "ork": 2997,
      "ge": 2998,
      "ĠHuÌĽÌĥu": 2999,
      "ĠnhiÌ£p": 3000,
      "ĠmoÌ£c": 3001,
      "ĠtroÌĤi": 3002,
      "ĠbaÌ£ÌĤn": 3003,
      "ĠcoÌĽÌĥ": 3004,
      "ĠLaÌ£c": 3005,
      "NhieÌĤÌĢu": 3006,
      "-l": 3007,
      "CoÌĢn": 3008,
      "ĠthoÌ£": 3009,
      "ĠdoÌ£a": 3010,
      "ft": 3011,
      "Ð¾": 3012,
      "ien": 3013,
      "ĠSy": 3014,
      "cm": 3015,
      "ĠmiÌģ": 3016,
      "ĠchaÌĤÌģn": 3017,
      "Ġal": 3018,
      "uÌĽoÌĽÌģt": 3019,
      "ĠcuÌĽoÌĽÌģp": 3020,
      "khoÌĤng": 3021,
      "Ġonline": 3022,
      "ĠNghiÌ£": 3023,
      "ach": 3024,
      "ĠChiÌ£": 3025,
      "ĠkiÌĥ": 3026,
      "ĠÄĲH": 3027,
      "ĠBaÌģo": 3028,
      "Ġmen": 3029,
      "ĠLe": 3030,
      "ĠhaÌĥi": 3031,
      "ĠkhaÌģt": 3032,
      "ĠphuÌĽoÌĽÌĢng": 3033,
      "ck": 3034,
      "Ġkhen": 3035,
      "indow": 3036,
      "ĠÄĲuÌĽoÌĽÌ£c": 3037,
      "ĠMaÌ£ÌĨt": 3038,
      "ĠThuÌĽoÌĽÌĢng": 3039,
      "ĠhoÌĤÌģi": 3040,
      "ĠMal": 3041,
      "ice": 3042,
      "ĠNgoaÌ£i": 3043,
      "NhaÌĢ": 3044,
      "ĠXin": 3045,
      "ĠthaÌģo": 3046,
      "ĠKeÌĤÌģt": 3047,
      "ama": 3048,
      "Ġcamera": 3049,
      "Ġde": 3050,
      "SE": 3051,
      "ĠLoan": 3052,
      "ĠÄĲiÌ£nh": 3053,
      "ĠgaÌĥ": 3054,
      "VaÌ£ÌĤy": 3055,
      "ĠcaÌģt": 3056,
      "ĠuÌĽÌģc": 3057,
      "ĠtaÌģ": 3058,
      "ĠcuÌī": 3059,
      "ĠHCM": 3060,
      "ĠNgoÌĤ": 3061,
      "ĠNgay": 3062,
      "ĠloÌ£": 3063,
      "ĠbaÌģ": 3064,
      "ĠsaÌģu": 3065,
      "ĠPr": 3066,
      "ĠmuÌĽu": 3067,
      "ĠngoÌ£ÌĤ": 3068,
      "ĠAs": 3069,
      "ĠÄĳeo": 3070,
      "ĠAi": 3071,
      "ĠdoÌ£c": 3072,
      "ĠKhaÌģch": 3073,
      "ĠhuaÌĤÌģn": 3074,
      "ĠInternet": 3075,
      "Ġre": 3076,
      "ĠbuÌģt": 3077,
      "ĠvaÌ£n": 3078,
      "ĠDi": 3079,
      "ĠYÌģ": 3080,
      "ĠTruÌĽoÌĽÌīng": 3081,
      "ĠÄĳam": 3082,
      "ThoÌĽÌĢi": 3083,
      "ĠhaÌĨÌĢng": 3084,
      ".\"": 3085,
      "IN": 3086,
      "ĠmoÌĤÌĢ": 3087,
      "ĠÄĳoÌģi": 3088,
      "ĠCaÌīnh": 3089,
      "ĠChuÌĽoÌĽng": 3090,
      "ĠruÌīi": 3091,
      "TV": 3092,
      "Do": 3093,
      "ĠAm": 3094,
      "ĠveÌ£n": 3095,
      "Ġgu": 3096,
      "ĠnhaÌ£y": 3097,
      "ĠruÌĥ": 3098,
      "ĠÄĳaÌĢm": 3099,
      "ÄĲeÌĤÌģn": 3100,
      "oÌĽÌ£n": 3101,
      "ĠngoÌĽi": 3102,
      "ive": 3103,
      "ipp": 3104,
      "IEÌ£ÌĤ": 3105,
      "Ġ!": 3106,
      "ĠhieÌĤÌģn": 3107,
      "ays": 3108,
      "ĠthaÌĨng": 3109,
      "ĠToÌĤ": 3110,
      "ĠNG": 3111,
      "ky": 3112,
      "ĠtheÌģp": 3113,
      "ith": 3114,
      "ĠchaÌĨn": 3115,
      "ĠSong": 3116,
      "ĠmaÌ£n": 3117,
      "ll": 3118,
      "ĠquyÌĥ": 3119,
      "ĠhaÌĤÌĢm": 3120,
      "ĠNuÌĽoÌĽÌģc": 3121,
      "LaÌĢ": 3122,
      "TS": 3123,
      "Ġno": 3124,
      "ĠbaÌĤÌīn": 3125,
      ";Ċ": 3126,
      "ĠÄĳeÌĤÌĢn": 3127,
      "ĠthuaÌĤÌĢn": 3128,
      "ĠPro": 3129,
      "Ġha": 3130,
      "Ġlau": 3131,
      "NoÌģi": 3132,
      "ĠPhil": 3133,
      "36": 3134,
      "ĠTuÌĽÌ£": 3135,
      "ĠThaÌ£ÌĤt": 3136,
      "ĠPhaÌĤÌĢn": 3137,
      "ĠSoÌĤÌģ": 3138,
      "ĠÄĳieÌ£ÌĤp": 3139,
      "ĠloÌĤi": 3140,
      "Ġbe": 3141,
      "TheÌĤÌģ": 3142,
      "Ġbia": 3143,
      "ĠbuoÌĤn": 3144,
      "ide": 3145,
      "88": 3146,
      "uch": 3147,
      "196": 3148,
      "ĠÄĲa": 3149,
      "ug": 3150,
      "ĠvieÌĤÌĥn": 3151,
      "Ġcong": 3152,
      "sung": 3153,
      "ĠÄĳoÌĽÌ£t": 3154,
      "01": 3155,
      "ĠQuaÌ£ÌĤn": 3156,
      "indows": 3157,
      "ĠbaÌĥo": 3158,
      "ĠHaÌĨÌģn": 3159,
      "ĠSing": 3160,
      "ThuÌĽÌģ": 3161,
      "ĠCaÌĤÌĢn": 3162,
      "ĠChieÌĤÌģn": 3163,
      "ĠMaÌĥ": 3164,
      "Ġga": 3165,
      "ĠgiaÌĤÌģu": 3166,
      "ĠCam": 3167,
      "ĠSuÌĽ": 3168,
      "arket": 3169,
      "ĠheÌ£p": 3170,
      "ĠsuÌĽoÌĽÌģng": 3171,
      "Ġ[": 3172,
      "top": 3173,
      "ĠÄĳieÌĤn": 3174,
      "ĠnhaÌĨÌģm": 3175,
      "ĠTinh": 3176,
      "ĠUn": 3177,
      "ĠaÌĤn": 3178,
      "ĠaÌģm": 3179,
      "ĠToÌĤn": 3180,
      "ĠBiÌģ": 3181,
      "ĠÄĲaÌ£o": 3182,
      "ĠkhuÌĽÌģ": 3183,
      "ĠngaÌĤm": 3184,
      "ĠdaÌģn": 3185,
      "wn": 3186,
      "ada": 3187,
      "ĠliÌģnh": 3188,
      "ĠhaÌ£ÌĤn": 3189,
      "ĠCS": 3190,
      "ĠcuÌģng": 3191,
      "ĠloÌĢ": 3192,
      "ĠTin": 3193,
      "ĠraÌģc": 3194,
      "Ġ/": 3195,
      "ĠbeÌĤ": 3196,
      "ĠtruÌĽa": 3197,
      "ĠNeÌĤn": 3198,
      "ens": 3199,
      "uÌĢa": 3200,
      "ĠCaÌī": 3201,
      "Ġphun": 3202,
      "ĠÄĳe": 3203,
      "ĠduÌĽÌĢa": 3204,
      "ĠTrump": 3205,
      "ĠmeÌī": 3206,
      "99": 3207,
      "Ð°": 3208,
      "Ġtao": 3209,
      "Ġac": 3210,
      "ines": 3211,
      "ĠApple": 3212,
      "ĠCuÌĢng": 3213,
      "ĠHLV": 3214,
      "ĠMiÌĢnh": 3215,
      "ĠquyeÌĤÌģn": 3216,
      "BaÌĢ": 3217,
      "ĠmeÌĤÌģn": 3218,
      "ĠkheÌĥ": 3219,
      "Ġchanh": 3220,
      "ĠtruÌ£c": 3221,
      "ix": 3222,
      "ĠUÌģc": 3223,
      "ĠGieÌĤsu": 3224,
      "ĠVoÌĤ": 3225,
      "ĠsoÌģt": 3226,
      "aÌĨÌĢn": 3227,
      "ĠCoÌĤÌī": 3228,
      "ĠmuoÌ£ÌĤn": 3229,
      "ĠDiÌ£ch": 3230,
      "Ġis": 3231,
      "ĠroÌĽÌĥ": 3232,
      "ash": 3233,
      "AÌīnh": 3234,
      "ĠmaÌģ": 3235,
      "ĠHoÌģa": 3236,
      "ost": 3237,
      "ĠÄĳaÌĨÌģt": 3238,
      "ĠnoÌĤÌĢi": 3239,
      "ĠcaÌĨÌģm": 3240,
      "ĠLuÌĽoÌĽng": 3241,
      "ĠMoÌ£i": 3242,
      "apore": 3243,
      "Ġtia": 3244,
      "ĠkhoaÌģng": 3245,
      "iÌ£t": 3246,
      "-m": 3247,
      "ĠluÌĢng": 3248,
      "!âĢĿ": 3249,
      "ĠnoÌĤÌĢng": 3250,
      "ĠCuÌ£c": 3251,
      "ĠHO": 3252,
      "ĠÄĳai": 3253,
      "....": 3254,
      "ĠHueÌĤÌģ": 3255,
      "Ġlong": 3256,
      "aw": 3257,
      "ĠmaÌ£o": 3258,
      "ĠgiaÌģp": 3259,
      "ĠhoÌīa": 3260,
      "Ġloa": 3261,
      "ĠkheÌģo": 3262,
      "ĠtueÌ£ÌĤ": 3263,
      "ĠÄĲiÌ£a": 3264,
      "ĠkhaÌģi": 3265,
      "ĠgheÌģp": 3266,
      "]Ċ": 3267,
      "ĠdaÌĤm": 3268,
      "ĠcuÌĽÌ£u": 3269,
      "ĠAd": 3270,
      "con": 3271,
      "ies": 3272,
      "ĠChaÌĨÌīng": 3273,
      "ĠtoÌĽÌģ": 3274,
      "âĢĶâĢĶ": 3275,
      "ĠraÌĨÌģn": 3276,
      "ĠluÌĽoÌĽÌĥi": 3277,
      "MaÌ£ÌĨc": 3278,
      "ald": 3279,
      "ĠbuoÌĤng": 3280,
      "ĠxoÌĽ": 3281,
      "ĠÄĳaÌĢ": 3282,
      "uÌĽoÌĽn": 3283,
      "ĠbaÌĤÌģm": 3284,
      "ĠHaÌĢnh": 3285,
      "man": 3286,
      "ĠcaÌ£ÌĤy": 3287,
      "ĠÄĳoÌĽÌģn": 3288,
      "ĠthaÌĨÌģt": 3289,
      "ĠleÌ£ÌĤch": 3290,
      "ui": 3291,
      "ĠcaÌĥi": 3292,
      "coÌģ": 3293,
      "Ġrun": 3294,
      "ĠHoÌĤÌĢi": 3295,
      "ĠGiaÌīi": 3296,
      "ĠboÌĽm": 3297,
      "Ġne": 3298,
      "son": 3299,
      "sa": 3300,
      "ĠngoÌ£c": 3301,
      "ChiÌģnh": 3302,
      "Ġhi": 3303,
      "so": 3304,
      "ĠBaÌĨÌĢng": 3305,
      "ĠtrieÌĤÌĢu": 3306,
      "ĠCity": 3307,
      "ĠtroÌ£ÌĤi": 3308,
      "AÌĤÌģ": 3309,
      "ĠSao": 3310,
      "ĠtuaÌĤn": 3311,
      "ĠtrieÌ£ÌĤt": 3312,
      "ĠThaÌĤÌĢy": 3313,
      "ĠneÌĤÌģp": 3314,
      "oÌĤÌģm": 3315,
      "ĠnaÌģm": 3316,
      "Ġva": 3317,
      "Ġsanh": 3318,
      "ĠcuÌģi": 3319,
      "Ġst": 3320,
      "ĠcoÌĤÌģc": 3321,
      "ĠloÌĤÌĢ": 3322,
      "âĢ¦âĢ¦": 3323,
      "org": 3324,
      "martphone": 3325,
      "ĠbeÌĤÌī": 3326,
      "ĠchoÌĽÌ£t": 3327,
      "Ġ|": 3328,
      "ĠLuÌ£c": 3329,
      "ĠÄĳaÌ£n": 3330,
      "ĠÄĳoÌĤÌĢn": 3331,
      "uÌĽoÌĽÌīi": 3332,
      "iÌģu": 3333,
      "ress": 3334,
      "ĠthoÌĽÌ£": 3335,
      "ĠvaÌĤn": 3336,
      "ĠcuÌģ": 3337,
      "ĠÄĳuÌĢa": 3338,
      "ĠbaÌīy": 3339,
      "ĠKho": 3340,
      "ĠBar": 3341,
      "ĠWindows": 3342,
      "EO": 3343,
      "ĠMaÌĢ": 3344,
      "ĠmaÌĤy": 3345,
      "ĠAir": 3346,
      "icro": 3347,
      "roid": 3348,
      "CN": 3349,
      "xy": 3350,
      "ĠthieÌ£ÌĤp": 3351,
      "ĠtroÌ£ÌĤm": 3352,
      "ĠHiÌĢnh": 3353,
      "UY": 3354,
      "ĠSingapore": 3355,
      "ĠnhaÌģnh": 3356,
      "ĠviÌĥ": 3357,
      "ĠmiÌĢ": 3358,
      "ThuÌĽÌ£c": 3359,
      "ĠtruÌģng": 3360,
      "ĠSo": 3361,
      "Ìģnh": 3362,
      "ĠToaÌĢn": 3363,
      "ĠruÌĽÌ£c": 3364,
      "ood": 3365,
      "ĠTroÌĽÌĢi": 3366,
      "Ta": 3367,
      "LaÌĢm": 3368,
      "ĠNaÌĢng": 3369,
      "ĠNgheÌ£ÌĤ": 3370,
      "Ðµ": 3371,
      "Ġmau": 3372,
      "ĠGI": 3373,
      "ĠkhaÌĤÌīn": 3374,
      "ĠkhoÌĤÌīng": 3375,
      "ÄĲaÌ£i": 3376,
      "HiÌĢnh": 3377,
      "ĠchuÌīng": 3378,
      "ĠphiÌģm": 3379,
      "ĠchieÌĤu": 3380,
      "ĠmoÌ£ÌĤng": 3381,
      "oy": 3382,
      "ĠKieÌĤÌĢu": 3383,
      "ĠloÌīng": 3384,
      "ĠquyÌī": 3385,
      "rus": 3386,
      "ĠtraÌĢng": 3387,
      "ĠGiao": 3388,
      "ĠHuyeÌĤÌĢn": 3389,
      "ĠbiÌĢ": 3390,
      "08": 3391,
      "Ġgiam": 3392,
      "Cho": 3393,
      "NguyeÌĤn": 3394,
      "ĠoÌģc": 3395,
      "ve": 3396,
      "LuÌģc": 3397,
      "rom": 3398,
      "ĠquaÌģt": 3399,
      "ĠLaÌĨng": 3400,
      "ĠxaÌĨng": 3401,
      "ĠRoÌĤÌĢi": 3402,
      "ĠlieÌĤÌĢu": 3403,
      "ĠOb": 3404,
      "ĠTrieÌ£ÌĤu": 3405,
      "ĠthaÌĤÌģu": 3406,
      "04": 3407,
      "ĠkhoaÌģn": 3408,
      "ĠBoÌĤÌĢ": 3409,
      "ĠPark": 3410,
      "yÌ£": 3411,
      "ĠLai": 3412,
      "ĠCa": 3413,
      "ĠThaÌīo": 3414,
      "Ġleo": 3415,
      "ĠXem": 3416,
      "OS": 3417,
      "ĠhoaÌĢ": 3418,
      "ĠÄĳaÌĨÌģp": 3419,
      "ĠPar": 3420,
      "go": 3421,
      "ĠGr": 3422,
      "ĠSamsung": 3423,
      "ĠÄĲuÌĽÌĢng": 3424,
      "ĠtoÌĤm": 3425,
      "ĠMaÌģy": 3426,
      "de": 3427,
      "ĠroÌĤÌģt": 3428,
      "ĠthuÌĢng": 3429,
      "ĠhaÌĤm": 3430,
      "Ġsp": 3431,
      "ToÌĤÌīng": 3432,
      "ke": 3433,
      "Ġkm": 3434,
      "ĠkeÌ£ÌĤ": 3435,
      "ĠHD": 3436,
      "ĠMoÌ£ÌĤc": 3437,
      "ath": 3438,
      "ĠneÌĤÌĢ": 3439,
      "ĠtiÌģm": 3440,
      "ĠCl": 3441,
      "ini": 3442,
      "ĠchuoÌĤÌĥi": 3443,
      "AÌ£ÌĤ": 3444,
      "tion": 3445,
      "Ġhung": 3446,
      "ĠPhaÌīi": 3447,
      "ĠcuÌĽoÌĽÌģc": 3448,
      "ĠTaÌĢu": 3449,
      "Ġhot": 3450,
      "Ġson": 3451,
      "ĠNghiÌĥa": 3452,
      "Ġfile": 3453,
      "ĠchuoÌ£ÌĤng": 3454,
      "DuÌĢ": 3455,
      "Ġkhuy": 3456,
      "ĠbuÌĢ": 3457,
      "ĠdaÌĢn": 3458,
      "ĠNuÌĽÌĥ": 3459,
      "ĠsoaÌ£n": 3460,
      "ĠbaÌĨÌģc": 3461,
      "ĠkiÌģ": 3462,
      "arketing": 3463,
      "ĠtaÌĢng": 3464,
      "ĠÄĳaÌĢnh": 3465,
      "Ġtru": 3466,
      "ĠxaÌī": 3467,
      "ĠhoÌ£ng": 3468,
      "ĠmiÌīm": 3469,
      "ĠTuyeÌĤÌģt": 3470,
      "ĠCol": 3471,
      "ĠBieÌĤn": 3472,
      "ĠÄĳoaÌ£t": 3473,
      "ĠnaÌģt": 3474,
      "ĠbaÌĨÌģp": 3475,
      "ĠVieÌĤn": 3476,
      "ĠkhoÌģi": 3477,
      "ĠtuÌĽÌģ": 3478,
      "ĠVietnam": 3479,
      "ĠgaÌ£ch": 3480,
      "33": 3481,
      "ĠkhoÌĤn": 3482,
      "ĠHaÌĨÌĢng": 3483,
      "ĠthaÌĤÌĢu": 3484,
      "ĠBaÌĤÌģt": 3485,
      "ĠvuÌģ": 3486,
      "55": 3487,
      "ĠCaÌĤÌĢu": 3488,
      "Quy": 3489,
      "ĠCar": 3490,
      "ĠLam": 3491,
      "ace": 3492,
      "ĠâĢĿ": 3493,
      "ĠtraÌģng": 3494,
      "ĠgheÌģt": 3495,
      "ria": 3496,
      "ĠxoÌģm": 3497,
      "ĠchaÌī": 3498,
      "me": 3499,
      "ĠÄĳaÌĤm": 3500,
      "ĠthoaÌīng": 3501,
      "ĠlaÌĤy": 3502,
      "ĠdaÌĥ": 3503,
      "ĠxaÌ£": 3504,
      "kg": 3505,
      "ĠngaÌĤÌĢm": 3506,
      "ĠloÌģt": 3507,
      "ĠtieÌĤÌĥn": 3508,
      "ĠTPHCM": 3509,
      "ĠViÌģ": 3510,
      "ĠvaÌĨÌģng": 3511,
      "Ġsmartphone": 3512,
      "ĠHeÌ£ÌĤ": 3513,
      "ĠthuÌĽa": 3514,
      "ĠcheÌĥ": 3515,
      "194": 3516,
      "ĠchiÌĢm": 3517,
      "Ġcay": 3518,
      "ĠThuÌĽ": 3519,
      "app": 3520,
      "ĠuÌĽoÌĽÌģt": 3521,
      "uÌ£p": 3522,
      "ĠhuyeÌĤÌĢn": 3523,
      "ĠdaÌĤng": 3524,
      "Ġrung": 3525,
      "Ġti": 3526,
      "ĠboÌĤi": 3527,
      "Ġchai": 3528,
      "ĠUy": 3529,
      "ĠTriÌģ": 3530,
      "||": 3531,
      "ÄĲoÌģ": 3532,
      "Ġlui": 3533,
      "ĠmoÌĤng": 3534,
      "uÌĽÌīu": 3535,
      "name": 3536,
      "ĠThuÌ£y": 3537,
      "195": 3538,
      "km": 3539,
      "ĠMuÌ£c": 3540,
      "ĠhaÌī": 3541,
      "ĠkhuyeÌĤÌģt": 3542,
      "ĠneÌģn": 3543,
      "ester": 3544,
      "Ġ!Ċ": 3545,
      "ĠNguyeÌ£ÌĤt": 3546,
      "ĠThoÌĤÌģng": 3547,
      "ĠthoÌĤ": 3548,
      "ĠnaÌ£": 3549,
      "ĠTaÌĤÌģn": 3550,
      "ĠTieÌĤÌģng": 3551,
      "ĠteÌĤÌģt": 3552,
      "ĠQuaÌīn": 3553,
      "ĠGal": 3554,
      "ĠchaÌĤm": 3555,
      "ĠvaÌī": 3556,
      "ĠPhilipp": 3557,
      "Ġngoan": 3558,
      "ure": 3559,
      "ĠkhoaÌģc": 3560,
      "ĠcaÌĨÌģn": 3561,
      "ĠthieÌĤÌĢn": 3562,
      "ĠCaÌ£ÌĤu": 3563,
      "ĠkhoaÌģi": 3564,
      "150": 3565,
      "xit": 3566,
      "ĠmuÌĢ": 3567,
      "ĠmoÌģng": 3568,
      "ĠGD": 3569,
      "Ġkhe": 3570,
      "ĠluÌģa": 3571,
      "ĠBuÌĢi": 3572,
      "ĠxaÌģch": 3573,
      "ashi": 3574,
      "----": 3575,
      "Ngay": 3576,
      "ĠPhuÌĽoÌĽÌ£ng": 3577,
      "ĠÄĳaÌģy": 3578,
      "ĠLy": 3579,
      "eÌīo": 3580,
      "ĠtuyeÌĤÌģt": 3581,
      "Ġfan": 3582,
      "oÌĽÌĢn": 3583,
      "ĠÄĳeÌī": 3584,
      "OÌĤÌģ": 3585,
      "ĠseÌ£o": 3586,
      "ial": 3587,
      "TaÌĤÌģt": 3588,
      "31": 3589,
      "ĠgheÌģ": 3590,
      "ĠthoÌĤÌīi": 3591,
      "400": 3592,
      "ĠthaÌģp": 3593,
      "ĠhaÌĢ": 3594,
      "ĠHuyÌĢnh": 3595,
      "ĠnaÌ£p": 3596,
      "ĠThieÌĤÌģu": 3597,
      "ara": 3598,
      "ĠCaÌģt": 3599,
      "Ġtam": 3600,
      "ĠcheÌģn": 3601,
      "alo": 3602,
      "ĠAndroid": 3603,
      "Ġsoi": 3604,
      "ĠoÌĤÌģc": 3605,
      "ĠgaÌģnh": 3606,
      "ĠCaÌĤu": 3607,
      "ĠnaÌĤÌĢy": 3608,
      "ĠmuÌĽoÌĽ": 3609,
      "orld": 3610,
      "ĠCuÌĽoÌĽÌĢng": 3611,
      "ĠThaÌĨÌģng": 3612,
      "use": 3613,
      "aysia": 3614,
      "-s": 3615,
      "ĠAÌĤm": 3616,
      "ĠVi": 3617,
      "ĠÄĲinh": 3618,
      "ĠloÌ£ÌĤn": 3619,
      "GiaÌģ": 3620,
      "ĠhaÌĢn": 3621,
      ",âĢĿ": 3622,
      "ĠlaÌĤÌģp": 3623,
      "ĠcheÌģp": 3624,
      "ĠnhaÌĨn": 3625,
      "ĠLoÌ£ÌĤc": 3626,
      "ĠdoÌ£n": 3627,
      "02": 3628,
      "ĠkhoÌĤi": 3629,
      "ĠTaÌĨng": 3630,
      "ample": 3631,
      "CS": 3632,
      "ĠGioÌĽÌģi": 3633,
      "ĠdoÌĢ": 3634,
      "SEAN": 3635,
      "out": 3636,
      "ĠÄĳeÌ£ÌĤm": 3637,
      "Ġblog": 3638,
      "orm": 3639,
      "ĠLeÌĤÌĥ": 3640,
      "ere": 3641,
      "ĠdoÌĤÌģi": 3642,
      "aÌ£ÌĨm": 3643,
      "ĠThuaÌ£ÌĤn": 3644,
      "ĠDuÌĽoÌĽÌ£c": 3645,
      "old": 3646,
      "ĠtheÌĢm": 3647,
      "ÄĲaÌ£ÌĨc": 3648,
      "ĠgioÌ£t": 3649,
      "Ġxoa": 3650,
      "per": 3651,
      "Ġman": 3652,
      "ĠVaÌĢo": 3653,
      "iver": 3654,
      "ĠthaÌ£ch": 3655,
      "ĠÄĳoÌĤÌĥ": 3656,
      "ĠcaÌģm": 3657,
      "ĠCuoÌ£ÌĤc": 3658,
      "ino": 3659,
      "VaÌĢo": 3660,
      "ED": 3661,
      "ĠcuoÌĤÌĢng": 3662,
      "AT": 3663,
      "example": 3664,
      "ĠcaÌģp": 3665,
      "ull": 3666,
      "pl": 3667,
      "fe": 3668,
      "ĠÄĳuoÌĤi": 3669,
      "ĠTieÌĤÌģp": 3670,
      "ĠhieÌĤÌĢn": 3671,
      "ĠphoÌĤÌīi": 3672,
      "nguÌĽoÌĽÌĢi": 3673,
      "ĠtoÌ£a": 3674,
      "roup": 3675,
      "Xin": 3676,
      "ĠlaÌĨn": 3677,
      "HoÌĤm": 3678,
      "ĠTNH": 3679,
      "ĠtaÌģm": 3680,
      "ĠKit": 3681,
      "ĠngoaÌģi": 3682,
      "ĠcaÌīng": 3683,
      "Ġkhoai": 3684,
      "ĠToÌĢa": 3685,
      "CuÌĢng": 3686,
      "ĠnghieÌĤng": 3687,
      "Trung": 3688,
      "ĠloÌĤÌĢng": 3689,
      "32": 3690,
      "ĠmuÌĥ": 3691,
      "Ġlam": 3692,
      "XH": 3693,
      "ĠÄĲoÌĤÌĥ": 3694,
      "OÌ£ÌĤ": 3695,
      "ĠvuÌĽoÌĽn": 3696,
      "ĠnhaÌĤÌĢm": 3697,
      "yl": 3698,
      "ĠmeÌĢo": 3699,
      "ieÌĤÌĢng": 3700,
      "ĠoÌĤn": 3701,
      "38": 3702,
      "Ġbom": 3703,
      "ĠMaÌ£nh": 3704,
      "-b": 3705,
      "ĠBH": 3706,
      "iss": 3707,
      "ĠÄĳaÌĨÌĢng": 3708,
      "ĠcuÌĽoÌĽÌĥng": 3709,
      "ĠdaÌ£o": 3710,
      "ĠraÌĢo": 3711,
      "axy": 3712,
      "Ġshow": 3713,
      "ha": 3714,
      "05": 3715,
      "ĠeÌĤm": 3716,
      "ĠmaÌīng": 3717,
      "ĠnhuÌĽoÌĽÌ£ng": 3718,
      "ĠCom": 3719,
      "load": 3720,
      "ĠHar": 3721,
      "@example": 3722,
      "ĠQua": 3723,
      "ĠHoaÌĢi": 3724,
      "ĠSe": 3725,
      "ĠHoaÌĢn": 3726,
      "ĠTNHH": 3727,
      "CO": 3728,
      "ĠASEAN": 3729,
      "ĠnhiÌī": 3730,
      "ĠtraÌĨng": 3731,
      "ĠTuÌĢng": 3732,
      "fa": 3733,
      "ĠWeb": 3734,
      "ĠMalaysia": 3735,
      "ĠSyria": 3736,
      "ĠCN": 3737,
      "CaÌģi": 3738,
      "Ġhang": 3739,
      "ĠsuÌĽu": 3740,
      "ĠCuÌ£": 3741,
      "ĠvaÌĤy": 3742,
      "eÌĤÌģch": 3743,
      "ĠqueÌģt": 3744,
      "%,": 3745,
      "CaÌĤu": 3746,
      "ĠTaÌĤÌĢn": 3747,
      "ĠboÌĤÌģc": 3748,
      "ĠboÌĤÌīng": 3749,
      "ĠHe": 3750,
      "ĠCuoÌĤÌģi": 3751,
      "ĠnhuÌĥng": 3752,
      "uro": 3753,
      "ĠmoÌĢ": 3754,
      "ĠtruÌĽÌĢng": 3755,
      "ĠthuaÌĤÌĥn": 3756,
      "ĠxoÌĤng": 3757,
      "ĠboÌ£ÌĤi": 3758,
      "ĠneÌģm": 3759,
      "ĠchoÌĤÌģt": 3760,
      "Ġtang": 3761,
      "ĠhoaÌĢi": 3762,
      "ĠcuÌ£m": 3763,
      "MoÌ£i": 3764,
      "ĠII": 3765,
      "ĠÄĳaÌĨ": 3766,
      "ĠngaÌĢo": 3767,
      "LuÌĽu": 3768,
      "ĠHay": 3769,
      "ĠLaÌĥnh": 3770,
      "ĠkhaÌĤu": 3771,
      "ĠYeÌĤÌģn": 3772,
      "!!": 3773,
      "ĠTieÌĤÌĢn": 3774,
      "ĠSu": 3775,
      "ary": 3776,
      "ĠvaÌĤÌģt": 3777,
      "ĠPhilippines": 3778,
      "MoÌĤÌĥi": 3779,
      "Ġhoan": 3780,
      "onald": 3781,
      "Ġz": 3782,
      "ĠmoÌĤÌģc": 3783,
      "KeÌĤÌģt": 3784,
      "tor": 3785,
      "ĠngoÌĽÌ£i": 3786,
      "ml": 3787,
      "ose": 3788,
      "Ġse": 3789,
      "ony": 3790,
      "ĠRaÌĤÌģt": 3791,
      "ĠtieÌĤm": 3792,
      "ĠEx": 3793,
      "06": 3794,
      "ĠThaÌĤn": 3795,
      "ĠAc": 3796,
      "ĠLaÌ£t": 3797,
      "tein": 3798,
      "ĠÄĲaÌĨng": 3799,
      "03": 3800,
      "ĠchaÌģnh": 3801,
      "hop": 3802,
      "Ġham": 3803,
      "ĠlaÌ£m": 3804,
      "ĠThoÌĽ": 3805,
      "ĠHieÌĤÌĢn": 3806,
      "ĠTruyeÌĤÌĢn": 3807,
      "ĠlaÌĨng": 3808,
      "Ġcua": 3809,
      "ĠPhuÌĽoÌĽÌģc": 3810,
      "ĠCamp": 3811,
      "he": 3812,
      "ĠSan": 3813,
      "Ġkhoe": 3814,
      "ChiÌ£": 3815,
      "enn": 3816,
      "ĠphoÌĽi": 3817,
      "ÑĤ": 3818,
      "ĠChaÌĤn": 3819,
      "ĠInd": 3820,
      "ĠvoÌĤÌĥ": 3821,
      "ĠTT": 3822,
      "ĠNhiÌĢn": 3823,
      "ĠloÌĽÌĥ": 3824,
      "ĠÄĲaÌĥ": 3825,
      "ĠkieÌĤÌģp": 3826,
      "aptop": 3827,
      "ĠviÌĥnh": 3828,
      "ĠlaÌĥm": 3829,
      "ĠleÌĤ": 3830,
      "Ġsex": 3831,
      "ĠnhiÌ£": 3832,
      "ĠnaÌĤu": 3833,
      "Ġ...": 3834,
      "Ġpl": 3835,
      "ĠmeÌģt": 3836,
      "Ð¸": 3837,
      "Ġinternet": 3838,
      "ĠTV": 3839,
      "ĠBe": 3840,
      "ĠhieÌĤÌģu": 3841,
      "ĠmoÌĢn": 3842,
      "ĠDaÌ£": 3843,
      "ĠthiÌīnh": 3844,
      "ĠcoÌĤÌģng": 3845,
      "ĠÄĲeÌĤÌģ": 3846,
      "ĠluÌĽoÌĽÌĥng": 3847,
      "ĠnguÌĽÌģa": 3848,
      "ĠtuÌĽÌ£u": 3849,
      "ĠtraÌ£m": 3850,
      "ĠDuÌĢng": 3851,
      "?\"Ċ": 3852,
      "07": 3853,
      "ĠmoÌĤÌī": 3854,
      "ĠLoÌĽÌ£i": 3855,
      "LB": 3856,
      "ĠThay": 3857,
      "ĠroÌ£ÌĤn": 3858,
      "ĠnaÌīy": 3859,
      "ca": 3860,
      "ĠboÌģn": 3861,
      "EÌĤÌģ": 3862,
      "Ġvan": 3863,
      "ĠMi": 3864,
      "ĠmuoÌ£ÌĤi": 3865,
      "ĠÄĲaÌĤÌģt": 3866,
      "Ġvirus": 3867,
      "ĠthoaÌģi": 3868,
      "Ġchinh": 3869,
      "ÄĲoÌĤÌĢng": 3870,
      "ĠtruÌĽoÌĽÌ£t": 3871,
      "ene": 3872,
      "ĠHoaÌ£ÌĨc": 3873,
      "ĠCung": 3874,
      "ĠIs": 3875,
      "ohn": 3876,
      "ĠreÌĢn": 3877,
      "ĠquyeÌĤÌīn": 3878,
      "ĠkhoeÌī": 3879,
      "ĠvaÌģch": 3880,
      "ĠdaÌĨÌģt": 3881,
      "ĠhoÌĽÌī": 3882,
      "ĠnhuÌĽoÌĽÌ£c": 3883,
      "oaÌ£i": 3884,
      "Ġclip": 3885,
      "ĠxuÌĽoÌĽÌīng": 3886,
      "ĠvieÌ£ÌĤt": 3887,
      "iÌģa": 3888,
      "ĠSiÌĥ": 3889,
      "ĠtaÌĤÌĢn": 3890,
      "-d": 3891,
      "ĠguÌĥi": 3892,
      "ChuÌī": 3893,
      "ier": 3894,
      "ĠxaÌĢ": 3895,
      "âĢ¦.": 3896,
      "ĠPhuÌ£": 3897,
      "ĠboÌģp": 3898,
      "ĠThaÌ£ÌĤm": 3899,
      "ool": 3900,
      "ĠchaÌ£ÌĤu": 3901,
      "202": 3902,
      "ĠcuÌĽoÌĽÌ£c": 3903,
      "ĠtriÌĥ": 3904,
      "ĠHaÌ£ÌĤu": 3905,
      "ĠnhuÌĽÌģc": 3906,
      "ĠnhaÌĥ": 3907,
      "ĠNhoÌĽÌĢ": 3908,
      "han": 3909,
      "ThaÌ£ÌĤt": 3910,
      "ade": 3911,
      "ĠtuÌģy": 3912,
      "ĠmaÌĤÌĢm": 3913,
      "assage": 3914,
      "ĠÄĳaÌĤÌĢm": 3915,
      "ĠQuyÌĢnh": 3916,
      "ĠHoÌĤm": 3917,
      "Ġheo": 3918,
      "ĠSer": 3919,
      "ĠÄĳoÌĤÌĢi": 3920,
      "ern": 3921,
      "ThieÌĤÌģt": 3922,
      "ĠÄĲi": 3923,
      "ĠHoÌĽÌ£p": 3924,
      "ĠluÌĢi": 3925,
      "ĠCup": 3926,
      "BeÌ£ÌĤnh": 3927,
      "ĠtraÌĤn": 3928,
      "ĠnguÌĽng": 3929,
      "ĠGalaxy": 3930,
      "IÌ£": 3931,
      "ĠHÄĲ": 3932,
      "ĠsuÌĽng": 3933,
      "ĠOn": 3934,
      "ĠdieÌ£ÌĤu": 3935,
      "alia": 3936,
      "orn": 3937,
      "âĢ¢": 3938,
      "ish": 3939,
      "ust": 3940,
      "ĠCanada": 3941,
      "Ġsim": 3942,
      "ĠHaÌģn": 3943,
      "ĠmuÌĽoÌĽÌ£n": 3944,
      "ĠbuÌģ": 3945,
      "ĠCO": 3946,
      "ĠKieÌĤÌģn": 3947,
      "moÌ£ÌĤt": 3948,
      "ĠnhoÌĤm": 3949,
      "ĠThaÌĤÌīm": 3950,
      "ĠbeÌĤÌģn": 3951,
      "ĠTuÌĽoÌĽÌģng": 3952,
      "HaÌĨÌģn": 3953,
      "66": 3954,
      "ĠKieÌĤÌīm": 3955,
      "iew": 3956,
      "ĠÄĲoÌ£ÌĤi": 3957,
      "www": 3958,
      "ĠruÌ£ng": 3959,
      "ĠtraÌ£ÌĤt": 3960,
      "ĠTiÌĥnh": 3961,
      "NhiÌĢn": 3962,
      "ĠDuÌĽoÌĽÌģi": 3963,
      "ĠEd": 3964,
      "ĠnguÌĽ": 3965,
      "ĠXaÌĤy": 3966,
      "ĠkeÌĥ": 3967,
      "ĠboÌĤÌĢn": 3968,
      "ĠloÌĥi": 3969,
      "Ġte": 3970,
      "ĠloÌĽÌ£n": 3971,
      "ĠoÌĽÌģt": 3972,
      "ĠcoÌĽÌīi": 3973,
      "ĠTim": 3974,
      "ĠLaÌĥo": 3975,
      "ĠvuoÌĤng": 3976,
      "IÌģ": 3977,
      "ĠÄĲaÌ£ÌĨng": 3978,
      "uchia": 3979,
      "ĠlaÌ£ÌĨp": 3980,
      "Ġsen": 3981,
      "ĠgiÌĢn": 3982,
      "ĠtaÌ£": 3983,
      "Ġnhan": 3984,
      "ĠtroÌĽn": 3985,
      "Ġqui": 3986,
      "ĠbuÌĢng": 3987,
      "ĠBaÌĤy": 3988,
      "ĠTriÌ£nh": 3989,
      "Ġit": 3990,
      "ĠHaÌ£nh": 3991,
      "ĠNoÌĤng": 3992,
      "):": 3993,
      "ĠChaÌĤÌģt": 3994,
      "ĠoÌĤÌĢn": 3995,
      "Ġoxy": 3996,
      "edia": 3997,
      "ĠphaÌģo": 3998,
      "ĠChung": 3999,
      "MaÌģy": 4000,
      "CuoÌ£ÌĤc": 4001,
      "att": 4002,
      "ones": 4003,
      "ner": 4004,
      "ĠchieÌĤÌģt": 4005,
      "ĠxaÌĨm": 4006,
      "ĠLaÌĢo": 4007,
      "ĠlieÌĤÌĥu": 4008,
      "aser": 4009,
      "ĠGiaÌĤÌģy": 4010,
      "Ġam": 4011,
      "ĠThuÌģy": 4012,
      "ChuÌĽoÌĽng": 4013,
      "37": 4014,
      "Ġxay": 4015,
      "ĠlaÌ£ÌĤt": 4016,
      "ĠluÌĽÌģa": 4017,
      "ĠboÌīng": 4018,
      "ĠkhoaÌĨn": 4019,
      "ĠchaÌĨÌĢm": 4020,
      "ĠgiaÌģn": 4021,
      "ike": 4022,
      "ĠThaÌģng": 4023,
      "Ġhao": 4024,
      "ico": 4025,
      "ment": 4026,
      "ram": 4027,
      "Ġsan": 4028,
      "ÄĲiÌ£a": 4029,
      "ĠEl": 4030,
      "ĠCo": 4031,
      "ĠYeÌĤu": 4032,
      "NN": 4033,
      "ĠÄĳan": 4034,
      "ĠdaÌ£ÌĤp": 4035,
      "ĠVuÌ£": 4036,
      "ĠluÌĽoÌĽÌģt": 4037,
      "ĠChuÌģc": 4038,
      "Ġven": 4039,
      "Ġtop": 4040,
      "ĠxeÌĤÌģ": 4041,
      "TieÌĤÌīu": 4042,
      "ĠCoÌĤÌģ": 4043,
      "ĠxoÌĤ": 4044,
      "ĠngoÌ£ÌĤt": 4045,
      "ĠbaÌĨn": 4046,
      "ĠDoanh": 4047,
      "ĠmaÌĤu": 4048,
      "ĠTiÌģnh": 4049,
      "ĠÄĳuÌ£ng": 4050,
      "ĠLieÌĤÌĥu": 4051,
      "ĠraÌĨÌģc": 4052,
      "ĠnoÌĤn": 4053,
      "ĠÄĳuÌģc": 4054,
      "ĠCaÌīm": 4055,
      ".org": 4056,
      "ĠGioÌĽÌĢ": 4057,
      "ĠÄĳaÌĨÌģn": 4058,
      "ĠThi": 4059,
      "Ð»": 4060,
      "Ġgiang": 4061,
      "AÌĤÌĢ": 4062,
      "ĠbaÌĤÌģy": 4063,
      "ĠtieÌ£ÌĤm": 4064,
      "ĠÄĲuÌģng": 4065,
      "Tu": 4066,
      "ĠsuÌĽoÌĽng": 4067,
      "ĠhoaÌ£i": 4068,
      "ID": 4069,
      "ĠvuoÌĤÌģt": 4070,
      "ĠHieÌĤÌģn": 4071,
      "ĠruoÌ£ÌĤng": 4072,
      "-C": 4073,
      "ĠnghiÌ£ch": 4074,
      "Ġyou": 4075,
      "ĠleÌģo": 4076,
      "ĠTrinh": 4077,
      "ĠObama": 4078,
      "Ġlung": 4079,
      "ĠngaÌĤy": 4080,
      "ĠcoÌĥi": 4081,
      "ica": 4082,
      "Ġgai": 4083,
      "Ġmanh": 4084,
      "ĠMob": 4085,
      "Ġgo": 4086,
      "ĠnieÌĤm": 4087,
      "ĠxoÌģt": 4088,
      "600": 4089,
      "Ġphe": 4090,
      "ĠHaÌĤÌĢu": 4091,
      "ĠtuÌ£ng": 4092,
      "ĠCuÌĽÌīu": 4093,
      "-c": 4094,
      "ĠXaÌĥ": 4095,
      "ĠnhiÌ£n": 4096,
      "ĠmuoÌĤn": 4097,
      "In": 4098,
      "ĠchuyeÌĤÌĢn": 4099,
      "ĠteÌĤ": 4100,
      "ĠhoÌĢn": 4101,
      "ris": 4102,
      "Ġup": 4103,
      "ĠroÌĤÌĢng": 4104,
      "uÌĽÌ£u": 4105,
      "ague": 4106,
      "land": 4107,
      "ĠKeÌĤÌģ": 4108,
      "BC": 4109,
      "Ġaxit": 4110,
      "ĠÄĲoÌĤÌĢ": 4111,
      "rid": 4112,
      "ĠParis": 4113,
      "ali": 4114,
      "Ġlink": 4115,
      "ivers": 4116,
      "Ġ=": 4117,
      "ĠnoÌ£": 4118,
      "ĠTS": 4119,
      "75": 4120,
      "ĠKitoÌĤ": 4121,
      "ĠthiÌĢa": 4122,
      "Ġen": 4123,
      "ĠÄĳuÌĽÌģt": 4124,
      "ĠkeÌĤÌĢ": 4125,
      "ideo": 4126,
      "HaÌĢ": 4127,
      "ĠÄĲoÌ£ÌĤng": 4128,
      "ĠJohn": 4129,
      "lex": 4130,
      "ĠnhuÌ£c": 4131,
      "34": 4132,
      "ĠnhoÌĽÌī": 4133,
      "%.": 4134,
      "da": 4135,
      "ĠnguÌ£": 4136,
      "LyÌģ": 4137,
      "vaÌĢ": 4138,
      "ĠgoÌĥ": 4139,
      "ĠTuÌģ": 4140,
      "ake": 4141,
      "ĠkhieÌĤÌģu": 4142,
      "ĠreÌĢm": 4143,
      "ĠcaÌĢnh": 4144,
      "ĠNhu": 4145,
      "ĠhoÌĢ": 4146,
      "ĠQuyeÌĤÌģt": 4147,
      "Ġhe": 4148,
      "GB": 4149,
      "ote": 4150,
      "ĠCP": 4151,
      "na": 4152,
      "PhaÌĤÌĢn": 4153,
      "ĠlieÌĤÌģc": 4154,
      "Ġser": 4155,
      "ĠdoÌ£ÌĤi": 4156,
      "IM": 4157,
      "Ñģ": 4158,
      "oan": 4159,
      "ĠTHPT": 4160,
      "ĠnaÌĨÌģp": 4161,
      "Ġthoa": 4162,
      "Ġme": 4163,
      "ss": 4164,
      "ĠpheÌĤÌģ": 4165,
      "agen": 4166,
      "ĠBaÌģ": 4167,
      "ett": 4168,
      "âĢĻs": 4169,
      "ĠCampuchia": 4170,
      "ert": 4171,
      ".T": 4172,
      "uÌīa": 4173,
      "ĠÄĳaÌ£ÌĨn": 4174,
      "ĠmaÌĨÌģm": 4175,
      "naÌĨm": 4176,
      "ĠchuoÌĤÌģi": 4177,
      "ĠIS": 4178,
      "ĠlaÌ£ÌĤu": 4179,
      "Ġlaptop": 4180,
      "Chu": 4181,
      "ĠquaÌ£t": 4182,
      "ĠQU": 4183,
      "ĠSc": 4184,
      "ĠViÌ£": 4185,
      "ĠLoÌĽÌĢi": 4186,
      "ĠWorld": 4187,
      "ãģ": 4188,
      "ĠvoÌĽÌī": 4189,
      "ĠcuÌīng": 4190,
      "ĠBang": 4191,
      "ĠcheÌĢ": 4192,
      "ĠTreÌī": 4193,
      "ĠdoÌĤÌģc": 4194,
      "ĠsoÌĽÌĢ": 4195,
      "act": 4196,
      "ĠdoÌĤÌĢn": 4197,
      "ĠChaÌĨÌģc": 4198,
      "ĠCU": 4199,
      "ĠLoaÌ£i": 4200,
      "int": 4201,
      "LieÌĤn": 4202,
      "ThaÌĢnh": 4203,
      "ĠhaÌģi": 4204,
      "ĠMaÌ£c": 4205,
      "ĠaÌĢo": 4206,
      "ave": 4207,
      "ĠTriÌ£": 4208,
      "ĠnuÌĽÌģt": 4209,
      "ĠÄĲoÌĤi": 4210,
      "Ġkhoan": 4211,
      "ĠTiÌīnh": 4212,
      "ĠkhuaÌĤÌģt": 4213,
      "TH": 4214,
      "ire": 4215,
      "áĦ": 4216,
      "áħ": 4217,
      "ĠhiÌģt": 4218,
      "ĠchuoÌĤng": 4219,
      "ĠtrieÌĤÌģt": 4220,
      "ĠchaÌĤÌīn": 4221,
      "ĠPhu": 4222,
      "Ġcai": 4223,
      "ĠnguyeÌ£ÌĤt": 4224,
      "ĠLaÌĤÌĢn": 4225,
      "ĠmoÌ£ÌĤc": 4226,
      "ĠLeÌ£ÌĤ": 4227,
      "ĠChaÌģnh": 4228,
      "ĠKhaÌīi": 4229,
      "Tin": 4230,
      "Ġ)": 4231,
      "ĠchaÌģo": 4232,
      "ĠÄĳaÌĨÌģng": 4233,
      "Ġgam": 4234,
      "ĠmaÌ£ÌĨn": 4235,
      "Ìĥm": 4236,
      "ĠsuÌģt": 4237,
      "ĠdaÌ£i": 4238,
      "ĠloÌ£t": 4239,
      "ĠTheÌĤÌī": 4240,
      "ĠThaÌ£ch": 4241,
      "ĠCLB": 4242,
      "ĠNguÌĽoÌĽi": 4243,
      "Nam": 4244,
      "TiÌĢnh": 4245,
      "uÌ£a": 4246,
      "ĠcaÌ£n": 4247,
      "Ġmassage": 4248,
      "ĠMac": 4249,
      "Ġprotein": 4250,
      "DuÌĽÌ£": 4251,
      "ĠThoÌ£": 4252,
      "iu": 4253,
      "IC": 4254,
      "eÌĤÌģm": 4255,
      "ĠThoÌĤÌī": 4256,
      "PhuÌĽoÌĽng": 4257,
      "ota": 4258,
      "Ġdai": 4259,
      "ĠFl": 4260,
      "TP": 4261,
      "ĠYork": 4262,
      "ĠdoÌĽÌī": 4263,
      "ek": 4264,
      "ĠloÌ£ÌĤc": 4265,
      "trong": 4266,
      "Ġnang": 4267,
      "ĠTraÌĢ": 4268,
      "800": 4269,
      "Ġthat": 4270,
      "ĠLao": 4271,
      "ĠyeÌĤÌģn": 4272,
      "ÄĲuÌģng": 4273,
      "ata": 4274,
      "ĠduÌĽa": 4275,
      "190": 4276,
      "ĠvoÌģc": 4277,
      "-x": 4278,
      "ĠthiÌ£nh": 4279,
      "ium": 4280,
      "ĠvaÌ£ch": 4281,
      "ĠThiÌģch": 4282,
      "ĠLang": 4283,
      "ĠduÌĥng": 4284,
      "ĠPC": 4285,
      "ĠxuÌĽng": 4286,
      "ĠMicro": 4287,
      "ĠKieÌĤÌģm": 4288,
      "ĠThaÌĨng": 4289,
      "ĠDe": 4290,
      "VieÌ£ÌĤt": 4291,
      "ĠnoÌĤÌģt": 4292,
      "ĠAÌģnh": 4293,
      "aÌĤÌģng": 4294,
      "CuoÌĤÌģi": 4295,
      "LoÌĽÌĢi": 4296,
      "uyÌī": 4297,
      "ER": 4298,
      "ĠbuoÌĤÌĢng": 4299,
      "ĠxaÌģ": 4300,
      "ĠchoÌ£c": 4301,
      "ĠÄĳoÌĤÌģng": 4302,
      "ĠvaÌ£ÌĨt": 4303,
      "ĠkieÌ£ÌĤt": 4304,
      "ĠÄĳaÌ£m": 4305,
      "?\"": 4306,
      "TM": 4307,
      "ĠbaÌĢng": 4308,
      "âĢ¦âĢĿĊ": 4309,
      "39": 4310,
      "ĠToÌĤng": 4311,
      "sen": 4312,
      "ĠluÌĽoÌĽÌĢng": 4313,
      "ĠluoÌĤÌĢng": 4314,
      "ĠnuoÌĤÌģt": 4315,
      "MiÌĢnh": 4316,
      "ĠtoÌĢ": 4317,
      "ĠIt": 4318,
      "ĠgaÌ£t": 4319,
      "ÄĲaÌĤÌĢu": 4320,
      "Thanh": 4321,
      "Ġshop": 4322,
      "ĠthieÌĤng": 4323,
      "ĠgioÌĽ": 4324,
      "ĠÄĳun": 4325,
      "ĠlaÌĤÌģn": 4326,
      "ĠNghieÌĤn": 4327,
      "MeÌ£": 4328,
      "ĠBuÌĽoÌĽÌģc": 4329,
      "ivi": 4330,
      "AS": 4331,
      "Ġnan": 4332,
      "ĠriÌī": 4333,
      "Ġvisa": 4334,
      "AR": 4335,
      "..Ċ": 4336,
      "ĠTuÌĽoÌĽÌĢng": 4337,
      "==": 4338,
      "CoÌĽ": 4339,
      "An": 4340,
      "ĠheÌģt": 4341,
      "65": 4342,
      "ĠtaÌĢ": 4343,
      "la": 4344,
      "pe": 4345,
      "ĠÄĲan": 4346,
      "ĠÄĲieÌĤÌīm": 4347,
      "let": 4348,
      "ĠaÌĤÌģp": 4349,
      "ĠbuÌĽÌ£c": 4350,
      "ĠxiÌī": 4351,
      "ĠNghe": 4352,
      "ĠTheÌĤm": 4353,
      "ĠchoÌĤÌģn": 4354,
      "ĠHuÌĽoÌĽÌģng": 4355,
      "Ġwith": 4356,
      "ĠluaÌĤn": 4357,
      "soft": 4358,
      "ĠPhaÌĢm": 4359,
      "ĠcaÌĨÌģp": 4360,
      "NguyeÌĤÌĥn": 4361,
      "ĠTraÌģi": 4362,
      "ĠRes": 4363,
      "ĠLaÌ£ÌĤp": 4364,
      "ĠÄĳuÌĢi": 4365,
      "ĠcoÌĤn": 4366,
      "ĠHieÌ£ÌĤu": 4367,
      "ĠHieÌĤÌīu": 4368,
      "ĠvuÌĽoÌĽÌģng": 4369,
      "ĠphaÌĨÌīng": 4370,
      "ĠXe": 4371,
      "ĠmaÌĥnh": 4372,
      "64": 4373,
      "Ġstr": 4374,
      "ĠkhoÌĤÌģng": 4375,
      "UÌ£": 4376,
      "ĠgaÌĨÌģt": 4377,
      "ĠxaÌģm": 4378,
      "ĠluÌĽ": 4379,
      "ĠhuÌĽu": 4380,
      "ĠngoÌĤÌģc": 4381,
      "ĠgaÌģc": 4382,
      "ma": 4383,
      "Ġsh": 4384,
      "ĠsuÌ£p": 4385,
      "ĠkheÌģp": 4386,
      "ĠkhoaÌīnh": 4387,
      "press": 4388,
      "ĠxiÌģch": 4389,
      "ĠbaÌģch": 4390,
      "ĠÂ«": 4391,
      "ĠmoÌī": 4392,
      "ĠdiÌĢ": 4393,
      "ĠthaÌīn": 4394,
      "TruÌĽoÌĽÌĢng": 4395,
      "ĠCal": 4396,
      "ĠQuaÌī": 4397,
      "ĠmuÌģa": 4398,
      "ĠngoÌĥ": 4399,
      "ĠTuyeÌĤn": 4400,
      "Ġtre": 4401,
      "UÌĽÌ£": 4402,
      "ĠBao": 4403,
      "ĠsaÌ£c": 4404,
      "rist": 4405,
      "ĠkiÌī": 4406,
      "NoÌ£ÌĤi": 4407,
      "ĠBaÌĨng": 4408,
      "Ġby": 4409,
      "ĠMon": 4410,
      "omes": 4411,
      "BS": 4412,
      "ÄĲuÌĽÌĢng": 4413,
      "IEÌĤÌģ": 4414,
      "SaÌīn": 4415,
      "ĠdaÌ£ÌĨn": 4416,
      "ĠchieÌĤn": 4417,
      "Ġclick": 4418,
      "120": 4419,
      "Ġnhang": 4420,
      "ĠtoÌīi": 4421,
      "ase": 4422,
      "Ġsofa": 4423,
      "NaÌĢng": 4424,
      "Hoa": 4425,
      "ĠaÌĤu": 4426,
      "ĠchoÌĽÌģp": 4427,
      "ĠgaÌĥy": 4428,
      "ĠTe": 4429,
      "ĠÄĲoÌĤ": 4430,
      "ustr": 4431,
      "ĠuÌĽng": 4432,
      "TaÌģc": 4433,
      "ĠliÌģt": 4434,
      "we": 4435,
      "DiÌ£ch": 4436,
      "ÄĲaÌĥ": 4437,
      "________": 4438,
      "ĠBÄĲ": 4439,
      "ĠkhieÌĤÌģp": 4440,
      "ĠAÌĨ": 4441,
      ");": 4442,
      "US": 4443,
      "ĠDr": 4444,
      "Ġinch": 4445,
      "IV": 4446,
      "SoÌĤÌģ": 4447,
      "Ġxi": 4448,
      "mar": 4449,
      "Ġle": 4450,
      "ger": 4451,
      "ĠbeÌĤÌģ": 4452,
      "Ġas": 4453,
      "NhaÌĤn": 4454,
      "ĠnoÌĤ": 4455,
      "ĠÄĲoÌĽn": 4456,
      "ĠVaÌĤÌģn": 4457,
      "Ġeo": 4458,
      "Tham": 4459,
      "Chi": 4460,
      "ana": 4461,
      "ĠdaÌĥy": 4462,
      "Nghe": 4463,
      "ES": 4464,
      "ps": 4465,
      "ĠlaÌģnh": 4466,
      "ĠtraÌģn": 4467,
      "ĠPV": 4468,
      "The": 4469,
      ".net": 4470,
      "ĠAng": 4471,
      "ĠkhoÌĽi": 4472,
      "ĠQuyeÌĤÌĢn": 4473,
      "ae": 4474,
      "irst": 4475,
      "ĠkieÌĤng": 4476,
      "48": 4477,
      "Ġkhinh": 4478,
      "ĠTaÌģc": 4479,
      "ĠsuoÌĤÌģi": 4480,
      "ĠcuoÌ£ÌĤn": 4481,
      "ĠtoÌģm": 4482,
      "ĠnhaÌ£ÌĨt": 4483,
      "Ġchay": 4484,
      "ĠSai": 4485,
      "Ġtour": 4486,
      "ĠÂ»": 4487,
      "ĠTp": 4488,
      "TieÌĤÌģp": 4489,
      "bum": 4490,
      "how": 4491,
      "ĠNghi": 4492,
      "oto": 4493,
      "090": 4494,
      "ĠMoÌĽÌģi": 4495,
      ".H": 4496,
      "ĠCaÌĨn": 4497,
      "Ġphanh": 4498,
      "Ġao": 4499,
      "ĠuÌīi": 4500,
      "ĠBiÌģch": 4501,
      "ngaÌĢy": 4502,
      "ĠBoÌĤÌģ": 4503,
      "ĠtruÌĢm": 4504,
      "erry": 4505,
      "IÌĢ": 4506,
      "ĠnguÌĽÌ£": 4507,
      "Ġad": 4508,
      "bo": 4509,
      "DuÌĽoÌĽÌģi": 4510,
      "kho": 4511,
      "ĠVieÌĤm": 4512,
      "ChuÌģc": 4513,
      "ĠÄĳoÌ£ng": 4514,
      "Ġoan": 4515,
      "eth": 4516,
      "IS": 4517,
      "Ġcar": 4518,
      "ĠÄĳoÌĢn": 4519,
      "ĠÄĳao": 4520,
      "250": 4521,
      "Qua": 4522,
      "bank": 4523,
      "ĠdoÌĤÌĥ": 4524,
      "HuÌĽoÌĽÌģng": 4525,
      "ĠkieÌĤÌĢm": 4526,
      "tu": 4527,
      "ĠThieÌ£ÌĤn": 4528,
      "EC": 4529,
      "ĠPhuÌī": 4530,
      "ĠchieÌĤm": 4531,
      "ĠcheÌĤ": 4532,
      "ĠThiÌ£nh": 4533,
      "ley": 4534,
      "-Äĳ": 4535,
      "NguÌĽoÌĽi": 4536,
      "ĠCuÌĽÌģ": 4537,
      "ĠcheÌģm": 4538,
      "ĠÄĳieÌĤÌĢn": 4539,
      "ĠraÌ£ng": 4540,
      "ĠAb": 4541,
      "cel": 4542,
      "ĠShi": 4543,
      "ĠSun": 4544,
      "ĠNhaÌ£c": 4545,
      "ĠChuyeÌ£ÌĤn": 4546,
      "aph": 4547,
      "http": 4548,
      "ĠHaÌ£o": 4549,
      "ĠOr": 4550,
      "ĠSEO": 4551,
      "ĠhuÌ£t": 4552,
      "ĠDanh": 4553,
      "Ai": 4554,
      "ĠoÌĤÌģm": 4555,
      "ashing": 4556,
      "ĠtuÌĢng": 4557,
      "PhaÌģt": 4558,
      "aÌĤÌīng": 4559,
      "ĠvaÌĥ": 4560,
      "ĠCuÌĽ": 4561,
      "-L": 4562,
      "ĠphiÌĢ": 4563,
      "ĠMay": 4564,
      "ics": 4565,
      "onda": 4566,
      "CaÌ£ÌĤu": 4567,
      "ĠNai": 4568,
      "ĠNhuÌĽoÌĽÌ£c": 4569,
      "ĠtreÌĤÌĥ": 4570,
      "ĠToÌĤÌģng": 4571,
      "ĠraÌĤu": 4572,
      "ĠTuÌĢy": 4573,
      "ĠdaÌ£ÌĨm": 4574,
      "MaÌ£ÌĨt": 4575,
      "YÌģ": 4576,
      "ĠbaÌĤÌīm": 4577,
      "ero": 4578,
      "ĠreÌ£ÌĤt": 4579,
      "TN": 4580,
      "ĠKhang": 4581,
      "ĠTuÌĽoÌĽng": 4582,
      "ĠTiÌģn": 4583,
      "ĠSaÌģng": 4584,
      "HoÌĽn": 4585,
      "ĠbuÌĽÌĢng": 4586,
      "ĠÄĳeÌĢ": 4587,
      "Ġve": 4588,
      "SaÌģng": 4589,
      "ĠSaÌģu": 4590,
      "ĠnhaÌģy": 4591,
      "ÑĢ": 4592,
      "Ġtrinh": 4593,
      "ime": 4594,
      "ign": 4595,
      "ĠchiÌĢa": 4596,
      "ĠBeÌģ": 4597,
      "atch": 4598,
      "ĠFr": 4599,
      "ĠsaÌĤm": 4600,
      "ĠBaÌģch": 4601,
      "ĠKhanh": 4602,
      "Ġtui": 4603,
      ",âĢ¦Ċ": 4604,
      "gon": 4605,
      "ĠtuÌĽoÌĽÌģc": 4606,
      "Ġbong": 4607,
      "PhoÌĢng": 4608,
      "ashington": 4609,
      "ĠdoÌĤÌĢi": 4610,
      "ĠchoÌĤÌģc": 4611,
      "uÌĽoÌĽÌĥi": 4612,
      "GS": 4613,
      "do": 4614,
      "kin": 4615,
      "ĠTO": 4616,
      "ĠCuÌģc": 4617,
      "cho": 4618,
      "ĠhuÌĽng": 4619,
      "Ġlogo": 4620,
      "ĠreÌĤÌĥ": 4621,
      "ĠhaÌĨÌģc": 4622,
      "ĠboÌ£t": 4623,
      "ĠÄĲT": 4624,
      "HoaÌĢng": 4625,
      "ĠTaÌ£o": 4626,
      "lu": 4627,
      "ĠcheÌĤnh": 4628,
      "ĠDieÌ£ÌĤu": 4629,
      "ÄĲieÌĤÌīm": 4630,
      "ĠEn": 4631,
      "ĠreÌĥ": 4632,
      "Ġxen": 4633,
      "ĠDaÌĤÌĢu": 4634,
      "ĠNhiÌĥ": 4635,
      "ĠbiÌī": 4636,
      "ĠÄĲeÌĤÌĢ": 4637,
      "ÄĲi": 4638,
      "Ba": 4639,
      "44": 4640,
      "ĠGu": 4641,
      "!\"Ċ": 4642,
      "Ġlen": 4643,
      "Ġres": 4644,
      "ĠloÌ£ÌĤt": 4645,
      "ĠMuoÌĤÌģn": 4646,
      "SuÌĽÌī": 4647,
      "Ġcm": 4648,
      "ube": 4649,
      "ym": 4650,
      "wnload": 4651,
      "ĠraÌģo": 4652,
      "ĠTruÌģc": 4653,
      "ĠWh": 4654,
      "OÌĤÌī": 4655,
      "Ġkg": 4656,
      "ions": 4657,
      "ĠchoÌĤn": 4658,
      "PS": 4659,
      "ĠHi": 4660,
      "95": 4661,
      "Kho": 4662,
      "va": 4663,
      "ĠCaÌĤÌīm": 4664,
      "ĠChuÌĽa": 4665,
      "ĠAF": 4666,
      "toÌĤ": 4667,
      "ĠlaÌĤn": 4668,
      "BaÌģc": 4669,
      "ĠÄĲieÌĤÌĢn": 4670,
      "ĠMu": 4671,
      "âĢ¦âĢĿ": 4672,
      "700": 4673,
      "ĠnhuÌĽoÌĽÌĢng": 4674,
      "ale": 4675,
      "Ġmod": 4676,
      "ĠquaÌĥng": 4677,
      "ĠngaÌĤÌīng": 4678,
      "kr": 4679,
      "onesia": 4680,
      "ĠNguÌĥ": 4681,
      "ÄĲuÌĽoÌĽÌĢng": 4682,
      "ĠviÌ£t": 4683,
      "ĠkyÌ£": 4684,
      "ĠTuÌĽÌģ": 4685,
      "ĠBer": 4686,
      "ĠTham": 4687,
      "ĠÄĳaÌĨÌģm": 4688,
      "ĠngoÌĤ": 4689,
      "ĠraÌģch": 4690,
      ".|Ċ": 4691,
      "TiÌĢm": 4692,
      "ĠraÌĢ": 4693,
      "Ġmarketing": 4694,
      "ĠguÌĽÌĢng": 4695,
      "ĠxoÌĤi": 4696,
      "ĠKieÌĤn": 4697,
      "ĠKhaÌī": 4698,
      ":âĢĿ": 4699,
      "ĠVuÌĽÌĢa": 4700,
      "77": 4701,
      "ĠMad": 4702,
      "ĠuoÌĤÌģn": 4703,
      "ĠPlus": 4704,
      "ĠTeÌĤn": 4705,
      "ann": 4706,
      "ChaÌĢo": 4707,
      "ĠmaÌĨng": 4708,
      "UÌĽÌģ": 4709,
      "Ġor": 4710,
      "68": 4711,
      "ĠMoÌĤn": 4712,
      "ĠxaÌĢo": 4713,
      "ĠTiÌĢm": 4714,
      "ree": 4715,
      "iel": 4716,
      "ĠnhaÌĤÌģp": 4717,
      "ĠtoÌĤÌĢi": 4718,
      "ĠChieÌĤÌģc": 4719,
      "Ġbo": 4720,
      "ĠbaÌĥ": 4721,
      "ĠÄĳinh": 4722,
      "ĠmuÌĽoÌĽÌ£t": 4723,
      "ya": 4724,
      "ĠsuÌĽoÌĽÌĢn": 4725,
      "Ġkhao": 4726,
      "ĠWashington": 4727,
      "-S": 4728,
      "ters": 4729,
      "ĠmaÌĨÌģng": 4730,
      "ĠNoÌĽi": 4731,
      "ĠLaÌ£i": 4732,
      "ĠtuÌģng": 4733,
      "Ġghen": 4734,
      "Ġex": 4735,
      "ĠChuÌģ": 4736,
      "pt": 4737,
      "ĠDieÌĤÌĥn": 4738,
      "%.Ċ": 4739,
      "-M": 4740,
      "ĠchoÌĽÌģ": 4741,
      "ĠBaÌĢn": 4742,
      "uyen": 4743,
      "LaÌĤm": 4744,
      "ĠmaÌĢi": 4745,
      "eon": 4746,
      "ĠThaÌĤÌģt": 4747,
      "Ġkhoang": 4748,
      "ĠAÌĤn": 4749,
      "*Ċ": 4750,
      "Ð½": 4751,
      "ĠcoÌĽÌģ": 4752,
      "BaÌīn": 4753,
      "ĠMicrosoft": 4754,
      "ba": 4755,
      "UÌģ": 4756,
      "ThuÌī": 4757,
      "ĠvieÌĤÌĢn": 4758,
      "Thu": 4759,
      "ĠhaÌĨng": 4760,
      "ĠboÌģc": 4761,
      "ĠboÌ£ÌĤc": 4762,
      "Pad": 4763,
      "ĠÄĲaÌ£t": 4764,
      "ĠcoÌģc": 4765,
      "ĠBÄĲS": 4766,
      "IA": 4767,
      "ĠAP": 4768,
      "-B": 4769,
      "Ġcafe": 4770,
      "ĠtraÌĤu": 4771,
      "ĠMas": 4772,
      "ames": 4773,
      "aul": 4774,
      "ĠhoaÌĢnh": 4775,
      "ĠAÌĨn": 4776,
      "BaÌĤÌģt": 4777,
      "HeÌ£ÌĤ": 4778,
      "Ġtem": 4779,
      "ĠDa": 4780,
      "NuÌĽoÌĽÌģc": 4781,
      "HoÌ£": 4782,
      "ance": 4783,
      "ĠchuÌĽÌīi": 4784,
      "neÌĤÌģu": 4785,
      "Ġkeo": 4786,
      "CaÌīm": 4787,
      "Ġthon": 4788,
      "ane": 4789,
      "INH": 4790,
      "ĠngaÌĨÌģt": 4791,
      "ĠNo": 4792,
      "ĠVAÌĢ": 4793,
      "les": 4794,
      "Ġcont": 4795,
      "BoÌĽÌīi": 4796,
      "ki": 4797,
      "ĠHieÌĤÌģu": 4798,
      "ĠÄĲaÌĤÌģng": 4799,
      "ĠMo": 4800,
      "suÌĽÌīa": 4801,
      "ĠsoÌĤÌģc": 4802,
      "ĠnaÌ£i": 4803,
      "ĠdeÌīo": 4804,
      "ura": 4805,
      "RaÌĤÌģt": 4806,
      "ĠLiÌ£ch": 4807,
      "ĠLaÌ£p": 4808,
      "ĠRob": 4809,
      "erm": 4810,
      "ĠVaÌĢng": 4811,
      "ĠPal": 4812,
      "ĠchaÌ£ÌĤt": 4813,
      "Ġxao": 4814,
      "âĢľToÌĤi": 4815,
      "ĠIndonesia": 4816,
      "ĠChoÌ£n": 4817,
      "ĠÄĳaÌ£c": 4818,
      "Ġvoi": 4819,
      "ĠRom": 4820,
      "ĠKyÌĥ": 4821,
      "ĠLeague": 4822,
      "ĠngaÌĤÌģt": 4823,
      "CaÌī": 4824,
      "ĠgoÌĽÌīi": 4825,
      "ĠnghieÌ£ÌĤn": 4826,
      "ĠnguÌ£c": 4827,
      "ĠSte": 4828,
      "ĠluÌ£a": 4829,
      "ĠVieÌĤÌĥn": 4830,
      "ĠlaÌĤÌĢu": 4831,
      "ĠCaÌĤy": 4832,
      "ĠreÌĤÌī": 4833,
      "ĠmuoÌĤÌĥng": 4834,
      "ĠVinhomes": 4835,
      "AC": 4836,
      "ĠXoÌĤ": 4837,
      "ĠnaÌģch": 4838,
      "Ġhttps": 4839,
      "ĠnhoÌ£n": 4840,
      "ence": 4841,
      "MuÌ£c": 4842,
      "ĠdeÌ£p": 4843,
      "ĠLuaÌĤn": 4844,
      "OÌĤÌĢ": 4845,
      "ĠRieÌĤng": 4846,
      "ola": 4847,
      "lock": 4848,
      "anc": 4849,
      "LÄĲ": 4850,
      "ĠvaÌĨÌģt": 4851,
      "eck": 4852,
      "ĠngaÌĤÌĢn": 4853,
      "ĠtaÌīn": 4854,
      "ĠÄĳuÌ£c": 4855,
      "Ġthun": 4856,
      "eu": 4857,
      "ĠNhaÌĥ": 4858,
      "ĠkhoaÌģ": 4859,
      "ĠthieÌĤÌģp": 4860,
      "ĠcoÌ£": 4861,
      "ĠViettel": 4862,
      "KhaÌģch": 4863,
      "ock": 4864,
      "Ġtaxi": 4865,
      "ĠboÌĤÌĢ": 4866,
      "ĠMaÌĤÌĥu": 4867,
      "ĠcaÌĨÌĢm": 4868,
      "ĠÄĲoÌ£ÌĤc": 4869,
      "ĠÄĳoan": 4870,
      "ĠEU": 4871,
      "ĠReal": 4872,
      "193": 4873,
      "ĠAÌģo": 4874,
      "ĠPet": 4875,
      "oÌĽÌģc": 4876,
      "ĠBeÌĤÌģn": 4877,
      "ĠNa": 4878,
      "ts": 4879,
      "ona": 4880,
      "erc": 4881,
      "ĠsaÌĤÌģy": 4882,
      "ifi": 4883,
      "Ġcanxi": 4884,
      "ĠRo": 4885,
      "ĠkeÌ£t": 4886,
      "ĠMuÌĢa": 4887,
      "ĠIran": 4888,
      "ĠmaÌĢo": 4889,
      "ĠÄĳiÌģnh": 4890,
      "ĠVaÌ£ÌĤn": 4891,
      "ĠleÌĤÌĢ": 4892,
      "ĠtraÌĨÌģc": 4893,
      "coin": 4894,
      "MoÌĽÌģi": 4895,
      "ĠnieÌ£ÌĤu": 4896,
      "ĠgaÌĤÌĢy": 4897,
      "ĠxaÌĨÌģn": 4898,
      "ĠVy": 4899,
      "Ġnot": 4900,
      "ĠhieÌĤÌģp": 4901,
      "ĠbeÌ£ÌĤ": 4902,
      "ĠkhieÌĤÌģt": 4903,
      "ĠHaÌĢm": 4904,
      "ĠdaÌīi": 4905,
      "ĠTeÌĤÌģ": 4906,
      "ThaÌģng": 4907,
      "Lu": 4908,
      "que": 4909,
      "ĠMich": 4910,
      "-n": 4911,
      "port": 4912,
      "ĠkhiÌģa": 4913,
      "-th": 4914,
      "VuÌĽÌĢa": 4915,
      "HoÌ£c": 4916,
      "ĠÄĲieÌ£ÌĤp": 4917,
      "agon": 4918,
      "ĠtaÌĨm": 4919,
      "ĠduÌĽng": 4920,
      ",...": 4921,
      "ĠtiÌ£nh": 4922,
      "istan": 4923,
      "49": 4924,
      "reen": 4925,
      "sh": 4926,
      "ĠCaÌĢ": 4927,
      "ĠsoÌīi": 4928,
      "SoÌĽÌī": 4929,
      "ĠkhieÌĤm": 4930,
      "ĠGame": 4931,
      "ĠluoÌ£ÌĤc": 4932,
      ".l": 4933,
      "ĠAustr": 4934,
      "mi": 4935,
      "ĠthaÌģm": 4936,
      "UYEÌĤ": 4937,
      "ĠxuoÌĤi": 4938,
      "ĠToy": 4939,
      "ĠsuÌģc": 4940,
      "ĠNgoÌĤn": 4941,
      "ĠtoÌĽ": 4942,
      "ĠSony": 4943,
      "ĠSch": 4944,
      "uÌĽÌ£ng": 4945,
      "Ġpr": 4946,
      "tre": 4947,
      "ings": 4948,
      "ĠMoÌ£ÌĤ": 4949,
      "TraÌĤÌĢn": 4950,
      "NoÌģ": 4951,
      "ĠhoÌĤng": 4952,
      "ĠThuÌĽÌĢa": 4953,
      "-h": 4954,
      "ĠBu": 4955,
      "ĠxiÌģ": 4956,
      "ĠkhuÌĽÌī": 4957,
      "ĠHoÌīa": 4958,
      "ĠvoÌĢi": 4959,
      "ĠbeÌĢn": 4960,
      "ChieÌĤÌģc": 4961,
      "low": 4962,
      "ĠÄĳeÌĤÌģm": 4963,
      "ler": 4964,
      "ĠkieÌĤu": 4965,
      "ĠHonda": 4966,
      "ĠGS": 4967,
      "ĠGiaÌģp": 4968,
      "85": 4969,
      "ĠvaÌ£ÌĨn": 4970,
      "Trang": 4971,
      "ĠOnline": 4972,
      "ĠtroÌ£": 4973,
      "GT": 4974,
      "nhuÌĽ": 4975,
      "ĠBaÌģt": 4976,
      "ĠluÌĥy": 4977,
      "Ġacid": 4978,
      "47": 4979,
      "ĠCr": 4980,
      "900": 4981,
      "ĠHong": 4982,
      "ĠkeÌ£o": 4983,
      "ĠchaÌīi": 4984,
      "ĠKhai": 4985,
      "Ġgay": 4986,
      "ĠHAÌĢ": 4987,
      "ĠchaÌĢ": 4988,
      "ĠTaÌ£": 4989,
      "ĠxeÌģ": 4990,
      "olf": 4991,
      "ĠnaÌĥy": 4992,
      "aine": 4993,
      "ĠTop": 4994,
      "ĠnaÌĢn": 4995,
      "GiaÌīi": 4996,
      "ĠnhoÌĽÌĢn": 4997,
      "ĠngaÌĤÌĥu": 4998,
      "ĠxiÌĢ": 4999,
      "/th": 5000,
      "ĠuÌī": 5001,
      "ĠÄĳieÌĤu": 5002,
      "âĢľKhoÌĤng": 5003,
      "ĠhoÌĤÌģ": 5004,
      "ĠbaÌģu": 5005,
      "ĠlaÌ£ÌĨn": 5006,
      "Khu": 5007,
      "ĠHot": 5008,
      "Gia": 5009,
      "Ġtivi": 5010,
      "ĠNhaÌ£ÌĤn": 5011,
      "-T": 5012,
      "/.Ċ": 5013,
      "Ġlay": 5014,
      "unt": 5015,
      "Hot": 5016,
      "ĠnhuyeÌĤÌĥn": 5017,
      "ĠTriÌĢnh": 5018,
      "ĠdeÌ£ÌĤt": 5019,
      "ĠCÄĲ": 5020,
      "ĠMua": 5021,
      "ĠmaÌ£": 5022,
      "ĠTriÌĢ": 5023,
      "Ġfirst": 5024,
      "ĠUSB": 5025,
      "ney": 5026,
      "ĠThuÌĽÌģc": 5027,
      "Kinh": 5028,
      "ĠThiÌĢ": 5029,
      "ĠTQ": 5030,
      "ĠBen": 5031,
      "ĠPhim": 5032,
      "Ġwh": 5033,
      "ĠKyÌī": 5034,
      "Ġfacebook": 5035,
      "GioÌĽÌģi": 5036,
      "HoÌ£ÌĤi": 5037,
      "BaÌģo": 5038,
      "Ġchip": 5039,
      "oÌĽm": 5040,
      "ĠCuÌĽoÌĽng": 5041,
      "CC": 5042,
      "ĠCaÌģ": 5043,
      "/m": 5044,
      "ĠInter": 5045,
      "ĠtheÌĤ": 5046,
      "ĠVaÌ£n": 5047,
      "oly": 5048,
      "Ġchui": 5049,
      "oaÌ£n": 5050,
      "TuÌĽ": 5051,
      "gen": 5052,
      "EL": 5053,
      "ĠUkr": 5054,
      "mer": 5055,
      "ĠbeÌģn": 5056,
      "ĠBS": 5057,
      "Ġmini": 5058,
      "46": 5059,
      "ĠbuÌĢn": 5060,
      "caÌģc": 5061,
      "ĠcoÌĤÌĥ": 5062,
      "ĠgioÌĢn": 5063,
      "ĠKy": 5064,
      "ĠtoaÌĢ": 5065,
      "ĠPhaÌĤn": 5066,
      "ĠHieÌĤn": 5067,
      "ĠBlack": 5068,
      "ĠvieÌĤÌģng": 5069,
      "ĠDueÌ£ÌĤ": 5070,
      "ĠsuÌĢi": 5071,
      "ĠlaÌģng": 5072,
      "ĠraÌģp": 5073,
      "ĠThaÌĤÌģy": 5074,
      "ĠgheÌĤ": 5075,
      "/Ċ": 5076,
      "ĠMin": 5077,
      "ĠLuÌĽÌ£c": 5078,
      "ĠkhieÌĤu": 5079,
      "ĠoaÌģn": 5080,
      "ower": 5081,
      "Ñĥ": 5082,
      "Ġbar": 5083,
      "ĠquyÌĢ": 5084,
      "ĠVI": 5085,
      "ieu": 5086,
      "ife": 5087,
      "ĠLED": 5088,
      "****": 5089,
      "ĠcoÌĤÌĢn": 5090,
      "BaÌīo": 5091,
      "LaÌĤÌĢn": 5092,
      "Ġ...Ċ": 5093,
      "ĠvuÌĽÌģt": 5094,
      "ĠbuÌĽoÌĽÌīi": 5095,
      "arao": 5096,
      "/h": 5097,
      "ka": 5098,
      "ĠCuÌĽÌīa": 5099,
      "ĠnghieÌ£ÌĤt": 5100,
      "Ġnhung": 5101,
      "Ġkhuya": 5102,
      "ela": 5103,
      "ĠMieÌĤÌĢn": 5104,
      "arden": 5105,
      "aÌĥm": 5106,
      "ush": 5107,
      "MyÌĥ": 5108,
      "ĠvaÌģn": 5109,
      "ĠMc": 5110,
      "âĢĶâĢĶâĢĶâĢĶ": 5111,
      "ĠmoÌĤÌĢi": 5112,
      "ĠruÌī": 5113,
      "ĠchaÌ£ÌĨng": 5114,
      "Du": 5115,
      "Ġli": 5116,
      "ĠaÌĤÌĢm": 5117,
      "ĠtaÌģt": 5118,
      "ĠÄĳoÌĽÌģi": 5119,
      "ĠBieÌĤÌģt": 5120,
      "ĠnguoÌ£ÌĤi": 5121,
      "ĠtiÌ£": 5122,
      "ĠkieÌĤÌĢu": 5123,
      "ĠAustralia": 5124,
      "ĠxaÌīo": 5125,
      "ĠThoÌĤi": 5126,
      "ther": 5127,
      "ĠFran": 5128,
      "ĠCA": 5129,
      "ĠgiaÌ£ÌĨc": 5130,
      "ĠVuÌĥng": 5131,
      "ited": 5132,
      "ĠGiaÌģng": 5133,
      "ĠMaria": 5134,
      "ĠthuyÌī": 5135,
      "ta": 5136,
      "Ġcomp": 5137,
      "ĠSang": 5138,
      "ject": 5139,
      "ĠVu": 5140,
      "ĠcaÌĤÌģy": 5141,
      "Ġview": 5142,
      "ĠChaÌĢng": 5143,
      "ĠWe": 5144,
      "ti": 5145,
      "Ġ>": 5146,
      "ĠLieÌ£ÌĤu": 5147,
      "ChuyeÌ£ÌĤn": 5148,
      "ĠÄĲaÌīo": 5149,
      "ĠÄĳuoÌĤÌģi": 5150,
      "ĠHueÌ£ÌĤ": 5151,
      "-v": 5152,
      "lymp": 5153,
      "ize": 5154,
      "laÌĢm": 5155,
      "ĠkieÌĤm": 5156,
      "ĠdaÌĢo": 5157,
      "ĠBaÌīy": 5158,
      "ĠâĢ¦Ċ": 5159,
      "ari": 5160,
      "ext": 5161,
      "ĠraÌ£p": 5162,
      "NT": 5163,
      "ĠIP": 5164,
      "ĠCaÌ£ÌĤp": 5165,
      "by": 5166,
      "ĠyeÌĤÌģt": 5167,
      "ĠvaÌĢnh": 5168,
      "Ġgas": 5169,
      "TraÌī": 5170,
      "ĠtuÌĽoÌĽÌģi": 5171,
      "ĠneÌĤÌģn": 5172,
      "ĠNguoÌĤÌĢn": 5173,
      "ĠgaÌĢng": 5174,
      "ĠdoÌĽÌĢi": 5175,
      "ÄĲieÌ£ÌĤn": 5176,
      "laÌĢ": 5177,
      "ĠleÌģn": 5178,
      "ĠhuyeÌ£ÌĤt": 5179,
      "ĠtuÌ£i": 5180,
      "ĠTUÌĽ": 5181,
      "ĠchoÌģi": 5182,
      "FA": 5183,
      "ChaÌĤÌģt": 5184,
      "isa": 5185,
      "180": 5186,
      "BiÌĢnh": 5187,
      "Ġque": 5188,
      "ĠDav": 5189,
      "ĠRa": 5190,
      "hoaÌ£ÌĨc": 5191,
      "sc": 5192,
      "ĠMuÌĽoÌĽÌĢi": 5193,
      "ational": 5194,
      "RoÌĤÌĢi": 5195,
      "ĠQuaÌģn": 5196,
      "ĠtuyÌĢ": 5197,
      "ÄĲuÌĽÌģc": 5198,
      "ĠMaÌĢu": 5199,
      "Ġfl": 5200,
      "Ìģy": 5201,
      "ĠkhoÌĤÌģn": 5202,
      "ĠquaÌĤÌĢy": 5203,
      "ĠtaÌģnh": 5204,
      "ena": 5205,
      "Ġare": 5206,
      "ChuÌģ": 5207,
      "ĠXuyeÌĤn": 5208,
      "ĠFPT": 5209,
      "ĠngoÌĽÌĥ": 5210,
      "ĠxiÌ£t": 5211,
      "ĠToyota": 5212,
      "ĠAM": 5213,
      "ĠQuaÌģ": 5214,
      "ĠChar": 5215,
      "uyÌģt": 5216,
      "ĠseÌĤÌģp": 5217,
      "ĠquiÌģ": 5218,
      "uÌĥa": 5219,
      "ĠgoÌĢ": 5220,
      "Ġnhai": 5221,
      "che": 5222,
      "Ġcau": 5223,
      "ĠnhiÌģu": 5224,
      "Ġrao": 5225,
      "ĠTy": 5226,
      "ĠOlymp": 5227,
      "astname": 5228,
      ".lastname": 5229,
      "ĠNS": 5230,
      "ĠVeÌ£ÌĤ": 5231,
      "ĠnhaÌĢn": 5232,
      "ĠTraÌ£ch": 5233,
      "Ġsc": 5234,
      "ĠLuÌĽoÌĽÌ£ng": 5235,
      "ĠGold": 5236,
      "AY": 5237,
      "ĠthoÌĤÌģt": 5238,
      "ĠCen": 5239,
      "ĠâĢĶ": 5240,
      "ano": 5241,
      "HO": 5242,
      "PhaÌīi": 5243,
      "ĠYou": 5244,
      "ĠloÌ£ÌĤi": 5245,
      "ThieÌĤn": 5246,
      "ĠGroup": 5247,
      "ron": 5248,
      "ChaÌĨÌīng": 5249,
      "ĠÄĲieÌĤÌīn": 5250,
      "CuÌ£": 5251,
      "ĠÄĳaÌĥng": 5252,
      "esterol": 5253,
      "Sao": 5254,
      "[suÌĽÌīa": 5255,
      "ĠquaÌĤÌģn": 5256,
      "itcoin": 5257,
      "ĠVua": 5258,
      "araoke": 5259,
      "ĠSeo": 5260,
      "TiÌģnh": 5261,
      "ĠTuoÌĤÌīi": 5262,
      "42": 5263,
      "ĠloeÌģt": 5264,
      "ĠhoaÌ£": 5265,
      "ĠHS": 5266,
      "ĠquaÌĤÌģy": 5267,
      "ViÌ£": 5268,
      "ĠnhoÌĤÌī": 5269,
      "Ġlanh": 5270,
      "ĠLee": 5271,
      "ĠToÌĤÌģt": 5272,
      "ĠmeÌ£o": 5273,
      "ean": 5274,
      "VaÌĨn": 5275,
      "ĠThieÌĤÌĢn": 5276,
      "ĠChuyeÌĤn": 5277,
      "ĠJack": 5278,
      "tuÌĽÌĢ": 5279,
      "Ġ*": 5280,
      "ĠNhoÌģm": 5281,
      "gh": 5282,
      "ĠraÌģt": 5283,
      "ĠluÌĽoÌĽÌĢi": 5284,
      "ĠngoÌĽ": 5285,
      "ĠToÌĤÌģi": 5286,
      "Ġtro": 5287,
      "ĠTC": 5288,
      "ement": 5289,
      "theo": 5290,
      "OÌĽÌģ": 5291,
      "ĠgoÌģt": 5292,
      "!\"": 5293,
      "oÌģe": 5294,
      "ĠngaÌ£ÌĤm": 5295,
      "ĠtreÌĤu": 5296,
      "ĠMoÌĤi": 5297,
      "ĠGiai": 5298,
      "Ġat": 5299,
      "ĠTN": 5300,
      "ĠnhoÌ£ÌĤn": 5301,
      "ĠÄĲaÌĢm": 5302,
      "min": 5303,
      "ĠmieÌĤu": 5304,
      "ĠFor": 5305,
      "oga": 5306,
      "ĠBay": 5307,
      "ĠnhiÌģ": 5308,
      "ĠngaÌĤÌīn": 5309,
      "ĠkhoÌģe": 5310,
      "ĠBro": 5311,
      "Ġdownload": 5312,
      "Ġun": 5313,
      "ĠnhieÌĤÌģp": 5314,
      "ĠloaÌĥng": 5315,
      "Thay": 5316,
      "ital": 5317,
      "ĠgoÌ£ÌĤi": 5318,
      "Ġoff": 5319,
      "TeÌĤn": 5320,
      "DA": 5321,
      "hay": 5322,
      "192": 5323,
      "Ġmy": 5324,
      "ON": 5325,
      "rael": 5326,
      "ĠThaÌ£ÌĤp": 5327,
      "dr": 5328,
      "Ġ)Ċ": 5329,
      "ĠÄĳaÌī": 5330,
      "ĠVal": 5331,
      "ĠhoaÌĥn": 5332,
      "ĠLoÌĤi": 5333,
      "igh": 5334,
      "Ġmm": 5335,
      "âĢľH": 5336,
      "ĠhaÌ£ch": 5337,
      "ĠmaÌĤm": 5338,
      "ĠMarketing": 5339,
      "ĠGen": 5340,
      "ĠXuaÌĤÌģt": 5341,
      "UÌĽOÌĽÌĢ": 5342,
      "QuyÌģ": 5343,
      "NhaÌ£ÌĤn": 5344,
      "Ġsi": 5345,
      "Ġrong": 5346,
      "ĠxuÌĽoÌĽÌģc": 5347,
      "Ġloan": 5348,
      "ĠgaÌĤÌĢm": 5349,
      "ĠnghieÌĤÌĢn": 5350,
      "ĠnhuoÌ£ÌĤm": 5351,
      "ĠnaÌīn": 5352,
      "ĠPhuÌĢ": 5353,
      "ĠMaÌĤÌģy": 5354,
      "ĠSen": 5355,
      "ĠseÌģt": 5356,
      "Ġdang": 5357,
      "Ġtoan": 5358,
      "ĠHoaÌĢ": 5359,
      "sea": 5360,
      "rl": 5361,
      "Ġdes": 5362,
      "ĠDonald": 5363,
      "sp": 5364,
      "Ġlim": 5365,
      "ĠsuÌĽoÌĽÌīi": 5366,
      "ĠPhuÌĢng": 5367,
      "NuÌĽÌĥ": 5368,
      "oÌĽÌģm": 5369,
      "Ġrang": 5370,
      "ĠMau": 5371,
      "ĠuÌģy": 5372,
      "ĠkeÌĢo": 5373,
      "ĠSieÌĤu": 5374,
      "ĠgoÌĤÌģm": 5375,
      "ory": 5376,
      "/c": 5377,
      "wit": 5378,
      "ĠmaÌĤÌĢu": 5379,
      "TA": 5380,
      "Ġchol": 5381,
      "67": 5382,
      "ĠToaÌģn": 5383,
      "ĠhuÌĽoÌĽÌģc": 5384,
      "ĠthoaÌī": 5385,
      "ĠUÌĽÌģng": 5386,
      "ĠnaÌģo": 5387,
      "ĠMe": 5388,
      "ĠEuro": 5389,
      "ĠkeÌģp": 5390,
      "ĠKieÌ£ÌĤt": 5391,
      "ĠoÌĤtoÌĤ": 5392,
      "UÌĽÌĥ": 5393,
      "raz": 5394,
      "ĠngaÌ£o": 5395,
      "ĠphaÌĤÌģt": 5396,
      "'s": 5397,
      "ode": 5398,
      "ĠÄĳaÌĢng": 5399,
      "ĠloÌ£ÌĤng": 5400,
      "TieÌĤu": 5401,
      "ĠThaÌ£nh": 5402,
      "ĠxoaÌĨÌģn": 5403,
      "aÌĨÌģ": 5404,
      "Ð¾Ð": 5405,
      "??": 5406,
      "uÌĽoÌĽm": 5407,
      "ĠtheÌĤÌĢ": 5408,
      "ĠPan": 5409,
      "enc": 5410,
      "ĠXanh": 5411,
      "Hotline": 5412,
      "ĠdeÌģp": 5413,
      "HaÌĢng": 5414,
      "Ġau": 5415,
      "ĠLG": 5416,
      "DuÌĢng": 5417,
      "ĠBiÌ£": 5418,
      "ornia": 5419,
      "-r": 5420,
      "ĠlieÌĤng": 5421,
      "Ġgen": 5422,
      "ĠgaÌĤÌģu": 5423,
      "091": 5424,
      "ĠchiÌĢ": 5425,
      "ĠSE": 5426,
      "Viet": 5427,
      "./.Ċ": 5428,
      "LaÌĥo": 5429,
      "MS": 5430,
      "ĠPhuÌ£c": 5431,
      "Ġfrom": 5432,
      "ĠchaÌīo": 5433,
      "ical": 5434,
      "ĠMV": 5435,
      "98": 5436,
      "âĢ¦.Ċ": 5437,
      "ĠCub": 5438,
      "ifornia": 5439,
      "uoÌĤÌĢi": 5440,
      "NeÌĤn": 5441,
      "nhuÌĽÌĥng": 5442,
      "ĠCUÌī": 5443,
      "ĠthieÌĤu": 5444,
      "ĠroÌĤÌĥi": 5445,
      "chi": 5446,
      "ĠFord": 5447,
      "ĠYo": 5448,
      "Ġvung": 5449,
      "ĠnguÌĽÌīa": 5450,
      "ĠsaÌĢnh": 5451,
      "ĠThaÌģp": 5452,
      "Ban": 5453,
      "ĠNhieÌĤn": 5454,
      "ĠmuÌī": 5455,
      "ĠChrist": 5456,
      "ody": 5457,
      "ngh": 5458,
      "ĠroÌ£ÌĤ": 5459,
      "LC": 5460,
      "ĠCheÌĤÌģ": 5461,
      "OA": 5462,
      "ĠTho": 5463,
      "bon": 5464,
      "ĠClin": 5465,
      "ĠSaigon": 5466,
      "41": 5467,
      "ĠtoaÌģt": 5468,
      "ĠQuyÌĥ": 5469,
      "43": 5470,
      "ĠIsrael": 5471,
      "Minh": 5472,
      "ĠPhuÌ£ng": 5473,
      "ÌĪ": 5474,
      "Ġranh": 5475,
      "ĠHP": 5476,
      "Ġcomm": 5477,
      "ĠMU": 5478,
      "ĠsaÌģp": 5479,
      "CaÌĨn": 5480,
      "ĠtheÌĤu": 5481,
      "ĠthaÌīy": 5482,
      "ĠkhoÌĤÌģc": 5483,
      "ĠgiaÌĢn": 5484,
      "ori": 5485,
      "err": 5486,
      "/l": 5487,
      "ĠchoaÌģng": 5488,
      "ĠTiÌ£nh": 5489,
      "ĠLoÌ£ÌĤ": 5490,
      "ĠvaÌģc": 5491,
      "ĠKong": 5492,
      "ĠDan": 5493,
      "Xe": 5494,
      "ĠaÌī": 5495,
      "Ġtest": 5496,
      "ĠOne": 5497,
      "So": 5498,
      "ĠÄĲaÌĢn": 5499,
      "Ġfirstname": 5500,
      "aÌĨÌģk": 5501,
      "-su": 5502,
      "ĠNhoÌĽn": 5503,
      "52": 5504,
      "lines": 5505,
      "ANG": 5506,
      "uki": 5507,
      "ChieÌĤÌĢu": 5508,
      "ĠthoÌī": 5509,
      "ĠOp": 5510,
      "ĠHaÌĨÌģc": 5511,
      "ĠKiÌģnh": 5512,
      "ĠEr": 5513,
      "Ġstress": 5514,
      "ĠgiaÌĥ": 5515,
      "Ġxoang": 5516,
      "able": 5517,
      "ĠvuÌĽoÌĽÌ£ng": 5518,
      "ĠMC": 5519,
      "ĠKiÌģch": 5520,
      "ise": 5521,
      "BaÌĤy": 5522,
      "ĠnhiÌĢ": 5523,
      "ĠsiÌī": 5524,
      "ĠroÌĤÌĥng": 5525,
      "ĠNote": 5526,
      "ĠSim": 5527,
      "ĠDiÌĥ": 5528,
      "ĠMil": 5529,
      "Video": 5530,
      "ĠmaÌ£ÌĤp": 5531,
      "Ġwww": 5532,
      "ĠTay": 5533,
      "tra": 5534,
      "vent": 5535,
      "AÌĨn": 5536,
      "/ngaÌĢy": 5537,
      "TieÌĤÌģng": 5538,
      "ĠthoÌĤÌģi": 5539,
      "ĠmeÌģp": 5540,
      "ĠnhaÌģt": 5541,
      "ĠDoÌĢng": 5542,
      "ĠKhaÌĨÌģc": 5543,
      "ĠIra": 5544,
      "ĠboÌĤÌīn": 5545,
      "ĠCalifornia": 5546,
      "ĠNguÌĽoÌĽÌ£c": 5547,
      "ĠDao": 5548,
      "Ġcholesterol": 5549,
      "ĠkeÌ£p": 5550,
      "Phong": 5551,
      "Web": 5552,
      "ĠgiaÌģng": 5553,
      "ĠKheÌĤ": 5554,
      "oll": 5555,
      "gr": 5556,
      "ĠnhoÌ£c": 5557,
      "ĠcuÌģm": 5558,
      "ella": 5559,
      "ct": 5560,
      "ĠÄĳc": 5561,
      "Ġus": 5562,
      "ĠphieÌĤÌģn": 5563,
      "Ġyour": 5564,
      "Ġ$": 5565,
      "ĠvoÌ£t": 5566,
      "ĠGiuÌģp": 5567,
      "Quan": 5568,
      "bao": 5569,
      "ĠÄĳieÌĤÌĢm": 5570,
      "ĠnhuÌī": 5571,
      "ViÌģ": 5572,
      "--------": 5573,
      "ater": 5574,
      "Ġalbum": 5575,
      "ĠÄĳaÌĤÌģm": 5576,
      "ĠKoÌĤng": 5577,
      "ild": 5578,
      "HoÌĤÌĢ": 5579,
      "ĠguÌ£c": 5580,
      "ĠlaÌĤÌĥy": 5581,
      "ĠMuÌĽÌĢng": 5582,
      "ĠSaÌģch": 5583,
      "ãĢ": 5584,
      "ĠluÌĽoÌĽÌ£n": 5585,
      "Ġâ": 5586,
      "ĠhaÌĥm": 5587,
      "ĠGeo": 5588,
      "ery": 5589,
      "ĠJo": 5590,
      "GioÌĽÌĢ": 5591,
      "ĠVieÌĤÌģt": 5592,
      "ĠHoÌĤÌĥ": 5593,
      "ĠMoÌĤng": 5594,
      "ĠStar": 5595,
      "ĠToÌĤÌģ": 5596,
      "ĠHan": 5597,
      "ĠcoÌ£c": 5598,
      "Ġwas": 5599,
      "ĠoÌĤÌģp": 5600,
      "MaÌĢ": 5601,
      "ĠAlex": 5602,
      "CaÌĤÌĢn": 5603,
      "ĠVIEÌ£ÌĤ": 5604,
      "ors": 5605,
      "ãĤ": 5606,
      "ĠtoÌĤÌģng": 5607,
      ",\"": 5608,
      "MT": 5609,
      "ĠcaÌĢo": 5610,
      "Ġkaraoke": 5611,
      "Ġhoi": 5612,
      "ĠSky": 5613,
      "CB": 5614,
      "ĠthaÌĨÌģn": 5615,
      "Ġchen": 5616,
      "its": 5617,
      "ĠcheÌģo": 5618,
      "ĠbaÌ£t": 5619,
      "Ġna": 5620,
      "ĠThuÌĢy": 5621,
      "ĠÄĳaÌ£ÌĤy": 5622,
      "ĠphoÌĤ": 5623,
      "ĠDuyeÌĤn": 5624,
      "ĠWebsite": 5625,
      "ĠsuÌ£n": 5626,
      "ĠBo": 5627,
      "ĠgieÌĤÌģng": 5628,
      "ĠcuÌĽng": 5629,
      "ĠÄĲaÌ£ÌĨt": 5630,
      "oss": 5631,
      "za": 5632,
      "Ġcard": 5633,
      "ĠtaÌ£ng": 5634,
      "ÄĲoÌĤi": 5635,
      "viet": 5636,
      "ÄĳeÌĤÌī": 5637,
      "ĠLieÌ£ÌĤt": 5638,
      "ĠIraq": 5639,
      "ĠnhieÌĤÌĥu": 5640,
      "ĠSeÌĥ": 5641,
      "ĠraÌīnh": 5642,
      "ĠkhoaÌģt": 5643,
      "ĠÄĳuÌĥa": 5644,
      "Ġcoll": 5645,
      "oot": 5646,
      "ons": 5647,
      "OÌ£": 5648,
      "ĠHieÌĤÌīn": 5649,
      "ĠnoÌģn": 5650,
      "ĠmuoÌĤÌĥi": 5651,
      "ondon": 5652,
      "ĠreÌģt": 5653,
      "ĠTraÌģnh": 5654,
      "ONG": 5655,
      "ĠloÌĽÌī": 5656,
      "omb": 5657,
      "osa": 5658,
      "ĠroÌĽÌģt": 5659,
      "Mua": 5660,
      "ĠBieÌ£ÌĤt": 5661,
      "ThaÌĤÌģy": 5662,
      "AÌĤÌī": 5663,
      "-F": 5664,
      "DuÌĽoÌĽng": 5665,
      "Ġthis": 5666,
      "oster": 5667,
      "MuÌĢa": 5668,
      "ĠgaÌĤn": 5669,
      "ĠCAÌģ": 5670,
      "ita": 5671,
      "ÄĲaÌģnh": 5672,
      "ĠTranh": 5673,
      "ĠPer": 5674,
      ">>>": 5675,
      "Ġspa": 5676,
      "ĠmoÌĤÌĢm": 5677,
      "ĠPhoÌĤÌģ": 5678,
      "ĠRAM": 5679,
      "ward": 5680,
      "ĠDis": 5681,
      "ĠCaÌ£ÌĤn": 5682,
      "rop": 5683,
      "udio": 5684,
      "earl": 5685,
      "cess": 5686,
      "ĠHaÌĤn": 5687,
      "PhoÌģ": 5688,
      "ĠUkraine": 5689,
      "ĠNgoÌĤi": 5690,
      "ĠGaÌĤÌĢn": 5691,
      "ega": 5692,
      "ĠHa": 5693,
      "eal": 5694,
      "ĠthÌģ": 5695,
      "ĠheÌģ": 5696,
      "ĠsaÌĤÌĢu": 5697,
      "eÌĥn": 5698,
      "ĠChoÌĽÌ£": 5699,
      "ĠreÌĤn": 5700,
      "itt": 5701,
      "OÌģ": 5702,
      "ĠHam": 5703,
      "ĠKhoaÌīng": 5704,
      "ĠbuÌĽoÌĽ": 5705,
      "ĠLaÌĤÌģy": 5706,
      "eta": 5707,
      "ĠAirlines": 5708,
      "uÌģi": 5709,
      "ĠngoÌģ": 5710,
      "ome": 5711,
      "ream": 5712,
      "iano": 5713,
      "ĠloÌĤÌģp": 5714,
      "ĠnhoÌģc": 5715,
      "ĠLieÌĤm": 5716,
      "093": 5717,
      "GaÌĤÌĢn": 5718,
      "ĠCoÌĤn": 5719,
      "aly": 5720,
      "hip": 5721,
      "ĠTAÌ£": 5722,
      "QT": 5723,
      "ĠPhuÌĽoÌĽÌĢng": 5724,
      "ĠSuÌĽÌģc": 5725,
      "ĠngaÌī": 5726,
      "ChuÌĽa": 5727,
      "098": 5728,
      "page": 5729,
      "ĠChamp": 5730,
      "Ġhotline": 5731,
      "ET": 5732,
      "IEÌĤÌĢ": 5733,
      "ĠnhaÌĤÌģc": 5734,
      "-ch": 5735,
      "IT": 5736,
      "ĠSup": 5737,
      "ĠKi": 5738,
      "ĠTraÌĨÌģng": 5739,
      "ĠShop": 5740,
      "ĠNhiÌ£": 5741,
      "ala": 5742,
      "ĠngheÌ£t": 5743,
      "ĠNguÌĽ": 5744,
      "ont": 5745,
      "EM": 5746,
      "ĠCuÌĽÌ£c": 5747,
      "MoÌĽÌĢi": 5748,
      "ĠVaÌ£ÌĤt": 5749,
      "ĠGarden": 5750,
      "ĠhoÌĤÌģt": 5751,
      "ĠAll": 5752,
      "ĠÄĲoÌĤÌģng": 5753,
      "elsea": 5754,
      "Ġcollagen": 5755,
      "ĠneÌģ": 5756,
      "ĠsuÌ£t": 5757,
      "ĠBoÌ£n": 5758,
      "CaÌĤy": 5759,
      "ĠNews": 5760,
      "pool": 5761,
      "ĠHoÌĤÌī": 5762,
      "ĠLondon": 5763,
      "ChoÌ£n": 5764,
      "-H": 5765,
      "ĠMart": 5766,
      "room": 5767,
      "ThaÌģi": 5768,
      "ĠUÌĽu": 5769,
      "my": 5770,
      "ĠthaÌĨÌģp": 5771,
      "ĠnaÌĤÌģy": 5772,
      "ĠKhuÌĽoÌĽng": 5773,
      "UÌĽOÌĽÌ£": 5774,
      "ĠroÌĢ": 5775,
      "Ġxua": 5776,
      "ĠHuÌģc": 5777,
      "ĠKang": 5778,
      "ĠAÌī": 5779,
      "ĠAÌģi": 5780,
      "ĠcoÌĤÌģi": 5781,
      "ĠThuoÌĤÌģc": 5782,
      "kyo": 5783,
      "ĠmieÌĤn": 5784,
      "ĠCor": 5785,
      "ĠCap": 5786,
      "ĠMadrid": 5787,
      "Bank": 5788,
      "ĠDV": 5789,
      ".,": 5790,
      "63": 5791,
      "Ġgieo": 5792,
      "ĠHA": 5793,
      "ĠchuÌĢm": 5794,
      "ĠChuÌĽÌģng": 5795,
      "ates": 5796,
      "ĠbuÌģn": 5797,
      "ĠComp": 5798,
      "ĠgioÌĢ": 5799,
      "ĠngheÌĤnh": 5800,
      "ĠMaÌ£ÌĤu": 5801,
      "ĠngaÌ£ÌĨt": 5802,
      "ĠÄĳoÌ£ÌĤn": 5803,
      "âĢľT": 5804,
      "ĠloÌĽÌĢ": 5805,
      "ĠgaÌĢo": 5806,
      "ĠXi": 5807,
      "GiaÌģo": 5808,
      "MaÌĤÌĥu": 5809,
      "ĠTom": 5810,
      "ĠKeÌĤÌī": 5811,
      "ÄĳuÌĽoÌĽÌ£c": 5812,
      "ĠuaÌĤÌģt": 5813,
      "gia": 5814,
      "III": 5815,
      "EÌĤÌĢ": 5816,
      "ven": 5817,
      "ĠchuÌĽng": 5818,
      "Ġkhuynh": 5819,
      "ĠtaÌ£ÌĨc": 5820,
      "Ġkhan": 5821,
      "ĠphuÌĽoÌĽÌģc": 5822,
      "ĠVic": 5823,
      "EN": 5824,
      "ĠBV": 5825,
      "okia": 5826,
      "ĠnoÌ£ÌĤ": 5827,
      "ĠraÌĥ": 5828,
      "YT": 5829,
      "rm": 5830,
      "ĠLaÌĥng": 5831,
      "ĠHotline": 5832,
      "ĠVan": 5833,
      "ition": 5834,
      "ĠCuba": 5835,
      "ĠvaÌĤng": 5836,
      "ĠphieÌĤu": 5837,
      "ida": 5838,
      "Email": 5839,
      "lic": 5840,
      "ĠuÌĽoÌĽÌģp": 5841,
      "ĠdaÌ£n": 5842,
      "ĠruÌĽoÌĽÌģc": 5843,
      "ĠcaÌĤÌīm": 5844,
      "awa": 5845,
      "58": 5846,
      "ux": 5847,
      "ĠSoÌĤng": 5848,
      "ĠphaÌģc": 5849,
      "eÌ£ÌĤm": 5850,
      "ĠxaÌĢi": 5851,
      "ĠheÌ£ÌĤt": 5852,
      "iverside": 5853,
      "zy": 5854,
      "Ġlaser": 5855,
      "ĠOff": 5856,
      "ĠvaÌĤÌĥy": 5857,
      "ĠvaÌĢn": 5858,
      "ĠMos": 5859,
      "350": 5860,
      "ĠDieÌ£ÌĤm": 5861,
      "ĠkiÌĢm": 5862,
      "ĠVitamin": 5863,
      "azon": 5864,
      "HaÌĤÌĢu": 5865,
      "Kim": 5866,
      "ChaÌĨÌģc": 5867,
      "MC": 5868,
      "ĠvuÌ£n": 5869,
      "MuoÌĤÌģn": 5870,
      "lor": 5871,
      "ĠSanh": 5872,
      "72": 5873,
      "Ca": 5874,
      "ason": 5875,
      "evel": 5876,
      "ĠAt": 5877,
      "feÌģ": 5878,
      "oÌĤÌīn": 5879,
      "ĠsuÌĽÌĢng": 5880,
      "MA": 5881,
      "Ðº": 5882,
      "Ġall": 5883,
      "ĠcuÌģc": 5884,
      "ĠnhaÌĢm": 5885,
      "ĠchuÌĽoÌĽÌģng": 5886,
      "ĠcheÌĢn": 5887,
      "ĠbaÌĤÌĥy": 5888,
      "ican": 5889,
      "utin": 5890,
      "Ġphai": 5891,
      "ĠneÌĤÌģm": 5892,
      "ĠTokyo": 5893,
      "ĠbuyÌģt": 5894,
      "li": 5895,
      "ĠxaÌģt": 5896,
      "ĠKhiÌģ": 5897,
      "Ġapp": 5898,
      "TO": 5899,
      "ĠlaÌģch": 5900,
      "ĠHuyeÌĤn": 5901,
      "TrieÌ£ÌĤu": 5902,
      "ĠnieÌĤÌĢng": 5903,
      "ĠphoÌĤÌĢng": 5904,
      "Ġinox": 5905,
      "Ġ#": 5906,
      "ott": 5907,
      "ji": 5908,
      "ĠvoÌĽÌģt": 5909,
      "ĠphaÌĤÌĥn": 5910,
      "ĠNaÌĨng": 5911,
      "ĠDieÌĤÌĥm": 5912,
      "UÌĽu": 5913,
      "SN": 5914,
      "ĠSoÌĤÌģng": 5915,
      "ĠWill": 5916,
      "ĠtruÌĽoÌĽÌ£ng": 5917,
      "Ġgom": 5918,
      "ĠMat": 5919,
      "ĠPhiÌģa": 5920,
      "ĠWord": 5921,
      "aki": 5922,
      "RO": 5923,
      "ĠgaÌ£ÌĤy": 5924,
      "ĠDavid": 5925,
      "Ġni": 5926,
      "ĠThieÌ£ÌĤu": 5927,
      "Ġhave": 5928,
      "ĠtaÌĤÌģu": 5929,
      "ĠPlay": 5930,
      "-D": 5931,
      "CaÌīnh": 5932,
      "TaÌ£ÌĤp": 5933,
      "uong": 5934,
      "ĠlaÌ£ÌĤn": 5935,
      "ĠphaÌ£ÌĤt": 5936,
      "ĠBaÌģn": 5937,
      "ĠMaÌ£n": 5938,
      "ĠMess": 5939,
      "ĠviÌ£nh": 5940,
      "uÌĽoÌĽÌĢm": 5941,
      "ĠraÌ£n": 5942,
      "ĠBi": 5943,
      "OÌĽÌĢ": 5944,
      "ĠviÌīa": 5945,
      "ĠcuoÌĤÌģng": 5946,
      "96": 5947,
      "ĠTA": 5948,
      "aka": 5949,
      "ĠmÌģnh": 5950,
      "ĠMag": 5951,
      "ĠCD": 5952,
      "ĠVNÄĲ": 5953,
      "ĠphuÌ£ng": 5954,
      "Ġgel": 5955,
      "Ġlog": 5956,
      "oshi": 5957,
      "ĠhaÌ£m": 5958,
      "ĠCty": 5959,
      "ĠDes": 5960,
      "air": 5961,
      "iverpool": 5962,
      "ĠBHXH": 5963,
      "ĠNGH": 5964,
      "ĠSoÌĽ": 5965,
      "ĠQuyeÌĤn": 5966,
      "aÌĨÌīm": 5967,
      "outube": 5968,
      "ĠMobile": 5969,
      "PP": 5970,
      "Sinh": 5971,
      "ĠÄĲaÌĨÌĢng": 5972,
      "ĠTri": 5973,
      "alk": 5974,
      "ĠRed": 5975,
      "eng": 5976,
      "ĠvoÌĤi": 5977,
      "ĠMod": 5978,
      "ĠRonald": 5979,
      "VuÌ£": 5980,
      "ĠthaÌ£o": 5981,
      "razil": 5982,
      "ĠhaÌĤn": 5983,
      "ĠraÌĤÌīy": 5984,
      "ĠIII": 5985,
      "ĠUyeÌĤn": 5986,
      "ĠnaÌĢnh": 5987,
      "ĠBM": 5988,
      "360": 5989,
      "wood": 5990,
      "ĠUnited": 5991,
      "ĠTiÌģch": 5992,
      "PhuÌ£": 5993,
      "ĠGo": 5994,
      "form": 5995,
      "ĠtruÌĽoÌĽÌģng": 5996,
      "AÌĨÌģ": 5997,
      "ĠÄĲaÌģng": 5998,
      "ĠChelsea": 5999,
      "ĠGiaÌīm": 6000,
      "XuaÌĤÌģt": 6001,
      "Ġ;": 6002,
      "ĠhaÌģ": 6003,
      "Ġdr": 6004,
      "Chia": 6005,
      "56": 6006,
      "ĠroÌģt": 6007,
      "col": 6008,
      "cuÌīa": 6009,
      "ĠSH": 6010,
      "51": 6011,
      "ĠgaÌģy": 6012,
      "ĠchuoÌĤÌĢng": 6013,
      "ĠMel": 6014,
      "ple": 6015,
      "ĠheÌĢn": 6016,
      "ĠVoÌĽÌ£": 6017,
      "ĠChaÌĨm": 6018,
      "ĠchuÌĽoÌĽÌīng": 6019,
      "ĠIntel": 6020,
      "ĠSaÌĨÌģc": 6021,
      "ÄĳaÌĥ": 6022,
      "MaÌĢu": 6023,
      "ĠbaÌģi": 6024,
      "CD": 6025,
      "VaÌĤÌģn": 6026,
      "ĠhieÌĤn": 6027,
      "ĠDel": 6028,
      "Ġar": 6029,
      "ĠMong": 6030,
      "188": 6031,
      "bur": 6032,
      "cr": 6033,
      "ĠMeÌĤ": 6034,
      "ĠSA": 6035,
      "ĠSil": 6036,
      "ese": 6037,
      "ĠSal": 6038,
      "RE": 6039,
      "ĠcaÌĨm": 6040,
      "yn": 6041,
      "ĠthiÌģnh": 6042,
      "ĠNi": 6043,
      "ĠMoÌĽÌĢi": 6044,
      "ĠPM": 6045,
      "ĠWar": 6046,
      "ĠChuÌĢa": 6047,
      "ĠOÌĤn": 6048,
      "KhoaÌīng": 6049,
      "78": 6050,
      "ĠvoÌĽÌĢ": 6051,
      "ĠchaÌĤÌĢn": 6052,
      "ĠLAÌĢ": 6053,
      "ael": 6054,
      "ĠBaÌģnh": 6055,
      "iam": 6056,
      "ĠthuoÌĽÌī": 6057,
      "ĠInst": 6058,
      "ĠBlu": 6059,
      "ĠbiÌĢa": 6060,
      "ĠHuyeÌ£ÌĤn": 6061,
      "ila": 6062,
      "ĠdoÌĽÌĥ": 6063,
      "ĠNghieÌ£ÌĤp": 6064,
      "ĠMuÌĽÌģc": 6065,
      ".N": 6066,
      "ĠsaÌ£ÌĤp": 6067,
      "ĠxiÌģu": 6068,
      "ĠtyÌĢ": 6069,
      "ster": 6070,
      "UÌĽOÌĽÌģ": 6071,
      "ĠChaÌģu": 6072,
      "ĠtroÌĽÌ£n": 6073,
      "ĠxoaÌģy": 6074,
      "ĠkeÌĥm": 6075,
      ".C": 6076,
      "ĠloÌĤÌĢn": 6077,
      "ĠMaÌ£ng": 6078,
      "outh": 6079,
      "ĠcuÌģp": 6080,
      "ĠCai": 6081,
      "ĠÄĲaÌģnh": 6082,
      "ĠLand": 6083,
      ".ht": 6084,
      "work": 6085,
      "ĠbuoÌĤÌģt": 6086,
      "ĠTaÌģm": 6087,
      "ami": 6088,
      "ooth": 6089,
      "ĠdeÌĢ": 6090,
      "anmar": 6091,
      "inho": 6092,
      "ĠAf": 6093,
      "rol": 6094,
      "-p": 6095,
      "Ì£i": 6096,
      "Ġmicro": 6097,
      "DieÌ£ÌĤp": 6098,
      "ford": 6099,
      "ĠtheÌģt": 6100,
      "ĠtruÌĢ": 6101,
      "word": 6102,
      "ĠSP": 6103,
      "ĠquyÌ£": 6104,
      "ko": 6105,
      "ĠWin": 6106,
      "way": 6107,
      "ĠHIV": 6108,
      "ĠCaÌĤÌīn": 6109,
      "ĠngoaÌ£n": 6110,
      "ange": 6111,
      "berg": 6112,
      "Ġcalo": 6113,
      "ĠhoaÌ£n": 6114,
      "ĠMoÌĽÌī": 6115,
      "ĠUÌĽoÌĽÌģc": 6116,
      "ĠGioÌ£ng": 6117,
      "/naÌĨm": 6118,
      "ĠÄĲoÌ£c": 6119,
      "ĠLaÌĤn": 6120,
      "ĠtroÌģi": 6121,
      "ĠTruyeÌ£ÌĤn": 6122,
      "ĠChinh": 6123,
      "der": 6124,
      "ĠBaÌ£c": 6125,
      "senal": 6126,
      "ĠGeor": 6127,
      "Ġday": 6128,
      "ĠTaÌ£ng": 6129,
      "BaÌ£ch": 6130,
      "ĠÄĲeÌĤm": 6131,
      "ĠTimes": 6132,
      "LoaÌ£i": 6133,
      "ĠNieÌĤn": 6134,
      "ĠBrazil": 6135,
      "ĠthuÌīng": 6136,
      "ĠHol": 6137,
      "ĠnhoÌĤÌĢi": 6138,
      "ĠbiÌ£t": 6139,
      "ĠGh": 6140,
      "ĠForm": 6141,
      "ny": 6142,
      "aya": 6143,
      "ĠnhaÌ£ÌĤu": 6144,
      "ĠRiverside": 6145,
      "coÌĤ": 6146,
      "uters": 6147,
      "ĠMoÌĤ": 6148,
      "AÌ£ÌĨ": 6149,
      "ĠTiÌ£ch": 6150,
      "ĠMuÌĢi": 6151,
      "-ph": 6152,
      "ĠsaÌģo": 6153,
      "ĠsaÌīng": 6154,
      "BuoÌĤÌīi": 6155,
      "Ġkhay": 6156,
      "coÌĤng": 6157,
      "ĠsaÌīnh": 6158,
      "ĠneÌĤÌī": 6159,
      "ĠphoÌĽÌī": 6160,
      "ĠraÌīi": 6161,
      "ĠMax": 6162,
      "TVT": 6163,
      "ĠÄĲeÌ£ÌĤ": 6164,
      "Ġel": 6165,
      "ĠnheÌģt": 6166,
      "ĠluÌĥng": 6167,
      "MP": 6168,
      "ChieÌĤÌģn": 6169,
      "-la": 6170,
      "ham": 6171,
      "ĠbuÌĽu": 6172,
      "ĠTuaÌĤÌĢn": 6173,
      "XVN": 6174,
      "Ġthem": 6175,
      "ĠlaÌĨm": 6176,
      "ives": 6177,
      "QuaÌī": 6178,
      "MaÌĤÌģy": 6179,
      "ĠthaÌĨÌīm": 6180,
      "Ġchat": 6181,
      "chiÌī": 6182,
      "Ġwe": 6183,
      "79": 6184,
      "bin": 6185,
      "ĠtaÌĤÌģp": 6186,
      "ĠmiÌĥ": 6187,
      "ĠSon": 6188,
      "be": 6189,
      "ĠdeÌĤ": 6190,
      "ĠNay": 6191,
      "ĠLib": 6192,
      "ĠHoan": 6193,
      "ĠBerlin": 6194,
      "Website": 6195,
      "ĠPutin": 6196,
      "peria": 6197,
      "khoaÌīng": 6198,
      "ĠChieÌĤu": 6199,
      "ĠAg": 6200,
      "ĠGiaÌī": 6201,
      "ĠÄĳaÌĤÌĥm": 6202,
      "ĠWi": 6203,
      "ĠResort": 6204,
      "ĠMet": 6205,
      "Ġphen": 6206,
      "ĠViÌ£nh": 6207,
      "ĠUyÌī": 6208,
      "duc": 6209,
      "ĠHotel": 6210,
      "ĠUoÌĤÌģng": 6211,
      "py": 6212,
      "ĠMoÌ£ÌĤng": 6213,
      "LuaÌ£ÌĤt": 6214,
      "ĠTuyeÌ£ÌĤt": 6215,
      "ĠthuÌ£c": 6216,
      "ixel": 6217,
      "ĠTraÌĤm": 6218,
      "ĠAD": 6219,
      "ĠbeÌī": 6220,
      "ĠKyÌģ": 6221,
      "mg": 6222,
      "nhuÌĽng": 6223,
      "ĠLiverpool": 6224,
      "ÑĮ": 6225,
      "ĠmaÌĤÌĥn": 6226,
      "ĠmoÌĤÌģt": 6227,
      "ĠHill": 6228,
      "ĠgieÌĤÌĢng": 6229,
      "TD": 6230,
      "ĠMaÌ£ch": 6231,
      "biz": 6232,
      "BaÌĢn": 6233,
      "SD": 6234,
      "ĠngheÌ£n": 6235,
      "ĠTeÌĤÌĢ": 6236,
      "ĠCOÌĤ": 6237,
      "ĠHÄĲND": 6238,
      "ĠngaÌĤÌĥm": 6239,
      "ĠHuyeÌĤÌģt": 6240,
      "ĠÄĳeÌĥ": 6241,
      "Ġab": 6242,
      "IEÌĤÌī": 6243,
      "ĠphuÌĽoÌĽÌ£ng": 6244,
      "AL": 6245,
      "áĨ": 6246,
      "ĠeÌĤ": 6247,
      "Ġsal": 6248,
      "ĠCaÌĤÌģp": 6249,
      "ĠCont": 6250,
      "ĠbuÌģp": 6251,
      "ĠBiÌī": 6252,
      "ĠThuaÌ£ÌĤt": 6253,
      "ĠReuters": 6254,
      "aphone": 6255,
      "UB": 6256,
      "ĠbaÌĤÌĢy": 6257,
      "aha": 6258,
      "ĠKHOÌĤ": 6259,
      "KS": 6260,
      "ĠnuÌĽÌģc": 6261,
      "ĠCas": 6262,
      "ĠÄĲaÌģ": 6263,
      "ĠÄĲang": 6264,
      "ĠboÌĤÌĢng": 6265,
      "ĠngheÌĥn": 6266,
      "Ġtab": 6267,
      "ĠVictor": 6268,
      "110": 6269,
      "Song": 6270,
      "ĠkhiÌģt": 6271,
      "ĠmaÌģc": 6272,
      "ania": 6273,
      "ĠMang": 6274,
      "edes": 6275,
      "uld": 6276,
      "KH": 6277,
      "ĠMyanmar": 6278,
      "ĠAss": 6279,
      "ĠTraÌĢng": 6280,
      "ĠleÌĥo": 6281,
      "ĠMaÌ£ÌĤt": 6282,
      "ĠKe": 6283,
      "ĠluÌĽÌīng": 6284,
      "ĠClinton": 6285,
      "Cl": 6286,
      "ĠBaÌĥi": 6287,
      "ĠcoÌĢi": 6288,
      "ĠTruÌĽng": 6289,
      "uz": 6290,
      "ĠphaÌĢm": 6291,
      "ĠNhung": 6292,
      "ĠGreen": 6293,
      "ĠKhoÌĤi": 6294,
      "ound": 6295,
      "any": 6296,
      "ĠNghieÌĤu": 6297,
      ".V": 6298,
      "Ġset": 6299,
      "191": 6300,
      ".L": 6301,
      "ĠKar": 6302,
      "ĠEng": 6303,
      "Ġback": 6304,
      "ĠTuÌĽoÌĽÌīng": 6305,
      "ĠLH": 6306,
      "ChaÌĢng": 6307,
      "Hy": 6308,
      "ĠngoÌĽÌĢi": 6309,
      "uss": 6310,
      "54": 6311,
      "ĠTuyeÌĤÌĢn": 6312,
      "ĠMao": 6313,
      "ĠStr": 6314,
      "ThuÌĽoÌĽng": 6315,
      "ĠJu": 6316,
      "/s": 6317,
      "nhaÌĢ": 6318,
      "ĠAmazon": 6319,
      "oint": 6320,
      "Ġhost": 6321,
      "ĠThiÌģ": 6322,
      "ĠLaser": 6323,
      "Ġpost": 6324,
      "ĠTIN": 6325,
      "ĠDaÌĤÌĢn": 6326,
      "ÄĲaÌĨng": 6327,
      "TaÌĢi": 6328,
      "voÌĽÌģi": 6329,
      "elf": 6330,
      "NhoÌĽÌĢ": 6331,
      "UÌĽÌĢ": 6332,
      "ĠBaÌĨÌģt": 6333,
      "ĠPS": 6334,
      "ĠJong": 6335,
      "ĠniÌī": 6336,
      "ĠruoÌĤÌĢi": 6337,
      "iÌģp": 6338,
      "HaÌĢnh": 6339,
      "ĠTre": 6340,
      "aza": 6341,
      "ĠcaÌ£ÌĨn": 6342,
      "ĠÄĳaÌģi": 6343,
      "ĠChia": 6344,
      "ThiÌ£": 6345,
      "ĠSn": 6346,
      "ĠlieÌĤÌģm": 6347,
      "CT": 6348,
      "ĠuÌģt": 6349,
      "ĠkhuaÌĤÌģy": 6350,
      "/thaÌģng": 6351,
      "Ġmob": 6352,
      "IP": 6353,
      "ĠLaÌĤu": 6354,
      "oney": 6355,
      "ĠbaÌ£": 6356,
      "ĠNokia": 6357,
      "ĠNguÌĽÌĥ": 6358,
      "âĢľÄĲ": 6359,
      "ĠÄĳoÌĤÌģ": 6360,
      "acc": 6361,
      "ĠBitcoin": 6362,
      "TX": 6363,
      "VieÌĤm": 6364,
      "ĠtuÌīy": 6365,
      "ĠGl": 6366,
      "ĠNgaÌĥi": 6367,
      "ĠnhaÌģi": 6368,
      "ĠVaÌĤng": 6369,
      "ĠChuÌĽÌģc": 6370,
      "ĠAngel": 6371,
      "57": 6372,
      "?âĢĿ.": 6373,
      "ĠluÌ£t": 6374,
      "ĠnhaÌĢo": 6375,
      "ĠtuÌ£t": 6376,
      "ĠTai": 6377,
      "ĠSl": 6378,
      "160": 6379,
      "Ġmodel": 6380,
      "MoÌĤ": 6381,
      "di": 6382,
      "ĠLink": 6383,
      "ĠKha": 6384,
      "ĠMot": 6385,
      "VuÌĽoÌĽng": 6386,
      "Ġdis": 6387,
      "ĠhoÌĤÌģc": 6388,
      "illa": 6389,
      "cl": 6390,
      "ĠcaÌ£o": 6391,
      "ĠNhan": 6392,
      "130": 6393,
      "ware": 6394,
      "ĠgaÌ£ÌĤp": 6395,
      "ĠLieÌĤu": 6396,
      "ĠTuaÌĤn": 6397,
      "ĠqueÌĤÌģ": 6398,
      "ĠnuoÌĤÌģi": 6399,
      "ĠHaÌĢo": 6400,
      "ĠArsenal": 6401,
      "ĠCuÌīa": 6402,
      "ĠHang": 6403,
      "TheÌĤm": 6404,
      "NaÌĢy": 6405,
      "ToaÌĢn": 6406,
      "ĠhaÌģn": 6407,
      "ĠuyÌī": 6408,
      "own": 6409,
      "ĠTaÌĢ": 6410,
      "ĠGTVT": 6411,
      "NhaÌ£ÌĤt": 6412,
      "ĠCNTT": 6413,
      "-k": 6414,
      "AP": 6415,
      "ANH": 6416,
      "ĠCro": 6417,
      "âľ": 6418,
      "ĠtraÌĨn": 6419,
      "ĠngaÌĤÌģm": 6420,
      "ĠBlog": 6421,
      "ĠNhoÌĽÌģ": 6422,
      "Ġled": 6423,
      "ĠMark": 6424,
      "ĠGrand": 6425,
      "St": 6426,
      "/ch": 6427,
      "KeÌĤÌī": 6428,
      "ated": 6429,
      "AÌģnh": 6430,
      "rt": 6431,
      "ĠMoÌģn": 6432,
      "undai": 6433,
      "ĠChampions": 6434,
      "ĠKiÌĢ": 6435,
      "ĠChieÌĤÌĢu": 6436,
      "ĠAut": 6437,
      "ĠTHU": 6438,
      "ĠImp": 6439,
      "ĠmaÌĤÌīn": 6440,
      "ĠFranc": 6441,
      "ĠGioÌĤÌģng": 6442,
      "ĠNguÌĽu": 6443,
      "ĠGiaÌģc": 6444,
      "Ġlike": 6445,
      "ĠID": 6446,
      "ĠluÌĽÌĢng": 6447,
      "esh": 6448,
      "84": 6449,
      "witter": 6450,
      "ĠvaÌĨng": 6451,
      "ĠloÌģe": 6452,
      "Ġgolf": 6453,
      "ĠTraÌĤÌģn": 6454,
      "ĠRonaldo": 6455,
      "ĠaÌģ": 6456,
      "âĢľAnh": 6457,
      "QuaÌģ": 6458,
      "ĠcÌ£n": 6459,
      "ĠthaÌĢ": 6460,
      "ĠÄĳoÌĤÌģm": 6461,
      "096": 6462,
      "Ġgirl": 6463,
      "ĠTieÌĤÌģt": 6464,
      "ĠSw": 6465,
      "ThaÌĤn": 6466,
      "toÌĤi": 6467,
      "ĠTao": 6468,
      "ĠxuÌĽoÌĽÌģng": 6469,
      "ĠÄĲoÌĽÌĢi": 6470,
      "ĠEmail": 6471,
      "ĠJun": 6472,
      "ĠSyÌĥ": 6473,
      "ks": 6474,
      "ĠBieÌĤÌīu": 6475,
      "itan": 6476,
      "ado": 6477,
      "YeÌĤu": 6478,
      "ĠAS": 6479,
      "ÄĲoÌ£c": 6480,
      "elle": 6481,
      "ĠCuÌĽÌģu": 6482,
      "ĠluyeÌĤÌģn": 6483,
      "ĠÄĲoÌī": 6484,
      "ĠmuÌģt": 6485,
      "ĠUV": 6486,
      "ToÌģm": 6487,
      "viÌĢ": 6488,
      "ĠtaÌĤÌīm": 6489,
      "ĠtheÌĤÌĢm": 6490,
      "LaÌ£i": 6491,
      "ĠnhuÌĥ": 6492,
      "aomi": 6493,
      "ĠTrieÌĤÌīn": 6494,
      "ĠNgoÌ£": 6495,
      "Ġhorm": 6496,
      "ĠMerc": 6497,
      "ĠThuÌĽa": 6498,
      "eÌīm": 6499,
      "/N": 6500,
      "69": 6501,
      "ĠphoÌĤng": 6502,
      "ĠSU": 6503,
      "atin": 6504,
      "ĠnhuÌģng": 6505,
      "ĠkhiÌī": 6506,
      "ĠCT": 6507,
      "ĠVn": 6508,
      "ĠMr": 6509,
      "ĠPrem": 6510,
      "ĠchuÌĽoÌĽÌģc": 6511,
      "ĠVaÌĤÌĥn": 6512,
      "ĠmeÌĤnh": 6513,
      "ĠTuÌĽÌģc": 6514,
      "ĠsuÌĽÌĥng": 6515,
      "phcm": 6516,
      "AÌģo": 6517,
      "ĠcaÌĤÌīu": 6518,
      "ĠHome": 6519,
      "ever": 6520,
      "ĠTraÌĤÌĢm": 6521,
      "ÄĲoÌ£ÌĤi": 6522,
      "Cha": 6523,
      "108": 6524,
      "ĠleÌĤÌĢu": 6525,
      "KyÌĢ": 6526,
      "ĠbeÌĤnh": 6527,
      "ĠXperia": 6528,
      "Ġbus": 6529,
      "Ġcode": 6530,
      "ĠraÌ£ch": 6531,
      "ci": 6532,
      "Ġcom": 6533,
      "ator": 6534,
      "Ġwill": 6535,
      "ĠPe": 6536,
      "ThieÌĤÌģu": 6537,
      "jo": 6538,
      "ĠgiuÌ£c": 6539,
      "ĠTyÌī": 6540,
      "ĠChuaÌĤÌīn": 6541,
      "ĠMichael": 6542,
      "ĠVND": 6543,
      "ThuoÌĤÌģc": 6544,
      "ĠvoÌĽÌ£t": 6545,
      "ĠTaÌģt": 6546,
      "ĠxeÌī": 6547,
      "eview": 6548,
      "ĠOlympic": 6549,
      "king": 6550,
      "ĠRoÌĥ": 6551,
      "PhaÌĤn": 6552,
      "/b": 6553,
      "Hz": 6554,
      "NaÌĨÌĢm": 6555,
      "etooth": 6556,
      "ĠluÌģng": 6557,
      "ĠNghieÌĤm": 6558,
      "ĠroÌĢng": 6559,
      "-V": 6560,
      "ĠvaÌģng": 6561,
      "ĠkhaÌĨÌģt": 6562,
      "ĠSm": 6563,
      "ĠKieÌĤÌīu": 6564,
      "ĠDieÌ£ÌĤn": 6565,
      "ĠphaÌģch": 6566,
      "ific": 6567,
      "-in": 6568,
      "ĠxoÌĤn": 6569,
      "ĠPaul": 6570,
      "ĠLeÌĤn": 6571,
      "âĢ¦,": 6572,
      "UÌĽÌī": 6573,
      "ĠsaÌĤÌģu": 6574,
      "ĠCB": 6575,
      "NhoÌģm": 6576,
      "ations": 6577,
      "CL": 6578,
      "Ġet": 6579,
      "ĠtraÌģ": 6580,
      "TieÌĤÌģn": 6581,
      "Â»": 6582,
      "Ġpho": 6583,
      "ĠNob": 6584,
      "ĠneÌĤm": 6585,
      "ĠquyeÌ£ÌĤn": 6586,
      "ĠVui": 6587,
      "ĠvuÌĢi": 6588,
      "tour": 6589,
      "/d": 6590,
      "ĠkeÌģt": 6591,
      "ĠVP": 6592,
      "ĠruÌĢa": 6593,
      "59": 6594,
      "ĠPower": 6595,
      "oÌĢe": 6596,
      "ĠngaÌ£ch": 6597,
      "ani": 6598,
      "ĠLuoÌĤn": 6599,
      "caÌģi": 6600,
      "TuoÌĤÌīi": 6601,
      "ĠCaÌĢng": 6602,
      "tuÌĽÌģc": 6603,
      "ĠÑģ": 6604,
      "....Ċ": 6605,
      "apa": 6606,
      "ĠsieÌĤÌģt": 6607,
      "-A": 6608,
      "eÌ£ÌĤn": 6609,
      "ĠcuÌĽÌīu": 6610,
      "ÄĲeÌĤm": 6611,
      "ĠCaÌīng": 6612,
      "ĠSaÌĤm": 6613,
      "ĠcafeÌģ": 6614,
      "DI": 6615,
      "ĠkhaÌģnh": 6616,
      "ĠgaÌ£ÌĨt": 6617,
      "DaÌĤn": 6618,
      "Giao": 6619,
      "ĠGIAÌģ": 6620,
      "aster": 6621,
      "AÌĥ": 6622,
      "IL": 6623,
      "ĠlaÌ£y": 6624,
      "Ġkhong": 6625,
      "ĠKr": 6626,
      ".S": 6627,
      "book": 6628,
      "Ġom": 6629,
      "arm": 6630,
      "-g": 6631,
      "ren": 6632,
      "ĠbieÌĤÌģng": 6633,
      "ĠCEO": 6634,
      "ins": 6635,
      "ĠPhao": 6636,
      "ĠthaÌĨÌģm": 6637,
      "ĠLaÌģ": 6638,
      "140": 6639,
      "coÌĢn": 6640,
      "ĠNaÌĢy": 6641,
      "ĠBill": 6642,
      "ĠHoaÌ£t": 6643,
      "/t": 6644,
      "ĠHaÌĥng": 6645,
      "ĠVideo": 6646,
      "ĠBig": 6647,
      "ĠPGS": 6648,
      "ste": 6649,
      "PV": 6650,
      "ĠHuÌĽÌģa": 6651,
      "ĠBur": 6652,
      "TuÌĽoÌĽng": 6653,
      "ToÌĤÌī": 6654,
      "ĠNet": 6655,
      "ĠthaÌĤu": 6656,
      "ĠvoÌĽ": 6657,
      "ĠsaÌĤÌĢm": 6658,
      "ĠQuaÌĤÌĢn": 6659,
      "ĠFull": 6660,
      "bal": 6661,
      "ĠThaÌĨÌĢng": 6662,
      "andal": 6663,
      "nes": 6664,
      "ĠcuÌĽÌĢu": 6665,
      "ĠsuyÌģt": 6666,
      "ĠvoÌĢm": 6667,
      "PH": 6668,
      "ii": 6669,
      "tuÌĽÌ£": 6670,
      "ĠHN": 6671,
      "ThaÌĤÌĢy": 6672,
      "Ġwifi": 6673,
      "dro": 6674,
      "Ġren": 6675,
      "ĠHaÌīo": 6676,
      "ĠLau": 6677,
      "ĠPhieÌĤn": 6678,
      "ÄĲaÌ£ÌĨt": 6679,
      "ato": 6680,
      "ĠBHYT": 6681,
      "vn": 6682,
      "Ġ..": 6683,
      "earch": 6684,
      "320": 6685,
      "LuÌ£c": 6686,
      "ĠMaÌĤn": 6687,
      "ĠGDP": 6688,
      "TuÌĽÌ£": 6689,
      "ĠloÌģc": 6690,
      "ĠchiÌģch": 6691,
      "ChuyeÌĤn": 6692,
      "obot": 6693,
      "BaÌĨÌĢng": 6694,
      "ĠÄĳoÌĽ": 6695,
      "ima": 6696,
      "exico": 6697,
      ".html": 6698,
      "ĠWest": 6699,
      "ily": 6700,
      "ToÌĤÌģi": 6701,
      "ĠaÌĤÌģu": 6702,
      "ĠKem": 6703,
      "ĠTraÌĤn": 6704,
      "Ex": 6705,
      "Ġbai": 6706,
      ".TS": 6707,
      "ĠbuÌĽÌĢa": 6708,
      "ĠSaÌĤn": 6709,
      "ĠyeÌĤÌģm": 6710,
      "ĠTHCS": 6711,
      "TR": 6712,
      "ĠMieÌĤÌĥn": 6713,
      "ĠXeÌģt": 6714,
      "khu": 6715,
      "-ÄĲT": 6716,
      "ĠmieÌ£ÌĤt": 6717,
      "âĢĺ": 6718,
      "oÌĥm": 6719,
      "ĠCSVN": 6720,
      "/ph": 6721,
      "LeÌĤ": 6722,
      "ĠvaÌĥng": 6723,
      "ĠShin": 6724,
      "ĠquaÌ£ÌĤt": 6725,
      "ĠQuaÌģch": 6726,
      "To": 6727,
      "ĠhaÌģo": 6728,
      "ĠnguÌ£y": 6729,
      "ĠNho": 6730,
      "HaÌ£": 6731,
      "UNG": 6732,
      "ĠgioÌī": 6733,
      "ĠraÌĤÌĢm": 6734,
      "ĠHoÌĢn": 6735,
      "âĸ": 6736,
      "ĠraÌģn": 6737,
      "ĠThuÌģ": 6738,
      "ova": 6739,
      "Ġmenu": 6740,
      "ĠUnivers": 6741,
      "ĠtruÌĽÌģ": 6742,
      "ĠAp": 6743,
      "ThuÌĽoÌĽÌĢng": 6744,
      "day": 6745,
      "ĠvÌģ": 6746,
      "ĠmuÌ£": 6747,
      "ĠnguÌĢng": 6748,
      "ĠÄĲuÌĽoÌĽng": 6749,
      "ĠDinh": 6750,
      "ille": 6751,
      "Ġeuro": 6752,
      "-tr": 6753,
      "DS": 6754,
      "KiÌģnh": 6755,
      "wer": 6756,
      "ĠmyÌĢ": 6757,
      "ThuÌĽa": 6758,
      "bi": 6759,
      "ĠchaÌ£ÌĤp": 6760,
      "ĠxoÌĤÌī": 6761,
      "ĠBinh": 6762,
      "ĠSaÌģt": 6763,
      "els": 6764,
      "ĠXuÌĽoÌĽng": 6765,
      "ĠsoÌĤ": 6766,
      "loÌĤ": 6767,
      "?âĢĿ.Ċ": 6768,
      "Ġcheck": 6769,
      "62": 6770,
      "ĠvuÌĽÌ£ng": 6771,
      "ĠMed": 6772,
      "ents": 6773,
      "ĠxoÌĤÌģp": 6774,
      "national": 6775,
      "ĠngaÌ£t": 6776,
      "ĠTM": 6777,
      "ĠÄĲau": 6778,
      "ĠÄĲaÌīm": 6779,
      "ĠKhaÌģm": 6780,
      "omas": 6781,
      "ĠTY": 6782,
      "ĠtaÌģng": 6783,
      "Ġnao": 6784,
      "ĠBoÌģng": 6785,
      "ĠJames": 6786,
      "ĠÐ¿": 6787,
      "BiÌ£": 6788,
      "Cam": 6789,
      "VuÌĥ": 6790,
      "lad": 6791,
      "Phim": 6792,
      "tral": 6793,
      "Bao": 6794,
      "OR": 6795,
      "iro": 6796,
      "ĠKeÌī": 6797,
      "ĠvaÌĤÌģp": 6798,
      "ĠPHAÌģ": 6799,
      "ÐµÐ": 6800,
      "uis": 6801,
      "ĠchoaÌĢng": 6802,
      "ĠMaÌĨÌģt": 6803,
      "ÄĲeÌĤÌĢ": 6804,
      "erson": 6805,
      "ĠhaÌĨÌģt": 6806,
      "Ġgr": 6807,
      "Ġlon": 6808,
      "DF": 6809,
      "iness": 6810,
      "ĠSuÌĽÌĥa": 6811,
      "oid": 6812,
      "ĠÄĲoÌĤÌģc": 6813,
      "ora": 6814,
      "ĠtaÌ£c": 6815,
      "ĠvaÌĥn": 6816,
      "ĠGT": 6817,
      "ĠchoÌ£i": 6818,
      "ĠHoÌ£ÌĤ": 6819,
      "ĠKhoÌĤÌīng": 6820,
      "EÌĤÌī": 6821,
      "ĠGiuÌĽÌĥa": 6822,
      "53": 6823,
      "lish": 6824,
      "ĠnhiÌĥ": 6825,
      "ĠSV": 6826,
      "ĠSuper": 6827,
      "ðŁ": 6828,
      "ĠngaÌģn": 6829,
      "ĠchuoÌ£ÌĤc": 6830,
      "ĠSouth": 6831,
      "ĠSuz": 6832,
      "ĠgiÌī": 6833,
      "try": 6834,
      "âĢĻ,": 6835,
      "âĢ¦âĢ¦âĢ¦âĢ¦": 6836,
      "Ġroi": 6837,
      "ĠChuyeÌĤÌīn": 6838,
      "TaÌĨng": 6839,
      "Ġdong": 6840,
      "ĠUN": 6841,
      "ĠcuÌīi": 6842,
      "Ġteen": 6843,
      "BiÌģ": 6844,
      "HaÌĢn": 6845,
      "Ġphot": 6846,
      "ĠTieÌĤÌģu": 6847,
      "ĠMaÌģc": 6848,
      "ĠDuÌĽ": 6849,
      "ĠtoaÌģi": 6850,
      "ĠKhoÌĽÌīi": 6851,
      "ĠTour": 6852,
      "ĠtraÌĤÌĢy": 6853,
      "ĠChuÌĽÌĥ": 6854,
      "PhaÌ£m": 6855,
      "ĠmuÌĢng": 6856,
      "ĠQuyÌī": 6857,
      "OT": 6858,
      "ĠtoÌ£ÌĤt": 6859,
      "Ġthen": 6860,
      "ĠMexico": 6861,
      "Ġform": 6862,
      "ĠhuÌī": 6863,
      "ĠÄĲoan": 6864,
      "cher": 6865,
      "Ġout": 6866,
      "125": 6867,
      "ĠTueÌ£ÌĤ": 6868,
      "ĠVinaphone": 6869,
      "Â·": 6870,
      "Ġcac": 6871,
      "ĠnghieÌĤÌģn": 6872,
      "ĠTraÌĨng": 6873,
      "Cao": 6874,
      "ĠnheÌĤÌģch": 6875,
      "ĠHTC": 6876,
      "ĠtruÌģt": 6877,
      "Ġpoly": 6878,
      "ĠLoÌĽÌģp": 6879,
      "HoÌĤÌĢi": 6880,
      "baÌ£n": 6881,
      "Ġdec": 6882,
      "ĠThueÌĤÌģ": 6883,
      "ĠLin": 6884,
      "Ġmix": 6885,
      "ĠJose": 6886,
      "ĠbuÌĽng": 6887,
      "ĠNHNN": 6888,
      "ĠWhite": 6889,
      "-R": 6890,
      "ĠVTV": 6891,
      "ĠteÌģ": 6892,
      "ĠneÌĢ": 6893,
      "ĠHoÌĤÌĢn": 6894,
      "ĠBaÌīng": 6895,
      "ifone": 6896,
      "***Ċ": 6897,
      "khi": 6898,
      "Ġ^": 6899,
      "ĠtheÌ£n": 6900,
      "aste": 6901,
      "ĠxoaÌĨn": 6902,
      "Ġplay": 6903,
      "ĠchuÌĢi": 6904,
      "ele": 6905,
      "ĠnoÌģc": 6906,
      "stem": 6907,
      "CuÌĽÌģ": 6908,
      "ĠchaÌģt": 6909,
      "ĠngoÌī": 6910,
      "ĠTaÌ£p": 6911,
      "ĠCu": 6912,
      "ĠBuoÌĤÌīi": 6913,
      "eed": 6914,
      "sau": 6915,
      "ĠuÌĽÌģ": 6916,
      "ĠliÌĢ": 6917,
      "ĠcheÌĢo": 6918,
      "ĠtroÌī": 6919,
      "ĠngaÌĢng": 6920,
      "ĠBoÌĤÌģn": 6921,
      "xin": 6922,
      "kok": 6923,
      "ĠsoÌģi": 6924,
      "ĠToÌĽÌģi": 6925,
      "ĠsuÌĽÌīng": 6926,
      "Ġhack": 6927,
      "NgoÌ£c": 6928,
      "ĠMuÌĥi": 6929,
      "Ġje": 6930,
      "ĠcaÌĢy": 6931,
      "ĠphoÌĤÌģt": 6932,
      "ĠriÌģt": 6933,
      "aby": 6934,
      "FC": 6935,
      "ĠsuÌīng": 6936,
      "ĠRobert": 6937,
      ".A": 6938,
      "ĠgiaÌĤÌģm": 6939,
      "ainer": 6940,
      "pearl": 6941,
      "atar": 6942,
      "ĠJae": 6943,
      "ĠduÌĽÌģa": 6944,
      "une": 6945,
      "ava": 6946,
      "yeÌĤu": 6947,
      "ĠsaÌ£ÌĨc": 6948,
      "ĠCaÌĤÌĢm": 6949,
      "ĠVoÌ£ng": 6950,
      "CaÌģ": 6951,
      "uÌĽoÌĽÌģu": 6952,
      "ĠnguÌĽoÌĽÌ£ng": 6953,
      "ĠChaÌĤÌģn": 6954,
      "avel": 6955,
      "ĠComm": 6956,
      "Ġnheo": 6957,
      "ĠNieÌ£ÌĤm": 6958,
      "-taÌģt": 6959,
      "ĠoÌĽ": 6960,
      "loud": 6961,
      "ĠSport": 6962,
      "ĠUyeÌĤÌīn": 6963,
      "ja": 6964,
      "itar": 6965,
      "CP": 6966,
      "ĠthaÌģn": 6967,
      "ĠliÌĢa": 6968,
      "ĠneÌ£ÌĤm": 6969,
      "ĠTwitter": 6970,
      "ĠHuaÌĤn": 6971,
      "enz": 6972,
      "Trao": 6973,
      "ĠruÌĽoÌĽÌĥi": 6974,
      "ĠTech": 6975,
      "Ġyoga": 6976,
      "âĢľChuÌģng": 6977,
      "otte": 6978,
      "ĠLuaÌ£ÌĤn": 6979,
      "celona": 6980,
      "NoÌĽi": 6981,
      "ĠhoÌģc": 6982,
      "ĠHaÌ£t": 6983,
      "ĠLuyeÌ£ÌĤn": 6984,
      "ĠTrieÌĤÌģt": 6985,
      "ult": 6986,
      "ĠcoÌĤi": 6987,
      "Ġreo": 6988,
      "ĠbuÌģa": 6989,
      "Ġhas": 6990,
      "ĠraÌ£ÌĤm": 6991,
      "ĠVir": 6992,
      "ĠIV": 6993,
      "097": 6994,
      "over": 6995,
      "ToÌĤ": 6996,
      "ais": 6997,
      "ĠGB": 6998,
      ".B": 6999,
      "ĠBos": 7000,
      "eral": 7001,
      "TreÌī": 7002,
      "ĠRoÌĤÌĢng": 7003,
      "ishi": 7004,
      "ĠToaÌĢ": 7005,
      "QuaÌīng": 7006,
      "ĠÄĳoÌĤÌģn": 7007,
      "ĠUl": 7008,
      "ĠShow": 7009,
      "ĠchuÌĽÌĢ": 7010,
      "ĠngoaÌĥn": 7011,
      "ĠcuÌĽoÌĽÌĥi": 7012,
      "ĠlaÌĤÌīm": 7013,
      "ĠluÌ£y": 7014,
      "ĠBaÌģi": 7015,
      "ĠGoÌĢ": 7016,
      "ĠQueÌĤÌģ": 7017,
      "anda": 7018,
      "ĠISO": 7019,
      "ĠheÌīm": 7020,
      "ĠSoÌģc": 7021,
      "ĠvoÌĢ": 7022,
      "ĠCM": 7023,
      "ĠThuy": 7024,
      "reat": 7025,
      "iki": 7026,
      "Ñı": 7027,
      "Ġquai": 7028,
      "ĠGP": 7029,
      "ĠMaÌĢn": 7030,
      "Ġthung": 7031,
      "ĠmiÌģa": 7032,
      "QG": 7033,
      "ĠsaÌĢo": 7034,
      "ĠloÌĥm": 7035,
      "ĠYu": 7036,
      "ĠHyundai": 7037,
      "eÌĤr": 7038,
      "ĠVuÌĢng": 7039,
      "âĢľEm": 7040,
      "ĠBBC": 7041,
      "ĠMor": 7042,
      "ĠgoÌ£t": 7043,
      "ĠTaÌī": 7044,
      "QuaÌĤn": 7045,
      "for": 7046,
      "ĠKhaÌģc": 7047,
      "ĠÄĳoÌĢ": 7048,
      "ĠnuÌģm": 7049,
      "ppo": 7050,
      "TuÌĢy": 7051,
      "Ġmobile": 7052,
      "ĠRich": 7053,
      "ield": 7054,
      "ĠHolly": 7055,
      "OL": 7056,
      "xem": 7057,
      "eÌĤÌĢu": 7058,
      "ĠraÌĥnh": 7059,
      "ĠkhoÌīa": 7060,
      "CaÌĤÌĢu": 7061,
      "ĠViÌĥ": 7062,
      "ĠBus": 7063,
      "Ġcopy": 7064,
      "ĠLuÌĽÌĥ": 7065,
      "opy": 7066,
      "BaÌģnh": 7067,
      "FF": 7068,
      "ĠnoÌĽÌģi": 7069,
      "Ġmail": 7070,
      "ĠnguÌĽÌīi": 7071,
      "ĠcoÌĢ": 7072,
      "ews": 7073,
      "ĠIÌģt": 7074,
      "ning": 7075,
      "Äĳi": 7076,
      "umb": 7077,
      "row": 7078,
      "====": 7079,
      "view": 7080,
      "ĠhaÌĥnh": 7081,
      "ĠÄĲeÌĢn": 7082,
      "ĠNghiÌĥ": 7083,
      "ĠbuÌĽoÌĽÌģm": 7084,
      "BieÌĤÌģt": 7085,
      "ĠmieÌĤÌģu": 7086,
      "ĠchaÌ£p": 7087,
      "ĠbaÌĤÌĢm": 7088,
      "ĠCoÌĤÌģc": 7089,
      "ĠTraÌ£m": 7090,
      "Ġviet": 7091,
      "ĠnhuÌģn": 7092,
      "Ġshowbiz": 7093,
      "oÌĽng": 7094,
      "ĠSIM": 7095,
      "agram": 7096,
      "________________": 7097,
      ".-": 7098,
      "ĠÄĳieÌĤÌģu": 7099,
      "ĠSmart": 7100,
      "&ÄĲT": 7101,
      "ĠNuÌĽoÌĽng": 7102,
      "ading": 7103,
      "ĠJe": 7104,
      "-P": 7105,
      "Ġtrau": 7106,
      "ĠSG": 7107,
      "ĠSuÌĽÌģ": 7108,
      "HA": 7109,
      "Ġund": 7110,
      "ette": 7111,
      "ĠXaÌģc": 7112,
      "KT": 7113,
      "ĠAv": 7114,
      "Ġone": 7115,
      "ĠTak": 7116,
      "ĠMieÌĤÌģn": 7117,
      "LeÌĤÌĥ": 7118,
      "ĠÄĳeÌĢo": 7119,
      "eople": 7120,
      "ĠOs": 7121,
      "Ñĩ": 7122,
      "ĠGiuÌĽÌĥ": 7123,
      "ĠWal": 7124,
      "ider": 7125,
      "ĠÐ²": 7126,
      "âĢ¦)": 7127,
      "ĠtuaÌĤÌģn": 7128,
      "ĠcaÌ£ÌĨc": 7129,
      "ĠtreÌĢo": 7130,
      "ĠdaÌĤÌģn": 7131,
      "ĠsoÌ£c": 7132,
      "ĠIr": 7133,
      "ĠtiÌīa": 7134,
      "-CP": 7135,
      "LaÌĤÌģy": 7136,
      "TaÌ£p": 7137,
      "Ġthong": 7138,
      "ĠPa": 7139,
      "ĠXuÌĽÌī": 7140,
      "ĠtuÌ£y": 7141,
      "TieÌĤÌĢn": 7142,
      "ĠCuÌĢ": 7143,
      "âĢľTa": 7144,
      "/kg": 7145,
      "450": 7146,
      "yc": 7147,
      "ĠmiÌ£": 7148,
      "ĠPak": 7149,
      "++": 7150,
      "LaÌĥnh": 7151,
      "ĠBol": 7152,
      "ĠHÄĲQT": 7153,
      "Ġvs": 7154,
      "Ġbl": 7155,
      "Ġrobot": 7156,
      "ĠVuÌĽoÌĽÌĢn": 7157,
      "ĠÄĲaÌĨÌģk": 7158,
      "asc": 7159,
      "CuÌĽÌīa": 7160,
      "TaÌĤm": 7161,
      "suÌĽÌ£": 7162,
      "ĠquaÌĤÌīn": 7163,
      "ĠLoÌĢng": 7164,
      "ĠnguÌ£m": 7165,
      "OÌĽÌ£": 7166,
      "ĠAFF": 7167,
      ".M": 7168,
      "ĠhuÌĽÌĢ": 7169,
      "ĠNik": 7170,
      "ĠArg": 7171,
      "ĠroÌĤÌī": 7172,
      "ĠGar": 7173,
      "MB": 7174,
      "ĠNAM": 7175,
      "ader": 7176,
      "Ġresort": 7177,
      "-nh": 7178,
      "ĠnhoÌĤ": 7179,
      "ĠÄĲeÌ£p": 7180,
      "ĠVNCH": 7181,
      "ĠCHO": 7182,
      "ĠtroÌĽ": 7183,
      "Ġnoi": 7184,
      "ĠBTC": 7185,
      "VaÌĤÌĥn": 7186,
      "Ġmot": 7187,
      "ĠdieÌĤÌĥm": 7188,
      "ĠEle": 7189,
      "ĠFormosa": 7190,
      "Ġest": 7191,
      "ĠhiÌĢ": 7192,
      "ĠbaÌĨm": 7193,
      "ĠRO": 7194,
      "ĠuÌģp": 7195,
      "ĠxeÌ£ÌĤ": 7196,
      "ĠxaÌģo": 7197,
      "ĠphaÌĢn": 7198,
      "ĠbuÌģi": 7199,
      "-toÌĤ": 7200,
      "ĠSec": 7201,
      "ĠKing": 7202,
      "ĠHOÌ£": 7203,
      "rome": 7204,
      "/TT": 7205,
      "VaÌĤng": 7206,
      "Ġtanh": 7207,
      "play": 7208,
      "ĠtyÌ£": 7209,
      "ingroup": 7210,
      "fer": 7211,
      "ahoo": 7212,
      "HoaÌ£ÌĨc": 7213,
      "VoÌĽÌ£": 7214,
      "ĠtieÌ£ÌĤt": 7215,
      "ĠTruÌĽÌĥ": 7216,
      "ĠPhiÌģ": 7217,
      "ĠXX": 7218,
      "rogen": 7219,
      "ĠJi": 7220,
      "ĠBarcelona": 7221,
      "ÅĤ": 7222,
      "ĠChris": 7223,
      "ĠXaÌģ": 7224,
      "ourinho": 7225,
      "Tinh": 7226,
      "lam": 7227,
      "ĠtaÌĤÌīu": 7228,
      "ĠvoÌĽÌģ": 7229,
      "ĠHaÌ£n": 7230,
      "oÌĽÌ£m": 7231,
      "Linh": 7232,
      "LoÌĽÌ£i": 7233,
      "ĠhoÌĤÌīng": 7234,
      "ĠOanh": 7235,
      "entina": 7236,
      "ĠMessi": 7237,
      "lant": 7238,
      "ĠTaÌģ": 7239,
      "ĠMiss": 7240,
      "ĠAud": 7241,
      "ĠDuÌ£c": 7242,
      "ĠSuÌĽÌīu": 7243,
      "ĠNaÌĤng": 7244,
      "ĠBAÌī": 7245,
      "tton": 7246,
      "PG": 7247,
      "ĠNat": 7248,
      "ĠHer": 7249,
      "ĠÃĲuÌĽÌģc": 7250,
      "/Q": 7251,
      "ĠsuÌĢng": 7252,
      "eria": 7253,
      "CheÌĤÌģ": 7254,
      "ĠeÌĤÌģch": 7255,
      "ĠboÌĽÌģi": 7256,
      "ĠÄĳaÌĤÌģng": 7257,
      "Ìīn": 7258,
      "ĠchoÌģt": 7259,
      "ĠHC": 7260,
      "ĠMedia": 7261,
      "pha": 7262,
      "ĠthoÌĤÌģn": 7263,
      "ĠquaÌĤÌģt": 7264,
      "ÄĲoÌĤÌĢ": 7265,
      "AO": 7266,
      "date": 7267,
      "ĠloÌĤÌĢi": 7268,
      "ĠAN": 7269,
      "orth": 7270,
      "ĠAmer": 7271,
      "ĠMercedes": 7272,
      "Ġhen": 7273,
      "ĠsuÌģp": 7274,
      "ĠseÌ£ÌĤt": 7275,
      "ĠSol": 7276,
      "ÄĲang": 7277,
      "ĠSeoul": 7278,
      "ĠXiaomi": 7279,
      "Ġhormone": 7280,
      "220": 7281,
      "Sh": 7282,
      "cuÌĥng": 7283,
      "ĠvaÌģ": 7284,
      "ĠduoÌĤÌĥi": 7285,
      "ĠphoÌĤi": 7286,
      "ĠVo": 7287,
      "ĠLight": 7288,
      "zu": 7289,
      "ĠÄĲaÌ£ÌĤu": 7290,
      "ĠvaÌ£t": 7291,
      "Ġhoc": 7292,
      "ĠCaÌģm": 7293,
      "ĠVina": 7294,
      "ika": 7295,
      "ĠAFP": 7296,
      "ghan": 7297,
      "ye": 7298,
      "ĠtuoÌĤn": 7299,
      "ĠVingroup": 7300,
      "ĠMaÌĢy": 7301,
      "ĠThao": 7302,
      "Ġrad": 7303,
      "itr": 7304,
      "ĠFrancis": 7305,
      "Ġsl": 7306,
      "ĠHel": 7307,
      "ĠAÌģp": 7308,
      "ThaÌĤÌĢn": 7309,
      "ĠRoy": 7310,
      "Ġghe": 7311,
      "ĠlaÌĤÌīu": 7312,
      "ĠhoÌ£ÌĤt": 7313,
      "Ah": 7314,
      "ĠcaÌģu": 7315,
      "âĢľCoÌģ": 7316,
      "ĠnguÌīi": 7317,
      "Ð°Ð": 7318,
      "ser": 7319,
      "ĠxoaÌģ": 7320,
      "!âĢĿ.": 7321,
      "71": 7322,
      "ĠsaÌ£m": 7323,
      "ĠChaÌĤÌģp": 7324,
      "ĠKHAÌģ": 7325,
      "ĠluÌĽÌĥ": 7326,
      "ĠbaÌī": 7327,
      "alog": 7328,
      "ĠXaÌĢ": 7329,
      "ĠObject": 7330,
      "ChuaÌĤÌīn": 7331,
      "Ġhan": 7332,
      "ĠnguÌĽoÌĽÌģc": 7333,
      "ĠraÌĨn": 7334,
      "ĠThoaÌ£i": 7335,
      "Ġwhi": 7336,
      "ĠhuyÌī": 7337,
      "Al": 7338,
      "ĠCaÌīi": 7339,
      "ĠNhieÌĤÌĥm": 7340,
      "AI": 7341,
      "maÌĢ": 7342,
      "ĠtroÌĢng": 7343,
      "ĠTPP": 7344,
      "ĠÐ¸": 7345,
      "Ġgl": 7346,
      "61": 7347,
      "ĠbaÌĢnh": 7348,
      "ĠHuÌĽ": 7349,
      "ĠTroÌĢ": 7350,
      "ĠGames": 7351,
      "ĠEver": 7352,
      "PhaÌģp": 7353,
      "ira": 7354,
      "Ad": 7355,
      "box": 7356,
      "ĠMB": 7357,
      "ĠLuÌĽÌ£a": 7358,
      "fr": 7359,
      "Ġtphcm": 7360,
      "ĠvaÌĤÌĢn": 7361,
      "ĠmeÌģo": 7362,
      "ĠbaÌĤÌīy": 7363,
      "TroÌĽÌī": 7364,
      "Ġfull": 7365,
      "Ġop": 7366,
      "Ġoai": 7367,
      "otel": 7368,
      "RieÌĤng": 7369,
      "ĠvaÌĨÌģc": 7370,
      "ĠVinpearl": 7371,
      "ĠVictoria": 7372,
      "ĠoÌĤi": 7373,
      "ĠhuÌĥ": 7374,
      "ĠTruÌ£": 7375,
      "TK": 7376,
      "van": 7377,
      "ĠTraÌģc": 7378,
      "ĠxoaÌĢi": 7379,
      "Ġflash": 7380,
      "Hay": 7381,
      "ĠLoÌĽÌģn": 7382,
      "DC": 7383,
      "Danh": 7384,
      "Ñĭ": 7385,
      "ĠnhiÌģch": 7386,
      "ĠTyÌĢ": 7387,
      "ĠPhaÌĤÌīm": 7388,
      "ĠPhoÌĤÌī": 7389,
      "ĠtuoÌ£ÌĤt": 7390,
      "obile": 7391,
      "HaÌīi": 7392,
      "ĠsoÌ£": 7393,
      "ĠnaÌĥ": 7394,
      "ĠChina": 7395,
      "ĠkhieÌĤÌģm": 7396,
      "ĠdaÌĤÌĥu": 7397,
      "ĠXI": 7398,
      "BT": 7399,
      "ThaÌĤÌīm": 7400,
      "ĠWon": 7401,
      "Ġ<": 7402,
      "ĠraÌĢnh": 7403,
      "ĠquyeÌĤn": 7404,
      "ĠHen": 7405,
      "ĠSuÌĽÌīa": 7406,
      "ĠthiÌĢnh": 7407,
      "ĠbieÌĤÌģu": 7408,
      "ĠThoa": 7409,
      "ĠPol": 7410,
      "ĠÄĲaÌĤÌģu": 7411,
      "ĠBAÌ£": 7412,
      "ĠLen": 7413,
      "ĠBangkok": 7414,
      "ĠMaster": 7415,
      "BaÌĨÌģt": 7416,
      "GL": 7417,
      "ĠCamera": 7418,
      "Ġcas": 7419,
      "ĠÄĳuÌĽÌ£c": 7420,
      "Ġbalo": 7421,
      "ĠgoÌĽÌģm": 7422,
      "ĠLÄĲ": 7423,
      "Ġloi": 7424,
      "ĠAsia": 7425,
      "-Fi": 7426,
      "Ġbut": 7427,
      "ghanistan": 7428,
      "Book": 7429,
      "ient": 7430,
      "ĠaÌĨÌģt": 7431,
      "ĠniÌģu": 7432,
      "ĠdeÌī": 7433,
      "ĠXu": 7434,
      "81": 7435,
      "CoÌĤÌģ": 7436,
      "ĠáĦ": 7437,
      "ĠmoÌĽÌģ": 7438,
      "Ġsize": 7439,
      "Ġgoogle": 7440,
      "Ġnga": 7441,
      "ĠCV": 7442,
      "ĠVisa": 7443,
      "ĠSS": 7444,
      "ĠKyÌ£": 7445,
      "ips": 7446,
      "UÌĢ": 7447,
      "ĠTel": 7448,
      "ĠTyÌ£": 7449,
      "ĠDO": 7450,
      "ĠGeorge": 7451,
      "].": 7452,
      "ĠtrieÌĤÌĢn": 7453,
      "Ġpart": 7454,
      "ĠNuÌģi": 7455,
      "ĠCanh": 7456,
      "ĠLaÌĢng": 7457,
      "ual": 7458,
      "ĠmiÌ£t": 7459,
      "ĠÄĲaÌĤÌģy": 7460,
      "chester": 7461,
      "ĠJung": 7462,
      "ĠnheÌ£n": 7463,
      "ĠSpa": 7464,
      "ĠtroÌĤÌī": 7465,
      "ĠBin": 7466,
      "HS": 7467,
      "fi": 7468,
      "hy": 7469,
      "ze": 7470,
      "ĠtaÌĨÌģn": 7471,
      "ĠmaÌīi": 7472,
      "ĠchaÌĨÌģp": 7473,
      "ĠtreÌ£ÌĤ": 7474,
      "ĠngaÌĢ": 7475,
      "ĠTur": 7476,
      "ĠNaÌĨÌĢm": 7477,
      "ĠSuÌĽoÌĽng": 7478,
      "aga": 7479,
      "ather": 7480,
      "aÌĦ": 7481,
      "ĠBL": 7482,
      "ÄĲoaÌĢn": 7483,
      "PhieÌĤn": 7484,
      "!âĢĿ.Ċ": 7485,
      "ĠoÌĤÌĢ": 7486,
      "ĠhuÌĽÌģc": 7487,
      "Ġnung": 7488,
      "ĠSi": 7489,
      "ĠthoÌĢi": 7490,
      "Press": 7491,
      "ĠtaÌīo": 7492,
      "ĠmiÌģt": 7493,
      "ĠruÌĢng": 7494,
      "ĠSur": 7495,
      "aily": 7496,
      "ATO": 7497,
      "BoÌĤÌģ": 7498,
      "SeÌĥ": 7499,
      "ĠlaÌĨÌīng": 7500,
      "ĠtroÌģc": 7501,
      "ĠnaÌ£o": 7502,
      "ĠChoÌĤÌģng": 7503,
      "ÄĲoÌĽn": 7504,
      "ĠNhuaÌ£ÌĤn": 7505,
      "ÄĳoÌĤÌģi": 7506,
      "ĠnhoÌĤÌģt": 7507,
      "Ġsil": 7508,
      "Ġpass": 7509,
      "ĠÄĳoÌģa": 7510,
      "ĠAfghanistan": 7511,
      "PC": 7512,
      "TroÌĽÌĢi": 7513,
      "PhiÌģa": 7514,
      "ĠYoung": 7515,
      "QuoÌĤÌģc": 7516,
      "ĠMun": 7517,
      "ats": 7518,
      "ius": 7519,
      "ĠgÌģ": 7520,
      "icon": 7521,
      "HoÌīi": 7522,
      "Ġchan": 7523,
      "ĠnguyeÌĤÌĢn": 7524,
      "ĠCoc": 7525,
      "ĠÐ½": 7526,
      "ĠnuÌĽoÌĽÌģu": 7527,
      "ĠHung": 7528,
      "ĠThiÌĢn": 7529,
      "ĠLeÌ£ÌĤnh": 7530,
      "ĠPin": 7531,
      "olog": 7532,
      "ĠuÌĢn": 7533,
      "USD": 7534,
      "Ġcontainer": 7535,
      "89": 7536,
      ".g": 7537,
      "ĠcuÌĽa": 7538,
      "pro": 7539,
      "ĠteÌī": 7540,
      "Ġsite": 7541,
      "ĠgiaÌĤÌĢy": 7542,
      "aint": 7543,
      "Ġmake": 7544,
      "ĠDuÌĽÌ£a": 7545,
      "ÄĲa": 7546,
      "ĠtoÌĽi": 7547,
      "Ġcr": 7548,
      "ĠluÌĽÌ£u": 7549,
      "ĠNhaÌ£ÌĤp": 7550,
      "ĠGa": 7551,
      "ĠngoÌĢi": 7552,
      "Ġmore": 7553,
      "ĠTaÌĤÌģm": 7554,
      "ĠNhanh": 7555,
      "ĠGioan": 7556,
      "ander": 7557,
      "ĠColl": 7558,
      "ĠchaÌĤÌĢm": 7559,
      "ĠTuaÌĤÌģt": 7560,
      "ĠÄĳoÌĤla": 7561,
      "ĠMen": 7562,
      "ĠPR": 7563,
      "chuÌī": 7564,
      "ĠInternational": 7565,
      "MaÌĢn": 7566,
      "ĠnhoÌĽÌģt": 7567,
      "ĠPat": 7568,
      "ĠvuÌ£ng": 7569,
      "Ġfol": 7570,
      "BoÌ£n": 7571,
      "DL": 7572,
      "Ġphao": 7573,
      "ĠVol": 7574,
      "emon": 7575,
      "ĠUp": 7576,
      "ĠkiÌģp": 7577,
      "PA": 7578,
      "Ġkali": 7579,
      "ĠÄĲoÌĤn": 7580,
      "ĠMourinho": 7581,
      "ĠThomas": 7582,
      "ĠKon": 7583,
      "ĠKhieÌĤm": 7584,
      "ets": 7585,
      "NV": 7586,
      "ĠToÌģc": 7587,
      "ĠWilliam": 7588,
      "ĠTAND": 7589,
      "BQ": 7590,
      "KieÌĤÌīm": 7591,
      "list": 7592,
      "ĠKhoÌĤÌģi": 7593,
      "ago": 7594,
      "ĠHollywood": 7595,
      "KiÌģch": 7596,
      "Ìīm": 7597,
      "ĠsaÌĨÌģn": 7598,
      "ĠTuÌĽÌĢng": 7599,
      "ĠHit": 7600,
      "ĠMS": 7601,
      "Ġxui": 7602,
      "bps": 7603,
      "du": 7604,
      "ĠgaÌī": 7605,
      "ĠInf": 7606,
      "!!!Ċ": 7607,
      "LaÌ£c": 7608,
      "ĠcoÌ£ÌĤi": 7609,
      "ĠQL": 7610,
      "aco": 7611,
      "gioÌĽÌĢ": 7612,
      "MaÌĥ": 7613,
      "ĠreÌĤu": 7614,
      "ĠItalia": 7615,
      "ĠFire": 7616,
      "combank": 7617,
      "ĠvoÌĥng": 7618,
      "ĠOffice": 7619,
      "VaÌĤn": 7620,
      "res": 7621,
      "ĠtaÌĥ": 7622,
      "Ġmet": 7623,
      "ĠkheÌĤÌģ": 7624,
      "ĠÄĲen": 7625,
      "ĠSant": 7626,
      "âĢľNguÌĽoÌĽi": 7627,
      "189": 7628,
      "Ġkhang": 7629,
      "ĠVoÌĤÌģn": 7630,
      "ĠÄĲOÌ£ÌĤ": 7631,
      "ĠTraÌ£ÌĤn": 7632,
      "ĠtraÌģm": 7633,
      "ĠraÌĤÌĥy": 7634,
      "ĠÄĲo": 7635,
      "ĠBal": 7636,
      "ĠThuÌ£c": 7637,
      "ĠDon": 7638,
      "LIN": 7639,
      "ĠsoÌĢng": 7640,
      "ĠMobifone": 7641,
      "Ġcomment": 7642,
      "ĠtraÌ£ÌĨc": 7643,
      "ĠChoÌĽi": 7644,
      "Ġper": 7645,
      "ĠVC": 7646,
      "ĠVaÌĢi": 7647,
      "ĠThieÌĤm": 7648,
      "ĠPost": 7649,
      "ĠtoÌĢi": 7650,
      "arg": 7651,
      "ker": 7652,
      "ĠBaÌĢng": 7653,
      "ĠFan": 7654,
      "ivia": 7655,
      "ĠchaÌĨÌĢng": 7656,
      "ĠNaÌĤÌģm": 7657,
      "ĠBarca": 7658,
      "ĠBluetooth": 7659,
      "Ġmag": 7660,
      "ĠNhieÌ£ÌĤm": 7661,
      "ury": 7662,
      "Ġav": 7663,
      "ĠThai": 7664,
      "ĠkhoaÌĨÌģn": 7665,
      "ĠHoÌīi": 7666,
      "TraÌģi": 7667,
      "Ġnet": 7668,
      "ĠCentral": 7669,
      "ĠInstagram": 7670,
      "Long": 7671,
      "shi": 7672,
      "ĠnhoÌĽÌ£t": 7673,
      "ĠMus": 7674,
      "ĠkiÌĢa": 7675,
      "ĠBeÌĤÌģp": 7676,
      "ĠLum": 7677,
      "ĠnaÌĨn": 7678,
      "thu": 7679,
      "170": 7680,
      "86": 7681,
      "tin": 7682,
      "Ġcotton": 7683,
      "ealand": 7684,
      "AA": 7685,
      "ĠChoÌĤÌĢng": 7686,
      "ĠNguÌ£y": 7687,
      "ÄĲoÌĤng": 7688,
      "ĠId": 7689,
      "Ġins": 7690,
      "treÌĤn": 7691,
      "ĠCOÌģ": 7692,
      "ĠÄĳuÌĢng": 7693,
      "ĠBre": 7694,
      "ĠLiÌĥnh": 7695,
      "%/": 7696,
      "mail": 7697,
      "Ġol": 7698,
      "Ġtoa": 7699,
      "ĠPeter": 7700,
      "ĠCuÌĽÌ£u": 7701,
      "ĠChaÌĢo": 7702,
      "ChaÌĤn": 7703,
      "ape": 7704,
      "MoÌģn": 7705,
      "Ġmg": 7706,
      "Ġden": 7707,
      "ĠTruÌĽÌ£c": 7708,
      "Ġkhoanh": 7709,
      "ÄĲaÌ£o": 7710,
      "led": 7711,
      "MoÌĽÌī": 7712,
      "uÌĢm": 7713,
      "vel": 7714,
      "ĠJenn": 7715,
      "/NÄĲ": 7716,
      "ThiÌĢ": 7717,
      "NgoÌĤi": 7718,
      "...\"Ċ": 7719,
      "organ": 7720,
      "less": 7721,
      "ĠMP": 7722,
      "ĠRuÌĽÌīa": 7723,
      "ĠTaÌĢo": 7724,
      "ĠTuÌĽoÌĽÌ£ng": 7725,
      "ĠNaÌĢo": 7726,
      "inal": 7727,
      "ĠtoaÌī": 7728,
      "ĠNhieÌ£ÌĤt": 7729,
      "ĠquyÌģt": 7730,
      "ĠDVD": 7731,
      "76": 7732,
      "ling": 7733,
      "qua": 7734,
      "ĠMer": 7735,
      "ĠRy": 7736,
      "ĠcuÌ£t": 7737,
      "GioÌĤÌģng": 7738,
      "ĠÐ¾": 7739,
      "Ġsexy": 7740,
      "Ġvest": 7741,
      "ĠbaÌĤÌĢn": 7742,
      "ĠCR": 7743,
      "ager": 7744,
      "NghieÌĤn": 7745,
      "(Theo": 7746,
      "vi": 7747,
      "ĠhaÌĤÌģt": 7748,
      "ĠTaÌĤÌĢm": 7749,
      "ĠÄĲoaÌ£n": 7750,
      "ĠnaÌĨÌģn": 7751,
      "ĠOÌĤi": 7752,
      "DieÌĤÌĥn": 7753,
      "jet": 7754,
      "ÄĲoÌ£ÌĤng": 7755,
      "ĠvuÌ£t": 7756,
      "Ġwho": 7757,
      "ĠDoaÌĥn": 7758,
      "ĠaÌ£ÌĤp": 7759,
      "ĠTaÌīi": 7760,
      "ĠThuÌĽÌī": 7761,
      "ĠPhoÌģng": 7762,
      "ĠKhoaÌīn": 7763,
      "ELTS": 7764,
      "Ġjeans": 7765,
      "ĠnhaÌĤÌĢy": 7766,
      "Ġrec": 7767,
      "ĠVat": 7768,
      "ĠAÌĢ": 7769,
      "TaÌĤÌĢn": 7770,
      "VI": 7771,
      "ĠCuÌī": 7772,
      "ĠLCD": 7773,
      "ĠDaÌ£ÌĤu": 7774,
      "ĠHoaÌĨÌģc": 7775,
      "Ġtime": 7776,
      "NgheÌ£ÌĤ": 7777,
      "):Ċ": 7778,
      "ĠMuÌĽoÌĽÌĢng": 7779,
      "ĠYoutube": 7780,
      "ute": 7781,
      "ovo": 7782,
      "ĠsuÌĽa": 7783,
      "ĠÄĲuÌĽÌģng": 7784,
      "UÌĽÌģng": 7785,
      "ĠPakistan": 7786,
      "HoÌĤÌĢng": 7787,
      "ĠnhoÌĥm": 7788,
      "ĠMeÌĤÌĥ": 7789,
      "ĠHoÌ£a": 7790,
      "nho": 7791,
      "ĠTyÌģ": 7792,
      "ĠTAÌĤ": 7793,
      "ĠÄĲAÌ£": 7794,
      "hic": 7795,
      "ĠPremier": 7796,
      "gy": 7797,
      "ÄĲaÌģng": 7798,
      "ĠRam": 7799,
      "gio": 7800,
      "OÌĢ": 7801,
      "teÌĤn": 7802,
      "ĠquaÌĤÌĢng": 7803,
      "ĠMir": 7804,
      "Tube": 7805,
      "Ġnem": 7806,
      "ĠVoÌĢng": 7807,
      "ĠÄĲeÌĤÌĢn": 7808,
      "ĠIm": 7809,
      "ĠhoÌĽÌĢn": 7810,
      "ulin": 7811,
      "cow": 7812,
      "Ġpiano": 7813,
      "anel": 7814,
      "Ġ->": 7815,
      "KhaÌģc": 7816,
      "Ġmoi": 7817,
      "GiuÌĽÌĥa": 7818,
      "ĠcoÌĤÌĢng": 7819,
      "ĠZealand": 7820,
      "UÌī": 7821,
      "sinh": 7822,
      "ĠAh": 7823,
      "ĠGe": 7824,
      "ages": 7825,
      "73": 7826,
      "LiÌ£ch": 7827,
      "zo": 7828,
      "ĠmaÌ£t": 7829,
      "ĠbiÌģt": 7830,
      "ĠngaÌģy": 7831,
      "ĠxoÌ£ÌĤn": 7832,
      "ĠLi": 7833,
      "ĠNgaÌ£o": 7834,
      "83": 7835,
      "ĠsaÌĤÌĥm": 7836,
      "ĠphuÌĽoÌĽÌ£t": 7837,
      "ĠDaÌ£ÌĤt": 7838,
      "ĠHuaÌĤÌģn": 7839,
      "999": 7840,
      "%Ċ": 7841,
      "ĠngoÌģng": 7842,
      "ĠKhoÌģ": 7843,
      "ĠXH": 7844,
      "Ġlogic": 7845,
      "Mai": 7846,
      "Ġhat": 7847,
      "ĠsuÌ£c": 7848,
      "ĠnaÌ£ÌĨn": 7849,
      "ĠbuÌĢa": 7850,
      "094": 7851,
      "ĠHarry": 7852,
      "viÌģ": 7853,
      "ĠtiÌģt": 7854,
      "ĠngoÌģi": 7855,
      "ĠroÌĽm": 7856,
      "ĠKu": 7857,
      "ĠYam": 7858,
      "ĠCSGT": 7859,
      "Ġhis": 7860,
      "star": 7861,
      "***": 7862,
      "ĠKhueÌĤ": 7863,
      "Ġteam": 7864,
      "Ra": 7865,
      "win": 7866,
      "ĠNhuÌĽoÌĽÌĥng": 7867,
      "ĠFI": 7868,
      "ChuÌģa": 7869,
      "LA": 7870,
      "ĠSuzuki": 7871,
      "ĠArgentina": 7872,
      "?âĢĿ,": 7873,
      "YÌĥ": 7874,
      "hai": 7875,
      "td": 7876,
      "ĠCaÌģnh": 7877,
      "TruÌĽoÌĽng": 7878,
      "ÄĳoÌĤÌĢng": 7879,
      "appy": 7880,
      "QL": 7881,
      "ĠaÌ£t": 7882,
      "iga": 7883,
      "Phi": 7884,
      "ĠHoÌĤ": 7885,
      "ĠThuÌģc": 7886,
      "ict": 7887,
      "ĠFlor": 7888,
      "ĠKangnam": 7889,
      "ms": 7890,
      "ĠmoÌ£ng": 7891,
      "ĠxieÌĤÌģt": 7892,
      "ĠDong": 7893,
      "ĠZen": 7894,
      "365": 7895,
      "Game": 7896,
      "tuÌĽoÌĽng": 7897,
      "ĠvaÌīy": 7898,
      "ĠVAÌĤÌģ": 7899,
      "Chung": 7900,
      "phaÌīi": 7901,
      "KieÌĤÌīu": 7902,
      "ĠAC": 7903,
      "ĠOl": 7904,
      "ĠtÌģnh": 7905,
      "ThuÌĽ": 7906,
      ".U": 7907,
      "Huy": 7908,
      "ĠNN": 7909,
      "ĠMaÌĥo": 7910,
      "ĠEÌĤ": 7911,
      "Ġhosting": 7912,
      "COÌĤ": 7913,
      "ique": 7914,
      "ĠoÌĤÌģ": 7915,
      "ait": 7916,
      "ision": 7917,
      "ÄĳaÌ£i": 7918,
      "BaÌīng": 7919,
      "ĠkeÌĢ": 7920,
      "cc": 7921,
      "ken": 7922,
      "ĠCle": 7923,
      "ĠPlaza": 7924,
      "ĠManchester": 7925,
      "KeÌĤÌģ": 7926,
      "dex": 7927,
      "ĠLoÌĤ": 7928,
      "ĠyeÌĤÌī": 7929,
      "ĠGiuse": 7930,
      "ĠBank": 7931,
      "den": 7932,
      "ĠGaÌĥ": 7933,
      "Ġ\"Ċ": 7934,
      "ĠJul": 7935,
      "HaÌĥng": 7936,
      "Ġvali": 7937,
      "ĠsoÌĽÌĥ": 7938,
      "ĠBieÌĤÌģn": 7939,
      "hing": 7940,
      "TE": 7941,
      "Ġbung": 7942,
      "ĠVill": 7943,
      "ĠPay": 7944,
      "ĠKhuyeÌĤÌģn": 7945,
      "ThoÌĤi": 7946,
      "alth": 7947,
      "NhoÌĽÌģ": 7948,
      "ĠEco": 7949,
      "wa": 7950,
      "ĠquaÌĨng": 7951,
      "ĠAI": 7952,
      "ĠmaÌģch": 7953,
      "ĠmaÌĤÌīu": 7954,
      "ĠbuÌĽÌģt": 7955,
      "Ġsty": 7956,
      "ĠDieÌĤm": 7957,
      "ĠOm": 7958,
      "ĠIELTS": 7959,
      "âĢĻ.": 7960,
      "ĠhoÌĽ": 7961,
      "101": 7962,
      "TuÌĽÌī": 7963,
      "Ġ_": 7964,
      "ĠvoÌĽi": 7965,
      "Ġblock": 7966,
      "ĠTraÌĥi": 7967,
      "TraÌīi": 7968,
      "ĠoÌīi": 7969,
      "osh": 7970,
      "br": 7971,
      "vo": 7972,
      "ĠtuÌīi": 7973,
      "Ġshowroom": 7974,
      "Kem": 7975,
      "ĠoÌĤÌīng": 7976,
      "ĠmuÌĽÌģt": 7977,
      "ĠnhaÌģ": 7978,
      "128": 7979,
      "NghiÌĥ": 7980,
      "Ġblogger": 7981,
      "UoÌĤÌģng": 7982,
      "NgoaÌ£i": 7983,
      "uman": 7984,
      "Ġserver": 7985,
      ".G": 7986,
      "DoÌĢng": 7987,
      "Ġneo": 7988,
      "ĠphaÌīng": 7989,
      "ĠBarack": 7990,
      "ĠUniversity": 7991,
      ",...Ċ": 7992,
      "ness": 7993,
      "ĠluoÌĤÌĢn": 7994,
      "ĠnoÌĤi": 7995,
      "ĠCat": 7996,
      "Ġtua": 7997,
      "KyÌĥ": 7998,
      "xx": 7999,
      "ĠNLÄĲ": 8000,
      "ĠUng": 8001,
      "ĠThiÌ£t": 8002,
      "ĠCHIÌģ": 8003,
      "\"ToÌĤi": 8004,
      ",..": 8005,
      "pa": 8006,
      "Ġgym": 8007,
      "ĠTIEÌĤÌģ": 8008,
      "ĠTrans": 8009,
      "itor": 8010,
      "NhaÌĨÌĢm": 8011,
      "bl": 8012,
      "Ġamin": 8013,
      "Ġrem": 8014,
      "ĠxaÌĤÌģp": 8015,
      "LuÌĽÌ£a": 8016,
      "ĠguÌĽoÌĽÌ£ng": 8017,
      "ĠStre": 8018,
      "ĠFu": 8019,
      "ĠMaÌĤÌĥn": 8020,
      "ĠLos": 8021,
      "ĠRem": 8022,
      "Ġshort": 8023,
      "wei": 8024,
      "ĠNoel": 8025,
      "ĠMoscow": 8026,
      "Ġcat": 8027,
      "ĠtieÌĤÌģu": 8028,
      "ĠtuÌģm": 8029,
      "ĠRep": 8030,
      "pad": 8031,
      "203": 8032,
      "Ġstart": 8033,
      "burg": 8034,
      "82": 8035,
      "NS": 8036,
      "ÌĦ": 8037,
      "ĠxoÌĢe": 8038,
      "ĠÄĲoÌĤÌĢn": 8039,
      "ĠLux": 8040,
      "ĠsuÌīa": 8041,
      ".f": 8042,
      "Ġline": 8043,
      "ĠkhaÌĨng": 8044,
      "ĠTraÌīi": 8045,
      "ĠDuyeÌ£ÌĤt": 8046,
      "ĠDUÌ£": 8047,
      "the": 8048,
      "ĠÃĲaÌ£i": 8049,
      "ugin": 8050,
      "ekong": 8051,
      "ĠCenter": 8052,
      "amine": 8053,
      "yo": 8054,
      "ĠmoÌ£t": 8055,
      "Ġpar": 8056,
      "âĢľA": 8057,
      "âĢľNeÌĤÌģu": 8058,
      "ĠoaÌīi": 8059,
      "ÄĳuÌĽoÌĽÌĢng": 8060,
      "gan": 8061,
      "ru": 8062,
      "ĠkhaÌĢn": 8063,
      "ĠOk": 8064,
      "DaÌĤÌĢu": 8065,
      "brid": 8066,
      "ĠbaÌ£ÌĤy": 8067,
      "ĠnheÌĥ": 8068,
      "ĠraÌĤm": 8069,
      "ĠBas": 8070,
      "ĠBuÌĽu": 8071,
      "ĠAT": 8072,
      "ĠGaÌĢ": 8073,
      "âĢĻĊ": 8074,
      "quaÌ£ÌĤn": 8075,
      "74": 8076,
      "SuÌĽÌĥa": 8077,
      "ret": 8078,
      "ĠheÌĤÌĥ": 8079,
      "ĠbeÌĢo": 8080,
      "thuÌĽoÌĽÌĢng": 8081,
      "ĠPhaoloÌĤ": 8082,
      "-ho": 8083,
      "DaÌ£": 8084,
      "ĠvaÌĤÌīn": 8085,
      "ĠhaÌĥn": 8086,
      "ĠxuÌĢ": 8087,
      "ĠCuÌĽÌ£": 8088,
      "ĠKhoÌģa": 8089,
      "ĠNHAÌ£ÌĤ": 8090,
      "tions": 8091,
      "-kh": 8092,
      "TaÌ£o": 8093,
      "Ġcal": 8094,
      "âĢľM": 8095,
      "inger": 8096,
      "ĠStore": 8097,
      "BeÌģ": 8098,
      "ĠTK": 8099,
      "thaÌĢnh": 8100,
      "TCK": 8101,
      "ĠAndre": 8102,
      "ten": 8103,
      "ĠboÌ£": 8104,
      "ĠsaÌīo": 8105,
      "po": 8106,
      "ĠaÌģt": 8107,
      "ĠtiÌĢ": 8108,
      "ĠthaÌ£c": 8109,
      "ĠphoÌĤÌĢn": 8110,
      "-TT": 8111,
      "ĠsaÌĤÌģm": 8112,
      "ĠJean": 8113,
      "XB": 8114,
      "dy": 8115,
      "nect": 8116,
      "Ġ~": 8117,
      "ĠveÌĤnh": 8118,
      "Ġour": 8119,
      "eep": 8120,
      "TB": 8121,
      "ĠveÌģt": 8122,
      "ĠpheÌĢn": 8123,
      "ĠKEÌĤÌģ": 8124,
      "ĠKhuÌģc": 8125,
      "ĠRaÌ£ÌĤp": 8126,
      "ĠFed": 8127,
      "ady": 8128,
      "ĠÂ·": 8129,
      "enser": 8130,
      "ĠTaÌģo": 8131,
      "uri": 8132,
      "ift": 8133,
      "Pl": 8134,
      "Pro": 8135,
      "ĠToÌ£ÌĤi": 8136,
      "FI": 8137,
      "ĠhoÌĽÌĢ": 8138,
      "ĠmeÌĢ": 8139,
      "ĠdaÌĤÌĢy": 8140,
      "ĠNgoÌĤÌĢi": 8141,
      "ĠteÌĤÌĢ": 8142,
      "Ġhon": 8143,
      "ĠVEÌĤÌĢ": 8144,
      "ĠPhone": 8145,
      "Ġiphone": 8146,
      "ettings": 8147,
      "crip": 8148,
      "ĠÄĳaÌĢy": 8149,
      "Ġmon": 8150,
      "ĠBuÌĽÌģc": 8151,
      "ĠKo": 8152,
      "ban": 8153,
      "Ġsup": 8154,
      "ĠriÌĢ": 8155,
      "ĠNgaÌĢnh": 8156,
      "ĠCollagen": 8157,
      "ĠÄĳay": 8158,
      "ĠsuoÌĤn": 8159,
      "ĠSuy": 8160,
      "ĠSum": 8161,
      "Tho": 8162,
      "NgaÌĢi": 8163,
      "âĢľVaÌ£ÌĤy": 8164,
      "/QÄĲ": 8165,
      "Cung": 8166,
      "esus": 8167,
      "ĠDuÌ£ng": 8168,
      "ista": 8169,
      "GI": 8170,
      "ior": 8171,
      "ĠGiaÌīng": 8172,
      "chen": 8173,
      "ĠLouis": 8174,
      "ĠBMW": 8175,
      "024": 8176,
      "ĠnaÌ£t": 8177,
      "Ġvn": 8178,
      "Ġsam": 8179,
      "ĠcuÌĢ": 8180,
      "ĠToÌĽÌģ": 8181,
      "ĠquaÌĤy": 8182,
      "ĠVÄĲ": 8183,
      "board": 8184,
      "92": 8185,
      "âĺ": 8186,
      "Ġvun": 8187,
      "quan": 8188,
      "ĠStart": 8189,
      "ĠUÌĽÌĢ": 8190,
      "Ġlives": 8191,
      "ĠdieÌĤm": 8192,
      "ĠTab": 8193,
      "Thi": 8194,
      "KhaÌī": 8195,
      "123": 8196,
      "link": 8197,
      "quy": 8198,
      "ĠDaÌĥ": 8199,
      "Gh": 8200,
      "bai": 8201,
      "ĠdoÌ£ÌĤt": 8202,
      "cha": 8203,
      "ĠOce": 8204,
      "XuaÌĤn": 8205,
      "nhaÌĤn": 8206,
      "oÌĽÌīm": 8207,
      "ĠVai": 8208,
      "ĠVaÌĤÌģp": 8209,
      "ĠSaÌĨÌģt": 8210,
      "uawei": 8211,
      "ĠAPEC": 8212,
      "aa": 8213,
      "nal": 8214,
      "ĠhoaÌģn": 8215,
      "ĠÄĲuÌĽa": 8216,
      "ĠTra": 8217,
      "MI": 8218,
      "XaÌĤy": 8219,
      "ĠthuyeÌĤn": 8220,
      "ĠtuÌĽng": 8221,
      "ĠÄĳoÌĤÌĥi": 8222,
      "ĠNhaÌĢn": 8223,
      "ÄĳaÌ£ÌĨc": 8224,
      "Ġseries": 8225,
      "Ġbr": 8226,
      "ĠRu": 8227,
      "ĠHyun": 8228,
      "noÌģi": 8229,
      "ĠlaÌĤÌĢy": 8230,
      "ĠnhaÌī": 8231,
      "Ġsub": 8232,
      "iÌ£u": 8233,
      "ĠHoÌĽÌ£i": 8234,
      "ĠMid": 8235,
      "ĠSapa": 8236,
      "ĠvuÌģt": 8237,
      "ĠAuto": 8238,
      "Ġki": 8239,
      "ĠphaÌĢo": 8240,
      "ĠThuyÌī": 8241,
      "ĠGioÌģ": 8242,
      "ĠviÌģt": 8243,
      "ĠkeÌģn": 8244,
      "ĠCÄĲV": 8245,
      "GA": 8246,
      "Hi": 8247,
      "VaÌĢi": 8248,
      "gar": 8249,
      "Ġbody": 8250,
      "ĠdaÌĤÌĢm": 8251,
      "ĠBoÌĤÌī": 8252,
      "inc": 8253,
      "ĠAR": 8254,
      "OV": 8255,
      "ĠnheÌĢ": 8256,
      "247": 8257,
      "ĠsaÌīy": 8258,
      "ĠVer": 8259,
      "ĠDeÌĤÌĥ": 8260,
      "GD": 8261,
      "caÌģch": 8262,
      "tis": 8263,
      "ĠtaÌĤÌģc": 8264,
      "ĠlaÌĤÌĥm": 8265,
      "ĠCast": 8266,
      "ĠBiÌģnh": 8267,
      "ĠMur": 8268,
      "ĠMekong": 8269,
      "ĠthuÌĽÌĢng": 8270,
      "ĠRaÌĨng": 8271,
      "Ġkn": 8272,
      "Ġnick": 8273,
      "ÄĲoÌ£ÌĤ": 8274,
      "ĠraÌ£ÌĤp": 8275,
      "ĠraÌĤÌĢy": 8276,
      "ĠGaÌ£ÌĨp": 8277,
      "ĠGlo": 8278,
      "ĠhoÌĤÌīi": 8279,
      "eland": 8280,
      "!!Ċ": 8281,
      "ĠgiuÌĽoÌĽng": 8282,
      "ĠNguÌĽÌ£": 8283,
      "chuÌĽa": 8284,
      "AD": 8285,
      "no": 8286,
      "Ġ>>": 8287,
      "ĠroÌ£i": 8288,
      "ĠVene": 8289,
      "ito": 8290,
      "TraÌĢ": 8291,
      "ĠMytour": 8292,
      "coÌĽ": 8293,
      "dotel": 8294,
      "ĠphiÌī": 8295,
      "ĠRang": 8296,
      "ĠtreÌīo": 8297,
      "ender": 8298,
      "ĠMilan": 8299,
      "ÃĹ": 8300,
      "Ġ%": 8301,
      "Ġchao": 8302,
      "ĠHIEÌ£ÌĤ": 8303,
      "ĠBook": 8304,
      "ĠâĢ¢": 8305,
      "ĠDAÌĤ": 8306,
      "GioÌ£ng": 8307,
      "ĠCHI": 8308,
      ".)Ċ": 8309,
      "ved": 8310,
      "ĠLip": 8311,
      "ĠSOÌĤÌģ": 8312,
      "ĠPok": 8313,
      "ĠuÌĽÌīng": 8314,
      "Ġsoc": 8315,
      "BieÌĤÌīu": 8316,
      "ĠSak": 8317,
      "ÄĲau": 8318,
      "thuÌĽÌ£c": 8319,
      "oshop": 8320,
      "ights": 8321,
      "ĠBy": 8322,
      "ĠBAÌģ": 8323,
      "Ġvir": 8324,
      "phen": 8325,
      "ĠHOT": 8326,
      "Ġpeople": 8327,
      "ĠLU": 8328,
      "ĠUÌģt": 8329,
      "Giang": 8330,
      "GiaÌīm": 8331,
      "ution": 8332,
      "-gi": 8333,
      "âĻ": 8334,
      "ĠcaÌĤm": 8335,
      "ĠPaste": 8336,
      "Ġseo": 8337,
      "ĠdaÌĨÌĢn": 8338,
      "ĠTheÌī": 8339,
      "ĠthoÌĢ": 8340,
      "ĠOS": 8341,
      "ÄĳaÌĤy": 8342,
      "ĠVatican": 8343,
      "-N": 8344,
      "SoÌĤÌģng": 8345,
      "fl": 8346,
      "NgaÌĤn": 8347,
      "Ġoanh": 8348,
      "ston": 8349,
      "Ġguitar": 8350,
      "UR": 8351,
      "ĠvaÌĤÌīy": 8352,
      "ĠmaÌĤÌģu": 8353,
      "Ġdep": 8354,
      "Ġngao": 8355,
      "ĠView": 8356,
      "ĠNhieÌĤÌģp": 8357,
      "ĠJer": 8358,
      "ĠtiÌģa": 8359,
      "/tu": 8360,
      "ĠÄĳong": 8361,
      "Ġher": 8362,
      "ĠÄĲoÌĤÌīi": 8363,
      "ĠPu": 8364,
      "ĠCHUÌģ": 8365,
      "ĠlieÌĤu": 8366,
      "ĠHal": 8367,
      "ĠGH": 8368,
      "ĠXa": 8369,
      "GiaÌģm": 8370,
      "OÌĤi": 8371,
      "order": 8372,
      "Ġmin": 8373,
      "Ġrep": 8374,
      "ĠÄĲaÌģm": 8375,
      "ĠDuÌĽoÌĽÌĢng": 8376,
      "ĠGoÌ£i": 8377,
      "ĠluÌĢn": 8378,
      "ĠRos": 8379,
      "uma": 8380,
      "ieng": 8381,
      "VoÌĤ": 8382,
      "hot": 8383,
      "ĠNV": 8384,
      "ĠSaÌĢn": 8385,
      "ĠbiÌ£nh": 8386,
      "ĠluÌģt": 8387,
      "ĠOK": 8388,
      "ĠFB": 8389,
      "ĠFLC": 8390,
      "riend": 8391,
      "Doanh": 8392,
      "Top": 8393,
      "seÌĥ": 8394,
      "ĠNAÌĨ": 8395,
      "chain": 8396,
      "ĠngaÌģc": 8397,
      "ĠCaÌĤÌģu": 8398,
      "âĢĿ;": 8399,
      "ĠDig": 8400,
      "ĠVNPT": 8401,
      "ĠdiÌĢu": 8402,
      "eÌĤroÌĤ": 8403,
      ",m": 8404,
      "ĠloÌĤÌģc": 8405,
      "ĠsoÌ£ÌĤ": 8406,
      "ĠÄĲaÌĤu": 8407,
      "ĠruÌīa": 8408,
      "Giai": 8409,
      "028": 8410,
      "Ġhand": 8411,
      "ĠmuÌĽoÌĽÌģt": 8412,
      "ĠPhaÌģ": 8413,
      "ĠPhot": 8414,
      "ĠQH": 8415,
      "BuÌĽÌģc": 8416,
      "soÌĤÌģ": 8417,
      "yle": 8418,
      "ĠHim": 8419,
      "Ġfe": 8420,
      "ĠnoÌĢng": 8421,
      "ĠKia": 8422,
      "Ġwork": 8423,
      "ĠgioÌĽÌĥn": 8424,
      "itsub": 8425,
      "LE": 8426,
      "ctor": 8427,
      "Ġmel": 8428,
      "ĠboÌĤ": 8429,
      "ĠniÌģn": 8430,
      "ĠNATO": 8431,
      "uoÌĤÌĢm": 8432,
      "ĠDam": 8433,
      "ĠHouse": 8434,
      "stein": 8435,
      "NaÌĤng": 8436,
      "Ġur": 8437,
      "ĭáħ": 8438,
      "ĠDom": 8439,
      "ĠYoo": 8440,
      "ĠTuyeÌĤÌģn": 8441,
      "ĠNov": 8442,
      "ati": 8443,
      "reg": 8444,
      "ĠteÌ£ÌĤp": 8445,
      "ĠHOÌ£ÌĤ": 8446,
      "-G": 8447,
      "GuÌĽÌīi": 8448,
      "LieÌ£ÌĤu": 8449,
      "kinh": 8450,
      "ĠHoaÌģ": 8451,
      "ublic": 8452,
      "ĠGolden": 8453,
      "ĠLumia": 8454,
      "BoÌĤÌģn": 8455,
      "Berry": 8456,
      "SuÌĽÌģc": 8457,
      "XeÌģt": 8458,
      "ĠoÌģng": 8459,
      "ĠÄĳuÌģt": 8460,
      "Ġnew": 8461,
      "ĠNOÌĤÌī": 8462,
      "ĠMoÌĽ": 8463,
      "ĠSoc": 8464,
      "TheÌĤÌī": 8465,
      "ĠOppo": 8466,
      "ism": 8467,
      "ĠtuÌĽÌīu": 8468,
      "Ð´": 8469,
      "ĠleÌ£": 8470,
      "ĠLaÌ£ng": 8471,
      "ĠChe": 8472,
      "ison": 8473,
      "ĠHOAÌĢ": 8474,
      "ĠÄĳoÌĽÌĢ": 8475,
      "Ġmat": 8476,
      "ĠchoÌģc": 8477,
      "ĠTOÌĤ": 8478,
      "ĠGuÌĽÌīi": 8479,
      "ĠnghiÌĥnh": 8480,
      "ĠRiÌ£a": 8481,
      "ister": 8482,
      "eda": 8483,
      "ĠroÌĤÌģn": 8484,
      "ĠÄĲaÌĨÌģc": 8485,
      "ĠThuÌ£": 8486,
      "ĠLoÌĤÌĥi": 8487,
      "-ng": 8488,
      "ĠgoÌĢn": 8489,
      "Ġdau": 8490,
      "aker": 8491,
      "CaÌĢ": 8492,
      "gin": 8493,
      "eek": 8494,
      ".VN": 8495,
      "sk": 8496,
      "ĠkhaÌīi": 8497,
      "ĠngaÌģch": 8498,
      "ĠgioÌĤÌĥ": 8499,
      "ĠNe": 8500,
      "ĠhoÌģt": 8501,
      "ĠSac": 8502,
      "Ġthoi": 8503,
      "NhaÌ£c": 8504,
      "ĠbuÌĢi": 8505,
      "TuaÌĤÌĢn": 8506,
      "Ed": 8507,
      "ĠtraÌĤÌĢu": 8508,
      "Ġdata": 8509,
      "Ġimpl": 8510,
      "ĠnhoaÌģng": 8511,
      "Ġfanpage": 8512,
      "ĠSnap": 8513,
      "ĠAnt": 8514,
      "aku": 8515,
      "ashion": 8516,
      "/v": 8517,
      "cer": 8518,
      "ĠchoÌĤÌĢn": 8519,
      "ĠHaw": 8520,
      "ĠMeÌ£ÌĤnh": 8521,
      "ely": 8522,
      "rolet": 8523,
      "ĠthuÌĽÌīa": 8524,
      "ĠthoaÌ£t": 8525,
      "theÌĤÌģ": 8526,
      "ÄĳaÌģnh": 8527,
      "........": 8528,
      "scar": 8529,
      "EF": 8530,
      "Re": 8531,
      "ĠÄĳieÌĤÌģm": 8532,
      "ĠlaÌĤÌīn": 8533,
      "emy": 8534,
      "NhaÌĨÌģc": 8535,
      "ĠWik": 8536,
      "ival": 8537,
      "ĠCPU": 8538,
      "HieÌĤÌīu": 8539,
      "ĠbiÌģch": 8540,
      "ĠdaÌĤÌģy": 8541,
      "ĠTuÌī": 8542,
      "ĠCoÌĤi": 8543,
      "ĠBoÌī": 8544,
      "tho": 8545,
      "ĠJesus": 8546,
      "DuÌĽÌ£a": 8547,
      "LieÌĤÌĥu": 8548,
      "ML": 8549,
      "Ġbanh": 8550,
      "ĠnguÌĽÌĢ": 8551,
      "ĠMiÌ£": 8552,
      "eme": 8553,
      "ÄĲoaÌ£n": 8554,
      "102": 8555,
      "ĠJin": 8556,
      "evelop": 8557,
      "uel": 8558,
      "ĠThaÌ£c": 8559,
      "ĠNhaÌĤm": 8560,
      "exus": 8561,
      "240": 8562,
      "Ð»Ð°": 8563,
      "ric": 8564,
      "aÌĤt": 8565,
      "ĠSuoÌĤÌģt": 8566,
      "count": 8567,
      ".m": 8568,
      "ĠtaÌ£t": 8569,
      "OC": 8570,
      "ĠnhaÌ£ÌĤm": 8571,
      "tieÌĤÌģng": 8572,
      "Ġri": 8573,
      "ĠHun": 8574,
      "eÌĤÌĢnh": 8575,
      "ĠTruÌĢng": 8576,
      "********": 8577,
      "87": 8578,
      "Tam": 8579,
      "ĠTor": 8580,
      "ĠSub": 8581,
      "ĠATM": 8582,
      "Ġthey": 8583,
      "ĠNHAÌĤÌģ": 8584,
      "bert": 8585,
      "si": 8586,
      "ways": 8587,
      "ĠÄĳaÌģn": 8588,
      "ĠdoÌĽ": 8589,
      "Ġdem": 8590,
      "ĠNieÌĤÌģt": 8591,
      "ĠHeÌĢ": 8592,
      "ĠBAÌ£ÌĤ": 8593,
      "ĠThiÌīnh": 8594,
      "aux": 8595,
      "ĠSung": 8596,
      "ĠDC": 8597,
      "AÌĤm": 8598,
      "ĠLHQ": 8599,
      "Express": 8600,
      "ĠPasteur": 8601,
      "Vui": 8602,
      "met": 8603,
      "tim": 8604,
      "ĠÄĳaÌ£ÌĨng": 8605,
      "Ġbook": 8606,
      "ĠchuÌĽÌĥng": 8607,
      "ĠoÌĤÌīi": 8608,
      "ĠdaÌĤÌĥm": 8609,
      "ĠruÌ£t": 8610,
      "ĠVH": 8611,
      "ĠVOA": 8612,
      "ĠÄĲiÌ£ch": 8613,
      "ĠTraÌī": 8614,
      "105": 8615,
      "HieÌ£ÌĤu": 8616,
      "ĠTravel": 8617,
      "TraÌĤn": 8618,
      "PhaÌ£ÌĤt": 8619,
      "Ġtheir": 8620,
      "bour": 8621,
      "aÌĪ": 8622,
      "Ġteo": 8623,
      "ĠTi": 8624,
      "ĠroÌĽÌ£n": 8625,
      "EÌģ": 8626,
      "ĠhaÌĨÌĢn": 8627,
      "ĠkiÌĢnh": 8628,
      "ĠnoÌĽÌĥ": 8629,
      "Ġrom": 8630,
      "ThaÌĨÌĢng": 8631,
      "chu": 8632,
      "...\"": 8633,
      "ĠTTXVN": 8634,
      "ĠvaÌĤÌĢy": 8635,
      "Ġchang": 8636,
      "ĠnaÌ£ÌĤp": 8637,
      "ĠdaÌ£t": 8638,
      "Ġpol": 8639,
      "eague": 8640,
      "Ð²": 8641,
      "ĠuyeÌĤn": 8642,
      "Ġed": 8643,
      "ĠsaÌĢi": 8644,
      "Ġsum": 8645,
      "ĠgioÌĽÌī": 8646,
      "ĠhiÌī": 8647,
      "ĠgiaÌĨÌĢng": 8648,
      "uoÌĤÌīng": 8649,
      "ĠPart": 8650,
      "ÄĲuÌĽÌģng": 8651,
      "ĠZing": 8652,
      "ĠHuynh": 8653,
      "ĠQUAÌī": 8654,
      "Vietnam": 8655,
      "CAÌģ": 8656,
      "zz": 8657,
      "ĠgaÌĨÌģm": 8658,
      "toc": 8659,
      "ĠServer": 8660,
      "BA": 8661,
      "SieÌĤu": 8662,
      "ĠsaÌĤÌĢn": 8663,
      "ĠChrome": 8664,
      "ThaÌ£ÌĤm": 8665,
      "Ġinter": 8666,
      "ĠRoyal": 8667,
      "ĠthiÌī": 8668,
      "ĠveÌģn": 8669,
      "ĠTal": 8670,
      "Ġmui": 8671,
      "chiÌģnh": 8672,
      "ĠWall": 8673,
      "ĠMartin": 8674,
      ".)": 8675,
      "ĠLeg": 8676,
      "ĠPo": 8677,
      "ĠNguy": 8678,
      "thiÌĢ": 8679,
      "ifer": 8680,
      "Ġscandal": 8681,
      "ology": 8682,
      "cu": 8683,
      "Â®": 8684,
      "ĠmoÌĤÌĢng": 8685,
      "ĠsuyeÌĤÌĥn": 8686,
      "ĠAnn": 8687,
      "giaÌīi": 8688,
      ".K": 8689,
      "DN": 8690,
      "Dung": 8691,
      "ĠTaÌĤÌĢng": 8692,
      "ĠLed": 8693,
      "ĠDieÌĤu": 8694,
      "ĠTower": 8695,
      "ĠAsus": 8696,
      "91": 8697,
      "Da": 8698,
      "ĠgaÌĥi": 8699,
      "ĠthoÌīi": 8700,
      "ĠDragon": 8701,
      "MuÌĽÌģc": 8702,
      "ble": 8703,
      "ĠuyeÌĤÌīn": 8704,
      "ĠKT": 8705,
      "TruyeÌ£ÌĤn": 8706,
      "TaÌīi": 8707,
      "aÌĬ": 8708,
      "ĠtruÌĽ": 8709,
      "ĠNgaÌ£n": 8710,
      "ĠGam": 8711,
      "ĠRiver": 8712,
      "ĠFree": 8713,
      "ĠYoga": 8714,
      "ushi": 8715,
      "house": 8716,
      "ĠÐº": 8717,
      "ĠShar": 8718,
      "ĠxiÌīn": 8719,
      "La": 8720,
      "Ġhoay": 8721,
      "ĠST": 8722,
      "ures": 8723,
      "ĠSUV": 8724,
      "BaÌĨÌģc": 8725,
      "gram": 8726,
      "mark": 8727,
      "ĠchaÌĢi": 8728,
      "ĠnhuÌģc": 8729,
      "ĠDuÌĽoÌĽÌĥng": 8730,
      "thoÌĽÌĢi": 8731,
      "Ġhydro": 8732,
      "ĠTRONG": 8733,
      "LINE": 8734,
      "VieÌĤn": 8735,
      "ful": 8736,
      "wo": 8737,
      "xaÌĥ": 8738,
      "ĠnhaÌ£o": 8739,
      "ĠcoÌ£ng": 8740,
      "ennis": 8741,
      "âĢĶâĢĶâĢĶâĢĶâĢĶâĢĶâĢĶâĢĶ": 8742,
      "ĠAudi": 8743,
      "115": 8744,
      "ĠiÌī": 8745,
      "Ġag": 8746,
      "ĠRec": 8747,
      "ĠXo": 8748,
      "ĠhueÌ£ÌĤ": 8749,
      "IDS": 8750,
      "khuÌīng": 8751,
      "rit": 8752,
      "ĠroÌĤÌĢ": 8753,
      "ĠCore": 8754,
      "ĠThan": 8755,
      "ĠloaÌģng": 8756,
      "chaÌĤÌģt": 8757,
      "Ġitem": 8758,
      "vice": 8759,
      "ĠcoÌ£ÌĤ": 8760,
      "Ġnham": 8761,
      "ĠCaÌĢi": 8762,
      "ĠDieÌĤn": 8763,
      "ÄĲaÌĢ": 8764,
      "ĠRanh": 8765,
      "ĠWifi": 8766,
      "Ġoi": 8767,
      "ugh": 8768,
      "ĠBHTN": 8769,
      ":âĢľ": 8770,
      "raÌĤÌģt": 8771,
      "uter": 8772,
      "ĠToÌĤÌĢn": 8773,
      "âĢĿ-": 8774,
      "ĠWil": 8775,
      "ÄĳaÌĤÌĢu": 8776,
      "cept": 8777,
      "ĠFrank": 8778,
      "',": 8779,
      "VoÌĤÌģn": 8780,
      "ĠÑĤ": 8781,
      "ĠhyÌī": 8782,
      "ĠnhaÌĨÌĥn": 8783,
      "ĠxiÌģt": 8784,
      "âĢ¦..": 8785,
      "chuyeÌ£ÌĤn": 8786,
      "ĠColor": 8787,
      "/tuaÌĤÌĢn": 8788,
      "Suy": 8789,
      "SaÌĨÌģc": 8790,
      "hieÌ£ÌĤn": 8791,
      "por": 8792,
      "Ġ@": 8793,
      "ĠBoÌĤÌīn": 8794,
      "ÄĲuÌĽoÌĽng": 8795,
      "thaÌĤÌĢn": 8796,
      "-K": 8797,
      "ĠchaÌĨÌģt": 8798,
      "Ġgram": 8799,
      "ĠxuoÌĤÌĢng": 8800,
      "ĠPha": 8801,
      "ThaÌīo": 8802,
      "ĠGIAÌī": 8803,
      "750": 8804,
      "RP": 8805,
      "ĠOut": 8806,
      "ĠArt": 8807,
      "Ð¸ÌĨ": 8808,
      "LaÌĨng": 8809,
      "LaÌ£y": 8810,
      "cao": 8811,
      "ĠvuÌĽÌĥa": 8812,
      "Ġnhe": 8813,
      "ĠhoaÌī": 8814,
      "ĠMeg": 8815,
      "ĠKTS": 8816,
      "ĠYahoo": 8817,
      "ĠveÌ£ÌĤt": 8818,
      "ĠOÌĤÌģc": 8819,
      "ĠClick": 8820,
      "Wh": 8821,
      "nuÌĽoÌĽÌģc": 8822,
      "Ø§": 8823,
      "ĠdieÌĤÌĢu": 8824,
      "ĠÄĲAÌĤÌĢ": 8825,
      "HoÌĢa": 8826,
      "ĠMotor": 8827,
      "\"KhoÌĤng": 8828,
      "ĠheÌģo": 8829,
      "ĠTU": 8830,
      "ĠTon": 8831,
      "ĠHoaÌĨÌĢng": 8832,
      "ating": 8833,
      "evrolet": 8834,
      "ĠBlue": 8835,
      "wan": 8836,
      "ĠHuawei": 8837,
      "ĠNgu": 8838,
      "ĠGel": 8839,
      "ĠRau": 8840,
      "ChaÌģu": 8841,
      "ga": 8842,
      "ĠcaÌĢn": 8843,
      "Ġgang": 8844,
      "ĠTuÌĽoÌĽÌģc": 8845,
      "ious": 8846,
      "Ġadd": 8847,
      "ĠCharl": 8848,
      "Com": 8849,
      "ĠlaÌģo": 8850,
      "ĠraÌģng": 8851,
      "ĠMiÌĥ": 8852,
      "ĠDaily": 8853,
      "ars": 8854,
      "NhaÌĤÌģt": 8855,
      "ĠtuyÌģ": 8856,
      "ĠToÌĤÌģc": 8857,
      "ĠNext": 8858,
      "ĠÄĲaÌģp": 8859,
      "ĠNguÌĽng": 8860,
      "ĠdoaÌ£": 8861,
      "esel": 8862,
      "RI": 8863,
      "ĠtaÌĤÌģy": 8864,
      "ĠnaÌĤÌģc": 8865,
      "ĠgaÌĨng": 8866,
      "ĠCard": 8867,
      "ĠVen": 8868,
      ".[": 8869,
      "xic": 8870,
      "ĠngaÌģt": 8871,
      "ĠOscar": 8872,
      "/phuÌģt": 8873,
      "ĠTuyeÌĤÌīn": 8874,
      "ĠChiÌģn": 8875,
      "aba": 8876,
      "HoÌĤÌĥ": 8877,
      "Ġnom": 8878,
      "ĠraÌĤÌĢu": 8879,
      "ĠTruy": 8880,
      "ĠChuÌĽ": 8881,
      "chuÌģng": 8882,
      "ĠCharles": 8883,
      "ĠValent": 8884,
      "ĠuÌĢ": 8885,
      "ĠbiÌ£ch": 8886,
      "ĠTang": 8887,
      "Ġray": 8888,
      "ĠSir": 8889,
      "ema": 8890,
      "acy": 8891,
      "ington": 8892,
      "Ġah": 8893,
      "RS": 8894,
      "ction": 8895,
      "ĠvaÌ£": 8896,
      "ĠtroÌĤÌĥi": 8897,
      "ĠMill": 8898,
      "ÄĲaÌĤÌģt": 8899,
      "Quang": 8900,
      "ĠEnter": 8901,
      "Link": 8902,
      "XX": 8903,
      "ĠboÌģi": 8904,
      "itz": 8905,
      "ĠsoÌĢ": 8906,
      "ĠFin": 8907,
      "Ġimplant": 8908,
      "DT": 8909,
      "UN": 8910,
      "ĠdaÌĥi": 8911,
      "ĠMail": 8912,
      "ember": 8913,
      "ĠDA": 8914,
      "Ġcasino": 8915,
      "GM": 8916,
      "ĠcuÌĢi": 8917,
      "ĠVuÌĽoÌĽÌ£ng": 8918,
      "ĠÄĲAÌĤ": 8919,
      "ĠPen": 8920,
      "Ġlove": 8921,
      "ĠAngela": 8922,
      "CaÌģm": 8923,
      "TIN": 8924,
      "ez": 8925,
      "ĠhaÌĤÌģu": 8926,
      "ĠBlo": 8927,
      "eco": 8928,
      "rah": 8929,
      "ĠliÌģu": 8930,
      "anks": 8931,
      "ĠNGUÌĽOÌĽÌĢ": 8932,
      "BoÌī": 8933,
      "huyeÌ£ÌĤn": 8934,
      "Ġdel": 8935,
      "ĠThuyeÌĤÌģt": 8936,
      ".P": 8937,
      "Â°": 8938,
      "Ġsk": 8939,
      "ĠHTX": 8940,
      "Ġfree": 8941,
      "ĠMetro": 8942,
      "TuÌī": 8943,
      "uÌĽÌģu": 8944,
      "ĠmuÌģc": 8945,
      "ĠhoÌĢm": 8946,
      "anin": 8947,
      "ĠSK": 8948,
      "ĠFDI": 8949,
      "ĠJet": 8950,
      "...,": 8951,
      "ĠthoÌĽÌģt": 8952,
      "111": 8953,
      "ĠItaly": 8954,
      "vietnam": 8955,
      ",b": 8956,
      "370": 8957,
      "Ġ|Ċ": 8958,
      "ĠToÌ£ÌĤc": 8959,
      "ĠHeÌĤÌģt": 8960,
      "ĠChang": 8961,
      "ĠkhueÌĤÌģch": 8962,
      "edu": 8963,
      "ĠAngeles": 8964,
      "Ġdecal": 8965,
      "ĠFrancisco": 8966,
      "SuÌĽ": 8967,
      "voÌĤ": 8968,
      "ĠboÌĽÌĢi": 8969,
      "ĠneÌīo": 8970,
      "ĠÄĲuÌĽÌģa": 8971,
      "ĠÄĲUÌĽOÌĽÌ£": 8972,
      "ĠManh": 8973,
      "ĠDaÌĤÌģu": 8974,
      "ĠUber": 8975,
      "ffee": 8976,
      "ĠveÌ£o": 8977,
      "ĠToÌģm": 8978,
      "ĠRi": 8979,
      "Ġany": 8980,
      "ipedia": 8981,
      "ears": 8982,
      "ESCO": 8983,
      "dragon": 8984,
      "itsubishi": 8985,
      "ĠVang": 8986,
      "ĠMaÌĥi": 8987,
      "ĠAz": 8988,
      "ĠPheÌĤroÌĤ": 8989,
      "ÄĲaÌģp": 8990,
      "Ġfil": 8991,
      "ĠIns": 8992,
      "ĠMobi": 8993,
      "Ġwhich": 8994,
      "ĠuoÌĤÌīng": 8995,
      "ĠchoÌĤÌī": 8996,
      "Ġnil": 8997,
      "uynh": 8998,
      "ĠKen": 8999,
      "ĠChuÌĽÌĥa": 9000,
      "ĠngoaÌ£ÌĨt": 9001,
      "Ġcabin": 9002,
      "Ġkey": 9003,
      "umi": 9004,
      "ĠxaÌĤÌīy": 9005,
      "ĠCit": 9006,
      "ĠTroÌĽÌī": 9007,
      "Ġtoi": 9008,
      "ĠGian": 9009,
      "pping": 9010,
      "ĠTIÌģ": 9011,
      "ĠCoÌĤÌīng": 9012,
      "QuaÌĤÌĢn": 9013,
      "ustin": 9014,
      "93": 9015,
      "CaÌĤÌģu": 9016,
      "ves": 9017,
      "~~": 9018,
      "ĠNeÌĤÌĢn": 9019,
      "ĠPre": 9020,
      "ĠRE": 9021,
      "can": 9022,
      "uÌĽoÌĽu": 9023,
      "ĠVOÌĽÌģ": 9024,
      "TraÌ£ÌĤn": 9025,
      "ĠRuÌĽoÌĽÌ£u": 9026,
      "atus": 9027,
      "ĠHarv": 9028,
      "ĠBT": 9029,
      "ĠSoÌģng": 9030,
      "ĠTraÌ£i": 9031,
      "elly": 9032,
      "ĠXung": 9033,
      "ume": 9034,
      "eller": 9035,
      "ience": 9036,
      "Ġabout": 9037,
      "TuÌĽÌĢng": 9038,
      "ĠTan": 9039,
      "ĠBoÌĤÌģi": 9040,
      "ĠLife": 9041,
      "ĠDell": 9042,
      "ÄĲeÌĢn": 9043,
      "ula": 9044,
      "osterone": 9045,
      "EÌ£": 9046,
      "Ġvv": 9047,
      "ĠÄĲoÌ£ÌĤt": 9048,
      "ĠLuÌĽ": 9049,
      "ĠPhiÌī": 9050,
      "NgoÌĤ": 9051,
      "round": 9052,
      "ido": 9053,
      "idan": 9054,
      "168": 9055,
      "ĠsuoÌĤng": 9056,
      "Ġprot": 9057,
      "ĠBeach": 9058,
      "ĠVIP": 9059,
      "ToÌĤÌģt": 9060,
      "Ġlip": 9061,
      "ĠhaÌĨm": 9062,
      "ĠgieÌĤÌĥu": 9063,
      "ĠKur": 9064,
      "asy": 9065,
      "uÌĽoÌĽÌ£m": 9066,
      "QuaÌīn": 9067,
      "))": 9068,
      ",t": 9069,
      "auty": 9070,
      "ĠvuÌĥng": 9071,
      "rent": 9072,
      "ĠchaÌĢm": 9073,
      "Ġnat": 9074,
      "UBND": 9075,
      "AV": 9076,
      "VeÌī": 9077,
      "],": 9078,
      "ĠdaÌĤÌģm": 9079,
      "ĠriÌĢnh": 9080,
      "ĠLaÌĢnh": 9081,
      "âĢĿ:": 9082,
      "ĠChoÌĽÌĢ": 9083,
      "ThaÌģnh": 9084,
      "Ġion": 9085,
      "ĠâĢĿĊ": 9086,
      "Ġ=>": 9087,
      "GP": 9088,
      "ĠBoÌĤÌĥng": 9089,
      "ĠGod": 9090,
      "tron": 9091,
      "ĠThuaÌĤÌĢn": 9092,
      "ĠArab": 9093,
      "LuoÌĤn": 9094,
      "RoÌĥ": 9095,
      "Sam": 9096,
      "ĠuÌĽoÌĽm": 9097,
      "Ġhad": 9098,
      "ĠkhaÌĤm": 9099,
      "ĠÄĳoÌĤn": 9100,
      "ĠFre": 9101,
      "ĠnguÌĢi": 9102,
      "xicoÌĤ": 9103,
      "Fone": 9104,
      "Ġreg": 9105,
      "ĠNOÌ£ÌĤ": 9106,
      "ĠNano": 9107,
      "ĠLim": 9108,
      "ĠSho": 9109,
      "ĠSand": 9110,
      "ĠNgoÌ£ÌĤ": 9111,
      "ides": 9112,
      "ĠSEA": 9113,
      "%)": 9114,
      ".b": 9115,
      "raph": 9116,
      "ĠuÌģng": 9117,
      "ĠnhoÌģi": 9118,
      "ĠBI": 9119,
      "Ġcook": 9120,
      "ense": 9121,
      "edan": 9122,
      "âĢĻ.Ċ": 9123,
      "field": 9124,
      "ĠlieÌĤm": 9125,
      "ĠchoÌĤÌīi": 9126,
      "ĠCaÌĨÌģt": 9127,
      "ĠCry": 9128,
      "ĠPP": 9129,
      "ĠLove": 9130,
      "ĠbeÌĤÌĢnh": 9131,
      "ĠchoÌĢm": 9132,
      "Ġloay": 9133,
      "omo": 9134,
      "ĠDownload": 9135,
      "ĠTouch": 9136,
      "ĠTHUÌĽÌģ": 9137,
      "KieÌĤÌģn": 9138,
      "ĠaÌīm": 9139,
      "Ġthinh": 9140,
      "ĠSar": 9141,
      "ĠKey": 9142,
      "ĠJW": 9143,
      "Ġstyle": 9144,
      "97": 9145,
      "Ghi": 9146,
      "Ġes": 9147,
      "ĠLaÌĨÌģk": 9148,
      "ĠChuÌĽÌģ": 9149,
      "ÄĲaÌĢn": 9150,
      "Ġreview": 9151,
      "ĠBieÌ£ÌĤn": 9152,
      "ĠSUÌĽÌī": 9153,
      "ĠKat": 9154,
      "ĠAth": 9155,
      "ÄĳieÌĤÌĢu": 9156,
      "ĠTHAÌģ": 9157,
      "ĠmuÌĽoÌĽÌģn": 9158,
      "men": 9159,
      "Ġduoc": 9160,
      "asa": 9161,
      "ĠJac": 9162,
      "giaÌģ": 9163,
      "ĠPhanxicoÌĤ": 9164,
      "ĠNGUYEÌĤ": 9165,
      "COM": 9166,
      "ĠkiÌ£": 9167,
      "ĠTer": 9168,
      "ĠroÌĤ": 9169,
      "ĠCur": 9170,
      "ĠHeÌĤÌĢ": 9171,
      "ĠPG": 9172,
      "ĠAdd": 9173,
      "ĠBayern": 9174,
      "&T": 9175,
      "Vi": 9176,
      "caÌ£ÌĤu": 9177,
      "fect": 9178,
      "ĠneÌī": 9179,
      "ĠBuÌĽÌīu": 9180,
      "ĠThieÌĤÌģn": 9181,
      "ĠmuÌģi": 9182,
      "ĠÐ´": 9183,
      "-o": 9184,
      "Ġvon": 9185,
      "Ġdan": 9186,
      "ĠTaÌ£ÌĤn": 9187,
      "ĠroÌĽ": 9188,
      "ĠNXB": 9189,
      "ĠSAÌī": 9190,
      "ThuÌĽoÌĽÌ£ng": 9191,
      "oro": 9192,
      "TruyeÌĤÌĢn": 9193,
      "ĠLuc": 9194,
      "Ġjean": 9195,
      "Ġgluc": 9196,
      "Mang": 9197,
      "xe": 9198,
      "Ġap": 9199,
      "ĠMO": 9200,
      "ÄĲoÌĤÌĥ": 9201,
      "ovic": 9202,
      "ĠCanon": 9203,
[...]
